<pad>	0
<unk>	0
<s>	0
</s>	0
<action>	0
<ai>	0
<children>	0
<comedy>	0
<crime>	0
<drama>	0
<fantasy>	0
<historical>	0
<horror>	0
<nonfiction>	0
<other>	0
<realism>	0
<romance>	0
<science_fiction>	0
<speculative>	0
<thriller>	0
<young_adult>	0
▁t	-0
he	-1
▁a	-2
in	-3
▁the	-4
er	-5
nd	-6
▁s	-7
re	-8
is	-9
▁o	-10
▁w	-11
es	-12
▁h	-13
▁b	-14
at	-15
▁f	-16
on	-17
▁to	-18
▁c	-19
en	-20
ing	-21
▁and	-22
or	-23
it	-24
ed	-25
ar	-26
an	-27
▁in	-28
▁p	-29
▁of	-30
▁he	-31
al	-32
▁d	-33
▁m	-34
ou	-35
le	-36
as	-37
om	-38
ic	-39
el	-40
il	-41
▁th	-42
▁l	-43
▁re	-44
▁is	-45
▁T	-46
ion	-47
im	-48
▁her	-49
▁g	-50
▁his	-51
▁e	-52
▁n	-53
ent	-54
ac	-55
▁S	-56
▁A	-57
▁be	-58
st	-59
ot	-60
ur	-61
ly	-62
ow	-63
ut	-64
ol	-65
ith	-66
et	-67
ri	-68
ve	-69
ad	-70
▁M	-71
am	-72
▁with	-73
▁for	-74
ir	-75
▁H	-76
▁wh	-77
▁that	-78
ter	-79
▁on	-80
ver	-81
▁C	-82
us	-83
▁st	-84
id	-85
gh	-86
her	-87
ec	-88
un	-89
▁B	-90
▁The	-91
ro	-92
ay	-93
▁as	-94
ra	-95
ill	-96
▁D	-97
ce	-98
▁an	-99
ak	-100
ul	-101
▁him	-102
▁by	-103
ts	-104
▁J	-105
if	-106
▁at	-107
▁L	-108
▁R	-109
ers	-110
▁al	-111
▁she	-112
▁W	-113
os	-114
ation	-115
ge	-116
ess	-117
ch	-118
rom	-119
▁k	-120
and	-121
▁P	-122
est	-123
em	-124
ous	-125
ld	-126
ap	-127
▁I	-128
▁con	-129
▁G	-130
ain	-131
▁was	-132
▁who	-133
▁ex	-134
▁F	-135
▁le	-136
▁from	-137
▁E	-138
up	-139
end	-140
▁v	-141
op	-142
▁it	-143
iv	-144
od	-145
▁de	-146
ie	-147
▁sh	-148
ell	-149
▁ch	-150
igh	-151
ig	-152
art	-153
▁whe	-154
ack	-155
▁but	-156
res	-157
▁has	-158
▁com	-159
ind	-160
▁se	-161
▁lo	-162
ate	-163
▁K	-164
ant	-165
▁ne	-166
ab	-167
ist	-168
▁are	-169
rou	-170
av	-171
um	-172
▁wor	-173
▁N	-174
▁their	-175
all	-176
ore	-177
ity	-178
▁int	-179
▁they	-180
qu	-181
ich	-182
ct	-183
th	-184
ag	-185
ies	-186
ard	-187
ome	-188
▁un	-189
▁He	-190
fter	-191
ry	-192
ally	-193
▁pl	-194
ive	-195
ure	-196
▁r	-197
are	-198
▁ar	-199
oun	-200
▁y	-201
▁ab	-202
ear	-203
ave	-204
ife	-205
ect	-206
▁up	-207
▁out	-208
ust	-209
▁not	-210
oc	-211
ok	-212
▁j	-213
▁su	-214
▁sp	-215
ile	-216
▁O	-217
ip	-218
▁dis	-219
▁pro	-220
other	-221
ud	-222
▁into	-223
▁man	-224
ass	-225
ast	-226
out	-227
urn	-228
▁cl	-229
▁them	-230
▁go	-231
se	-232
ort	-233
ight	-234
▁bec	-235
vel	-236
cc	-237
▁en	-238
own	-239
▁att	-240
▁which	-241
▁bo	-242
ep	-243
▁She	-244
ious	-245
one	-246
ks	-247
▁In	-248
▁tak	-249
ment	-250
iz	-251
wn	-252
ia	-253
ong	-254
▁Ch	-255
ather	-256
ite	-257
▁V	-258
ime	-259
ans	-260
▁find	-261
▁all	-262
▁had	-263
▁exp	-264
▁do	-265
▁tr	-266
ide	-267
▁one	-268
our	-269
▁ev	-270
ue	-271
age	-272
▁kill	-273
sel	-274
▁where	-275
co	-276
ost	-277
pp	-278
ire	-279
ice	-280
ff	-281
▁life	-282
ine	-283
ne	-284
ath	-285
ther	-286
▁off	-287
▁or	-288
▁ag	-289
▁res	-290
ace	-291
ated	-292
ory	-293
ily	-294
ick	-295
ould	-296
ob	-297
riend	-298
ild	-299
▁when	-300
▁after	-301
ance	-302
ame	-303
oll	-304
▁cont	-305
ves	-306
▁have	-307
ence	-308
▁des	-309
self	-310
▁St	-311
ik	-312
▁tra	-313
▁As	-314
ang	-315
▁"	-316
▁im	-317
ach	-318
▁so	-319
▁ret	-320
▁Th	-321
ond	-322
▁world	-323
▁ad	-324
ash	-325
ial	-326
hen	-327
ian	-328
▁(	-329
▁pre	-330
▁no	-331
uc	-332
▁about	-333
▁time	-334
ings	-335
▁tw	-336
ish	-337
ets	-338
▁me	-339
ater	-340
▁other	-341
▁U	-342
ins	-343
ays	-344
ub	-345
▁fam	-346
so	-347
ign	-348
▁this	-349
▁Mar	-350
▁An	-351
▁sc	-352
▁father	-353
rough	-354
ens	-355
ib	-356
▁will	-357
der	-358
pt	-359
▁ro	-360
▁pr	-361
orm	-362
old	-363
reat	-364
og	-365
und	-366
▁dec	-367
▁love	-368
▁can	-369
▁over	-370
arn	-371
▁back	-372
act	-373
▁mak	-374
▁been	-375
ents	-376
ions	-377
▁friend	-378
ew	-379
▁also	-380
cover	-381
ree	-382
use	-383
▁comp	-384
▁beg	-385
cl	-386
▁Al	-387
▁only	-388
▁kn	-389
hes	-390
▁qu	-391
ound	-392
▁then	-393
mer	-394
▁app	-395
ough	-396
ears	-397
ood	-398
▁inv	-399
▁part	-400
▁new	-401
ely	-402
able	-403
ose	-404
▁family	-405
ful	-406
▁fin	-407
ations	-408
ren	-409
▁tell	-410
ows	-411
▁two	-412
ouse	-413
▁return	-414
▁1	-415
▁br	-416
▁When	-417
ail	-418
▁work	-419
ives	-420
▁After	-421
▁own	-422
au	-423
ys	-424
iss	-425
round	-426
ons	-427
oung	-428
als	-429
ever	-430
▁end	-431
ult	-432
een	-433
very	-434
▁mar	-435
ict	-436
ber	-437
ru	-438
▁hel	-439
ces	-440
fore	-441
▁young	-442
ary	-443
▁Jo	-444
▁bl	-445
ress	-446
uring	-447
▁Her	-448
ord	-449
man	-450
▁home	-451
ical	-452
▁tri	-453
ates	-454
app	-455
oth	-456
▁fir	-457
▁es	-458
itt	-459
▁imp	-460
▁child	-461
ters	-462
▁mother	-463
▁acc	-464
▁help	-465
owing	-466
▁would	-467
▁Y	-468
▁we	-469
ux	-470
▁real	-471
cap	-472
riv	-473
ade	-474
▁while	-475
ors	-476
▁sec	-477
▁pass	-478
▁discover	-479
aw	-480
▁per	-481
▁They	-482
▁rem	-483
hed	-484
les	-485
▁some	-486
▁through	-487
▁aw	-488
▁again	-489
per	-490
▁rel	-491
ount	-492
ning	-493
uxur	-494
oy	-495
▁und	-496
ually	-497
▁car	-498
ool	-499
▁us	-500
ran	-501
▁sur	-502
owever	-503
▁himself	-504
▁book	-505
▁being	-506
augh	-507
▁ind	-508
ov	-509
▁gr	-510
hip	-511
▁story	-512
▁luxur	-513
▁first	-514
ike	-515
▁comm	-516
▁pe	-517
hn	-518
▁pers	-519
▁before	-520
▁inf	-521
▁foll	-522
apt	-523
▁cr	-524
▁call	-525
irl	-526
▁more	-527
▁house	-528
▁finds	-529
aren	-530
▁get	-531
▁under	-532
▁high	-533
▁act	-534
ating	-535
its	-536
▁inter	-537
▁escap	-538
aving	-539
air	-540
ied	-541
▁pol	-542
hile	-543
ft	-544
rand	-545
ise	-546
land	-547
▁te	-548
▁dest	-549
▁wom	-550
ident	-551
▁tells	-552
▁Sh	-553
▁ass	-554
ase	-555
▁old	-556
▁most	-557
▁conf	-558
oin	-559
▁there	-560
▁fl	-561
▁char	-562
▁its	-563
▁ref	-564
ert	-565
amp	-566
▁ser	-567
ashion	-568
▁mem	-569
▁ra	-570
ere	-571
▁It	-572
king	-573
ccess	-574
▁plan	-575
▁ac	-576
▁bus	-577
ron	-578
▁rep	-579
▁ent	-580
ition	-581
▁bel	-582
▁bet	-583
▁becom	-584
▁lead	-585
▁ins	-586
ting	-587
oss	-588
▁death	-589
▁expl	-590
chool	-591
▁fashion	-592
▁Ar	-593
▁take	-594
att	-595
▁down	-596
▁city	-597
▁loc	-598
▁takes	-599
▁success	-600
ark	-601
▁see	-602
gg	-603
▁years	-604
▁girl	-605
ness	-606
amed	-607
lect	-608
▁At	-609
▁reve	-610
▁learn	-611
▁det	-612
▁rec	-613
▁em	-614
▁col	-615
ause	-616
ues	-617
ph	-618
▁attem	-619
▁does	-620
▁fe	-621
ower	-622
▁am	-623
▁mur	-624
ean	-625
▁novel	-626
▁travel	-627
ople	-628
▁found	-629
▁turn	-630
red	-631
ret	-632
ures	-633
▁ri	-634
▁ph	-635
▁school	-636
▁soc	-637
▁night	-638
▁pres	-639
▁hum	-640
arl	-641
▁art	-642
▁capt	-643
ides	-644
▁person	-645
xt	-646
▁vis	-647
rit	-648
▁day	-649
ah	-650
▁design	-651
ten	-652
▁way	-653
▁later	-654
led	-655
▁make	-656
▁both	-657
▁were	-658
vers	-659
▁what	-660
▁contin	-661
less	-662
▁bre	-663
▁begins	-664
▁away	-665
ock	-666
▁His	-667
vent	-668
arr	-669
▁inst	-670
ann	-671
▁Cl	-672
▁friends	-673
▁luxury	-674
oot	-675
▁becomes	-676
ward	-677
▁sup	-678
yle	-679
orn	-680
▁every	-681
▁now	-682
eth	-683
▁El	-684
▁perf	-685
get	-686
▁people	-687
ody	-688
aves	-689
▁set	-690
▁However	-691
ced	-692
▁run	-693
▁goes	-694
▁well	-695
▁fall	-696
▁care	-697
pite	-698
ains	-699
iving	-700
ison	-701
ual	-702
ands	-703
yst	-704
pl	-705
▁wife	-706
▁John	-707
ved	-708
▁attack	-709
▁co	-710
▁murder	-711
▁bu	-712
enn	-713
▁killed	-714
ars	-715
ley	-716
ier	-717
my	-718
▁named	-719
ke	-720
clud	-721
urs	-722
ene	-723
▁Z	-724
▁tal	-725
iness	-726
▁woman	-727
ants	-728
ric	-729
▁gu	-730
▁son	-731
▁belie	-732
▁any	-733
iet	-734
ince	-735
▁cons	-736
aughter	-737
▁just	-738
▁during	-739
▁become	-740
ited	-741
let	-742
▁town	-743
▁Mr	-744
▁Le	-745
▁escape	-746
▁because	-747
uth	-748
▁made	-749
▁paren	-750
▁sm	-751
rew	-752
ork	-753
▁arri	-754
▁Un	-755
ble	-756
▁head	-757
▁than	-758
▁Re	-759
▁event	-760
ven	-761
roup	-762
az	-763
▁passion	-764
▁19	-765
▁police	-766
els	-767
pect	-768
▁Des	-769
▁parents	-770
rist	-771
▁often	-772
iff	-773
ween	-774
▁another	-775
▁This	-776
▁war	-777
▁brother	-778
ake	-779
▁even	-780
▁marri	-781
▁op	-782
▁long	-783
ull	-784
▁el	-785
ern	-786
▁New	-787
▁sl	-788
▁herself	-789
▁between	-790
▁meet	-791
▁play	-792
▁men	-793
▁like	-794
ient	-795
oney	-796
olog	-797
▁next	-798
arly	-799
▁On	-800
▁quick	-801
▁group	-802
uch	-803
erm	-804
ured	-805
▁if	-806
▁rest	-807
by	-808
ined	-809
iel	-810
▁But	-811
▁each	-812
▁business	-813
ately	-814
▁dead	-815
▁sk	-816
uses	-817
ek	-818
ists	-819
▁ke	-820
▁soon	-821
ling	-822
▁ob	-823
▁could	-824
ty	-825
▁never	-826
▁daughter	-827
io	-828
ilm	-829
ane	-830
▁how	-831
arth	-832
▁includ	-833
ained	-834
pts	-835
▁quickly	-836
▁place	-837
▁De	-838
ady	-839
▁children	-840
▁power	-841
▁against	-842
▁tries	-843
▁gl	-844
ps	-845
00	-846
▁Gr	-847
▁sub	-848
ale	-849
▁invest	-850
▁things	-851
ister	-852
▁leave	-853
atch	-854
▁three	-855
ased	-856
any	-857
▁around	-858
aut	-859
▁realiz	-860
▁stud	-861
▁try	-862
▁look	-863
ug	-864
den	-865
ines	-866
ros	-867
▁str	-868
ina	-869
ted	-870
ility	-871
rag	-872
▁boy	-873
▁meets	-874
▁And	-875
▁happ	-876
▁Bl	-877
▁fight	-878
eri	-879
▁ext	-880
▁2	-881
ities	-882
▁gets	-883
ages	-884
▁En	-885
▁film	-886
▁comes	-887
▁break	-888
▁mo	-889
velop	-890
▁leaves	-891
▁returns	-892
▁Despite	-893
▁Sp	-894
▁nat	-895
▁many	-896
alth	-897
ax	-898
▁personal	-899
ends	-900
▁though	-901
ying	-902
ner	-903
ways	-904
ames	-905
uck	-906
ink	-907
▁While	-908
▁def	-909
▁money	-910
af	-911
▁decides	-912
▁fav	-913
▁beh	-914
ination	-915
..	-916
ream	-917
▁miss	-918
meric	-919
▁charac	-920
ital	-921
ible	-922
▁dem	-923
▁having	-924
▁inc	-925
▁Fran	-926
▁priv	-927
ney	-928
▁eventually	-929
▁sever	-930
▁develop	-931
▁-	-932
▁secret	-933
▁always	-934
part	-935
te	-936
bers	-937
▁hist	-938
ued	-939
▁come	-940
▁dr	-941
arts	-942
arm	-943
▁With	-944
▁count	-945
gether	-946
▁together	-947
▁age	-948
▁social	-949
▁ship	-950
▁seem	-951
▁body	-952
▁trans	-953
▁successful	-954
anc	-955
▁mag	-956
▁reveal	-957
▁must	-958
▁still	-959
ided	-960
ving	-961
▁mon	-962
▁discovers	-963
que	-964
▁prom	-965
ects	-966
▁relations	-967
▁sw	-968
▁human	-969
▁Christ	-970
▁left	-971
▁Jack	-972
▁Americ	-973
▁unt	-974
▁med	-975
ix	-976
▁room	-977
▁aff	-978
▁est	-979
▁enc	-980
ton	-981
▁main	-982
while	-983
▁attempt	-984
▁Br	-985
▁order	-986
ared	-987
▁prot	-988
gn	-989
▁Be	-990
▁show	-991
▁Tom	-992
friend	-993
ense	-994
lic	-995
▁sle	-996
▁Sc	-997
▁makes	-998
vin	-999
▁know	-1000
▁events	-1001
▁last	-1002
ered	-1003
ional	-1004
▁One	-1005
▁stop	-1006
ches	-1007
be	-1008
▁destro	-1009
ross	-1010
▁perfect	-1011
ator	-1012
cept	-1013
▁relationship	-1014
▁Em	-1015
illed	-1016
▁ends	-1017
▁po	-1018
▁lives	-1019
uct	-1020
▁follow	-1021
▁keep	-1022
ural	-1023
▁ca	-1024
▁contr	-1025
▁Q	-1026
aster	-1027
▁sus	-1028
▁let	-1029
▁mod	-1030
▁Rob	-1031
▁beaut	-1032
port	-1033
igious	-1034
▁sent	-1035
▁same	-1036
ris	-1037
hel	-1038
▁called	-1039
yl	-1040
▁favor	-1041
ener	-1042
ony	-1043
uss	-1044
▁much	-1045
▁Ad	-1046
leg	-1047
lex	-1048
▁reg	-1049
▁very	-1050
▁Har	-1051
nown	-1052
side	-1053
▁local	-1054
▁inform	-1055
usb	-1056
▁until	-1057
▁Dr	-1058
▁Ang	-1059
aj	-1060
ired	-1061
aur	-1062
ically	-1063
ead	-1064
ats	-1065
▁begin	-1066
▁sex	-1067
osp	-1068
eanwhile	-1069
aim	-1070
▁Will	-1071
ger	-1072
gan	-1073
▁.	-1074
▁lif	-1075
yster	-1076
▁ey	-1077
▁Ed	-1078
▁finally	-1079
▁past	-1080
med	-1081
▁thr	-1082
▁shoot	-1083
▁along	-1084
▁Am	-1085
▁husb	-1086
▁arrives	-1087
▁poss	-1088
▁Ge	-1089
inc	-1090
▁Meanwhile	-1091
▁learns	-1092
▁asks	-1093
▁investig	-1094
▁several	-1095
rest	-1096
clus	-1097
br	-1098
ative	-1099
▁Con	-1100
▁name	-1101
ank	-1102
▁living	-1103
▁creat	-1104
▁surv	-1105
▁sees	-1106
▁job	-1107
iec	-1108
▁dist	-1109
▁diff	-1110
rie	-1111
▁dri	-1112
▁wr	-1113
▁uni	-1114
ication	-1115
oon	-1116
▁Is	-1117
▁favorite	-1118
ism	-1119
▁purs	-1120
▁deep	-1121
▁whom	-1122
ering	-1123
ex	-1124
rid	-1125
▁need	-1126
▁career	-1127
▁experi	-1128
to	-1129
▁prof	-1130
▁gives	-1131
ially	-1132
▁true	-1133
ently	-1134
▁Sam	-1135
▁known	-1136
▁visit	-1137
▁gun	-1138
▁heart	-1139
ght	-1140
▁resc	-1141
▁kills	-1142
▁club	-1143
iew	-1144
▁free	-1145
yn	-1146
▁turns	-1147
▁offic	-1148
▁cour	-1149
oses	-1150
▁former	-1151
ple	-1152
rig	-1153
▁hand	-1154
▁vill	-1155
ield	-1156
▁myster	-1157
▁attempts	-1158
▁start	-1159
▁use	-1160
▁wants	-1161
son	-1162
ises	-1163
▁reveals	-1164
arch	-1165
oph	-1166
▁husband	-1167
cle	-1168
ished	-1169
ott	-1170
▁Fl	-1171
ular	-1172
ason	-1173
▁live	-1174
▁near	-1175
▁collect	-1176
▁able	-1177
▁Dav	-1178
ara	-1179
▁Pet	-1180
▁dra	-1181
▁member	-1182
▁Pr	-1183
eal	-1184
▁great	-1185
▁want	-1186
▁During	-1187
▁including	-1188
▁York	-1189
),	-1190
▁history	-1191
iam	-1192
aul	-1193
▁narr	-1194
▁prov	-1195
pe	-1196
▁however	-1197
ires	-1198
▁eng	-1199
▁apart	-1200
▁To	-1201
▁inn	-1202
▁brand	-1203
▁put	-1204
ittle	-1205
the	-1206
ention	-1207
ael	-1208
attle	-1209
▁form	-1210
▁stay	-1211
▁island	-1212
▁Ph	-1213
▁prest	-1214
ories	-1215
ges	-1216
rib	-1217
▁invol	-1218
▁taken	-1219
▁small	-1220
ending	-1221
ush	-1222
ences	-1223
▁cre	-1224
▁eff	-1225
▁sister	-1226
▁private	-1227
▁too	-1228
▁Eng	-1229
▁prestigious	-1230
oint	-1231
).	-1232
▁falls	-1233
▁Wh	-1234
▁ded	-1235
▁partic	-1236
▁once	-1237
▁wealth	-1238
▁build	-1239
▁prison	-1240
▁land	-1241
▁good	-1242
▁class	-1243
iety	-1244
▁cent	-1245
▁read	-1246
osed	-1247
▁behind	-1248
ics	-1249
ctor	-1250
▁Car	-1251
▁Mc	-1252
▁Geor	-1253
ject	-1254
rees	-1255
nect	-1256
▁lar	-1257
err	-1258
▁jour	-1259
▁adv	-1260
ai	-1261
ards	-1262
▁without	-1263
ront	-1264
▁fle	-1265
▁became	-1266
▁cur	-1267
ots	-1268
aking	-1269
idn	-1270
ments	-1271
▁unw	-1272
▁working	-1273
thing	-1274
▁lat	-1275
▁opp	-1276
ope	-1277
▁party	-1278
▁says	-1279
rop	-1280
▁these	-1281
▁fact	-1282
ck	-1283
▁train	-1284
▁del	-1285
ait	-1286
ders	-1287
▁best	-1288
▁leaving	-1289
unt	-1290
lu	-1291
ended	-1292
▁style	-1293
▁threat	-1294
aid	-1295
▁cult	-1296
aring	-1297
▁following	-1298
▁country	-1299
▁dream	-1300
▁allow	-1301
▁Ann	-1302
erry	-1303
ices	-1304
▁spec	-1305
ald	-1306
ook	-1307
▁disc	-1308
▁you	-1309
▁join	-1310
▁second	-1311
▁wal	-1312
▁fail	-1313
ole	-1314
▁team	-1315
bs	-1316
ey	-1317
ospital	-1318
aces	-1319
ortun	-1320
▁such	-1321
▁Angel	-1322
not	-1323
though	-1324
▁realizes	-1325
▁mor	-1326
▁mov	-1327
▁members	-1328
▁dev	-1329
aining	-1330
▁Earth	-1331
clusive	-1332
gr	-1333
▁cor	-1334
rod	-1335
▁others	-1336
▁used	-1337
▁encoun	-1338
pon	-1339
▁quest	-1340
ened	-1341
imes	-1342
ests	-1343
estyle	-1344
▁black	-1345
▁met	-1346
▁Mich	-1347
▁gang	-1348
▁Jul	-1349
orts	-1350
▁che	-1351
▁grand	-1352
▁Man	-1353
▁destroy	-1354
cy	-1355
ny	-1356
anger	-1357
▁adm	-1358
vern	-1359
▁sim	-1360
▁accident	-1361
ee	-1362
ange	-1363
ills	-1364
rounded	-1365
ingly	-1366
▁lifestyle	-1367
ution	-1368
▁few	-1369
▁claim	-1370
▁Alex	-1371
oned	-1372
int	-1373
▁susp	-1374
▁may	-1375
han	-1376
ised	-1377
▁Dan	-1378
▁var	-1379
▁starts	-1380
▁hospital	-1381
▁dep	-1382
▁King	-1383
▁year	-1384
ior	-1385
iation	-1386
ruct	-1387
▁killing	-1388
form	-1389
▁cle	-1390
▁Bar	-1391
▁going	-1392
▁rece	-1393
▁win	-1394
ym	-1395
ule	-1396
▁pos	-1397
▁grad	-1398
▁pub	-1399
▁exc	-1400
▁detail	-1401
ized	-1402
▁wit	-1403
ird	-1404
ract	-1405
▁fire	-1406
▁cou	-1407
tern	-1408
▁advent	-1409
▁dies	-1410
inal	-1411
▁led	-1412
▁War	-1413
▁add	-1414
▁David	-1415
ont	-1416
ours	-1417
▁hor	-1418
urch	-1419
▁Col	-1420
▁scene	-1421
iven	-1422
▁whose	-1423
▁writ	-1424
▁profess	-1425
▁using	-1426
ms	-1427
▁enj	-1428
▁search	-1429
▁cho	-1430
ged	-1431
▁disapp	-1432
▁shows	-1433
▁luxurious	-1434
▁deal	-1435
▁par	-1436
▁lost	-1437
▁days	-1438
▁fore	-1439
▁There	-1440
▁fut	-1441
▁tre	-1442
▁exclusive	-1443
hood	-1444
▁som	-1445
▁sold	-1446
alf	-1447
▁differ	-1448
used	-1449
▁ens	-1450
▁hid	-1451
▁fur	-1452
vious	-1453
▁leg	-1454
aches	-1455
▁val	-1456
▁older	-1457
ights	-1458
▁cra	-1459
wards	-1460
▁connect	-1461
▁feel	-1462
▁occ	-1463
▁spe	-1464
▁American	-1465
omb	-1466
▁Paul	-1467
▁ed	-1468
erv	-1469
▁final	-1470
ilt	-1471
▁camp	-1472
▁ident	-1473
▁since	-1474
▁commun	-1475
ler	-1476
▁indust	-1477
akes	-1478
orld	-1479
▁Michael	-1480
▁refuses	-1481
ivid	-1482
▁cust	-1483
olf	-1484
▁due	-1485
▁trying	-1486
ele	-1487
▁desc	-1488
▁forced	-1489
▁revealed	-1490
omp	-1491
▁min	-1492
nt	-1493
▁test	-1494
▁hard	-1495
▁battle	-1496
iver	-1497
▁seen	-1498
▁rid	-1499
▁stri	-1500
▁arrest	-1501
ute	-1502
ived	-1503
acher	-1504
▁give	-1505
ager	-1506
▁Rich	-1507
▁James	-1508
."	-1509
▁fig	-1510
▁marry	-1511
sy	-1512
▁av	-1513
▁four	-1514
▁open	-1515
▁Tr	-1516
▁runs	-1517
ific	-1518
▁upon	-1519
▁hot	-1520
▁Gre	-1521
▁appears	-1522
ury	-1523
▁eye	-1524
▁determ	-1525
▁Brit	-1526
idence	-1527
▁Jim	-1528
▁saf	-1529
ience	-1530
▁Jenn	-1531
▁calls	-1532
▁*	-1533
gu	-1534
elf	-1535
▁finer	-1536
anding	-1537
▁Ger	-1538
▁sol	-1539
▁sign	-1540
▁Lond	-1541
▁hold	-1542
▁move	-1543
▁women	-1544
▁George	-1545
▁short	-1546
▁Upon	-1547
▁shot	-1548
▁continued	-1549
▁plot	-1550
▁tast	-1551
▁fre	-1552
uation	-1553
acy	-1554
▁latest	-1555
▁mysterious	-1556
▁enjoy	-1557
ored	-1558
rugg	-1559
istic	-1560
▁indul	-1561
▁save	-1562
year	-1563
▁making	-1564
▁vict	-1565
bor	-1566
▁cat	-1567
▁bring	-1568
▁ve	-1569
orth	-1570
oo	-1571
▁London	-1572
▁control	-1573
▁apartment	-1574
ians	-1575
▁uses	-1576
▁marriage	-1577
par	-1578
▁characters	-1579
lish	-1580
▁little	-1581
▁various	-1582
▁Mart	-1583
ites	-1584
▁Jos	-1585
▁piec	-1586
▁resp	-1587
▁forces	-1588
ask	-1589
rup	-1590
▁Frank	-1591
▁Mary	-1592
▁For	-1593
▁thin	-1594
▁Later	-1595
▁interest	-1596
sh	-1597
ung	-1598
▁air	-1599
▁num	-1600
▁Se	-1601
illy	-1602
ma	-1603
ecc	-1604
aught	-1605
▁future	-1606
▁individ	-1607
▁force	-1608
▁rich	-1609
yal	-1610
▁gener	-1611
ief	-1612
▁should	-1613
▁married	-1614
▁Mor	-1615
unning	-1616
lin	-1617
▁auth	-1618
▁mil	-1619
iol	-1620
ster	-1621
echn	-1622
ients	-1623
▁did	-1624
▁blood	-1625
rec	-1626
here	-1627
▁sense	-1628
rif	-1629
▁All	-1630
aver	-1631
▁watch	-1632
▁cannot	-1633
▁estate	-1634
▁series	-1635
▁natural	-1636
▁Ste	-1637
▁sum	-1638
▁Ben	-1639
▁rev	-1640
▁manages	-1641
▁instead	-1642
▁remained	-1643
selves	-1644
▁taking	-1645
▁died	-1646
▁point	-1647
▁company	-1648
▁leads	-1649
▁Mrs	-1650
▁those	-1651
▁works	-1652
▁'	-1653
way	-1654
▁case	-1655
▁agrees	-1656
▁face	-1657
▁busy	-1658
oid	-1659
▁pri	-1660
▁Ind	-1661
▁bar	-1662
unk	-1663
▁colle	-1664
▁underst	-1665
▁follows	-1666
rug	-1667
▁perform	-1668
cer	-1669
▁view	-1670
▁plans	-1671
▁pain	-1672
▁media	-1673
▁told	-1674
▁influ	-1675
▁Tw	-1676
▁large	-1677
▁themselves	-1678
▁prop	-1679
▁keen	-1680
▁discovered	-1681
",	-1682
▁developed	-1683
ething	-1684
▁wind	-1685
icide	-1686
▁industry	-1687
aps	-1688
oring	-1689
▁const	-1690
▁ant	-1691
▁say	-1692
▁character	-1693
▁strugg	-1694
▁seems	-1695
▁kidn	-1696
range	-1697
ien	-1698
▁protect	-1699
ones	-1700
▁given	-1701
▁journey	-1702
▁ide	-1703
ote	-1704
ology	-1705
▁arrive	-1706
▁convin	-1707
ement	-1708
▁host	-1709
irth	-1710
▁mind	-1711
The	-1712
▁govern	-1713
▁City	-1714
iful	-1715
▁result	-1716
aby	-1717
▁taste	-1718
▁phys	-1719
▁complet	-1720
▁gra	-1721
▁news	-1722
▁bed	-1723
▁Charl	-1724
▁present	-1725
▁serv	-1726
▁outside	-1727
▁renown	-1728
▁amb	-1729
antly	-1730
▁sleek	-1731
▁appro	-1732
aun	-1733
▁Hen	-1734
▁renowned	-1735
▁rele	-1736
gy	-1737
ox	-1738
▁king	-1739
ibr	-1740
▁dedication	-1741
ares	-1742
▁arch	-1743
▁sing	-1744
▁destination	-1745
ray	-1746
edd	-1747
aced	-1748
▁Growing	-1749
▁presence	-1750
▁Gu	-1751
riving	-1752
▁Cal	-1753
▁hours	-1754
▁bro	-1755
▁Char	-1756
▁village	-1757
▁self	-1758
▁suff	-1759
▁spend	-1760
▁cond	-1761
▁planet	-1762
▁ill	-1763
▁previous	-1764
eck	-1765
▁Par	-1766
▁knows	-1767
▁author	-1768
▁believes	-1769
▁ability	-1770
▁Ab	-1771
▁inside	-1772
idd	-1773
▁introd	-1774
outh	-1775
▁ever	-1776
▁mark	-1777
▁everyone	-1778
▁eleg	-1779
▁sn	-1780
of	-1781
▁Luc	-1782
▁crew	-1783
▁techn	-1784
ision	-1785
▁across	-1786
▁game	-1787
cogn	-1788
▁Don	-1789
using	-1790
▁import	-1791
▁drug	-1792
▁pat	-1793
▁custom	-1794
▁maint	-1795
▁captiv	-1796
▁water	-1797
aged	-1798
▁share	-1799
▁different	-1800
▁mat	-1801
▁From	-1802
pire	-1803
▁oper	-1804
▁rob	-1805
▁Or	-1806
▁law	-1807
ystem	-1808
▁Qu	-1809
omm	-1810
▁stre	-1811
▁hop	-1812
▁pop	-1813
day	-1814
ll	-1815
".	-1816
room	-1817
▁viol	-1818
▁allowed	-1819
▁grew	-1820
▁cut	-1821
sych	-1822
▁neigh	-1823
▁talent	-1824
▁society	-1825
olly	-1826
▁something	-1827
ades	-1828
ready	-1829
▁orig	-1830
▁dire	-1831
▁dog	-1832
▁beauty	-1833
▁strong	-1834
▁stunning	-1835
▁conc	-1836
ances	-1837
uke	-1838
ius	-1839
▁polit	-1840
▁Ne	-1841
ising	-1842
▁actually	-1843
▁escapes	-1844
▁among	-1845
▁din	-1846
▁obs	-1847
pr	-1848
▁apprec	-1849
▁beautiful	-1850
▁Jess	-1851
ceed	-1852
uals	-1853
▁recogn	-1854
▁Peter	-1855
itted	-1856
ging	-1857
▁leader	-1858
▁foot	-1859
rent	-1860
▁Sar	-1861
ledge	-1862
ander	-1863
▁appear	-1864
▁stat	-1865
▁Joe	-1866
ped	-1867
▁fell	-1868
▁birth	-1869
izing	-1870
▁chang	-1871
▁cast	-1872
▁army	-1873
▁already	-1874
por	-1875
ths	-1876
iers	-1877
▁far	-1878
▁tor	-1879
▁spir	-1880
▁organ	-1881
▁mission	-1882
uk	-1883
▁modern	-1884
icks	-1885
ery	-1886
▁defe	-1887
ove	-1888
ude	-1889
▁suicide	-1890
oul	-1891
uff	-1892
emy	-1893
rought	-1894
owers	-1895
ogra	-1896
▁decided	-1897
ram	-1898
medi	-1899
ries	-1900
▁mom	-1901
wh	-1902
...	-1903
new	-1904
ize	-1905
most	-1906
▁anc	-1907
▁decide	-1908
▁mot	-1909
hic	-1910
▁hom	-1911
▁sched	-1912
▁further	-1913
ral	-1914
▁wait	-1915
▁magic	-1916
ha	-1917
▁morning	-1918
▁track	-1919
▁explains	-1920
▁phot	-1921
pir	-1922
▁came	-1923
ept	-1924
▁sym	-1925
▁continues	-1926
era	-1927
▁offers	-1928
▁aband	-1929
▁right	-1930
▁British	-1931
▁captured	-1932
▁affair	-1933
inn	-1934
▁vehic	-1935
ett	-1936
ias	-1937
▁Ke	-1938
▁Bob	-1939
▁inj	-1940
▁warn	-1941
▁within	-1942
ified	-1943
▁sit	-1944
▁attention	-1945
atic	-1946
▁meeting	-1947
hing	-1948
▁door	-1949
▁psych	-1950
ana	-1951
▁anim	-1952
▁comb	-1953
▁wound	-1954
▁powerful	-1955
ament	-1956
▁Mad	-1957
go	-1958
ought	-1959
▁Robert	-1960
▁imm	-1961
▁enough	-1962
▁dark	-1963
ential	-1964
▁assist	-1965
▁close	-1966
uel	-1967
ization	-1968
▁hands	-1969
▁mus	-1970
▁alone	-1971
▁entire	-1972
▁Gl	-1973
▁prod	-1974
▁God	-1975
ica	-1976
▁girls	-1977
▁Richard	-1978
itten	-1979
aff	-1980
▁confron	-1981
▁travels	-1982
▁Laur	-1983
▁clients	-1984
ressed	-1985
ora	-1986
rench	-1987
▁prep	-1988
arent	-1989
▁rescue	-1990
▁system	-1991
▁danger	-1992
avering	-1993
umb	-1994
▁conv	-1995
asc	-1996
▁Sw	-1997
▁ment	-1998
▁describ	-1999
▁German	-2000
ases	-2001
▁Val	-2002
▁immedi	-2003
▁breaks	-2004
▁individuals	-2005
▁half	-2006
agon	-2007
▁ann	-2008
itary	-2009
▁brought	-2010
▁support	-2011
▁unwavering	-2012
▁Russ	-2013
ishes	-2014
▁side	-2015
▁top	-2016
iles	-2017
otic	-2018
osing	-2019
▁Lou	-2020
▁cir	-2021
ularly	-2022
eless	-2023
▁Henry	-2024
▁Wal	-2025
▁government	-2026
▁Hel	-2027
▁soph	-2028
▁Pat	-2029
▁Mag	-2030
▁div	-2031
elling	-2032
▁continue	-2033
une	-2034
▁fort	-2035
▁dro	-2036
▁William	-2037
▁World	-2038
▁caught	-2039
amb	-2040
▁Me	-2041
▁possess	-2042
▁full	-2043
ift	-2044
rief	-2045
▁everything	-2046
▁despite	-2047
▁knowledge	-2048
▁Inst	-2049
▁victim	-2050
rival	-2051
▁unique	-2052
▁Matt	-2053
▁killer	-2054
▁pay	-2055
▁shoots	-2056
ping	-2057
▁emb	-2058
itch	-2059
▁unc	-2060
▁init	-2061
▁wat	-2062
▁recover	-2063
▁schedule	-2064
▁truth	-2065
ational	-2066
orous	-2067
▁Nick	-2068
▁getting	-2069
iter	-2070
▁jew	-2071
▁position	-2072
versity	-2073
na	-2074
▁bur	-2075
▁respons	-2076
itions	-2077
▁red	-2078
▁experiences	-2079
cious	-2080
▁proble	-2081
▁instilled	-2082
▁loyal	-2083
izes	-2084
▁commit	-2085
▁Sim	-2086
▁fr	-2087
▁reb	-2088
lement	-2089
▁opportun	-2090
▁Sm	-2091
▁Mon	-2092
▁couple	-2093
▁ep	-2094
▁believe	-2095
▁accept	-2096
▁designs	-2097
▁La	-2098
▁shared	-2099
▁hotel	-2100
▁sleep	-2101
utation	-2102
▁witness	-2103
anny	-2104
▁sugg	-2105
▁archit	-2106
ked	-2107
▁fun	-2108
▁nothing	-2109
▁mer	-2110
venge	-2111
quis	-2112
rian	-2113
▁state	-2114
▁post	-2115
▁Ro	-2116
▁station	-2117
▁orders	-2118
▁early	-2119
▁Af	-2120
▁apparent	-2121
▁cover	-2122
▁visits	-2123
ably	-2124
▁mis	-2125
▁course	-2126
lo	-2127
me	-2128
▁Max	-2129
urt	-2130
ella	-2131
▁mist	-2132
ective	-2133
▁mount	-2134
▁Phil	-2135
▁vamp	-2136
▁building	-2137
▁trou	-2138
▁missing	-2139
▁proc	-2140
▁food	-2141
▁word	-2142
▁figure	-2143
▁earl	-2144
▁sends	-2145
▁murdered	-2146
▁ter	-2147
▁French	-2148
▁mans	-2149
▁port	-2150
▁information	-2151
▁late	-2152
▁rom	-2153
ajor	-2154
host	-2155
oman	-2156
ploy	-2157
rey	-2158
ched	-2159
▁ble	-2160
▁supp	-2161
▁reputation	-2162
▁earn	-2163
▁sets	-2164
▁crime	-2165
▁attract	-2166
▁exec	-2167
▁Harry	-2168
fully	-2169
▁consid	-2170
▁We	-2171
earing	-2172
▁Through	-2173
▁introduc	-2174
▁officer	-2175
▁unable	-2176
▁began	-2177
▁nature	-2178
▁special	-2179
▁architect	-2180
▁almost	-2181
▁encounter	-2182
▁immediately	-2183
▁culture	-2184
▁opens	-2185
▁Mark	-2186
▁knew	-2187
▁bad	-2188
▁impecc	-2189
▁glam	-2190
▁cap	-2191
▁cele	-2192
▁steal	-2193
▁involved	-2194
▁England	-2195
▁girlfriend	-2196
sequ	-2197
▁weap	-2198
ivil	-2199
▁spent	-2200
▁Vict	-2201
▁Step	-2202
▁skills	-2203
▁baby	-2204
▁public	-2205
▁Carl	-2206
▁owner	-2207
▁assass	-2208
jects	-2209
▁ang	-2210
▁aud	-2211
▁mess	-2212
▁pict	-2213
▁respect	-2214
▁United	-2215
▁pursue	-2216
▁appreciation	-2217
▁tele	-2218
▁boys	-2219
ita	-2220
▁equ	-2221
allen	-2222
▁wealthy	-2223
ids	-2224
▁master	-2225
ker	-2226
men	-2227
ads	-2228
▁ult	-2229
▁Lord	-2230
▁earlier	-2231
▁burn	-2232
▁alive	-2233
dden	-2234
ively	-2235
▁sudden	-2236
▁mass	-2237
▁looking	-2238
▁feels	-2239
▁front	-2240
▁3	-2241
▁tem	-2242
ese	-2243
▁Sarah	-2244
▁rad	-2245
▁requ	-2246
▁letter	-2247
▁telling	-2248
▁attacks	-2249
▁impeccable	-2250
▁childhood	-2251
▁gre	-2252
iddle	-2253
▁needs	-2254
▁trip	-2255
▁space	-2256
▁X	-2257
▁leading	-2258
oor	-2259
▁took	-2260
raw	-2261
▁step	-2262
ograph	-2263
▁board	-2264
▁indulge	-2265
bo	-2266
▁tim	-2267
▁jewel	-2268
▁process	-2269
rof	-2270
▁Event	-2271
▁Mal	-2272
▁uns	-2273
yp	-2274
▁military	-2275
ragon	-2276
ertain	-2277
▁designer	-2278
ham	-2279
acts	-2280
▁stories	-2281
▁Capt	-2282
▁Thom	-2283
▁incre	-2284
▁decl	-2285
▁suspic	-2286
▁filled	-2287
roll	-2288
▁role	-2289
▁scient	-2290
error	-2291
▁confess	-2292
▁kidnapp	-2293
▁Although	-2294
ening	-2295
▁Black	-2296
▁elite	-2297
▁evil	-2298
▁trad	-2299
▁becoming	-2300
▁wood	-2301
isa	-2302
ned	-2303
▁Pl	-2304
▁die	-2305
urity	-2306
▁English	-2307
▁coll	-2308
▁Eventually	-2309
▁Ell	-2310
▁hun	-2311
▁months	-2312
ugs	-2313
▁yet	-2314
▁Victor	-2315
work	-2316
ken	-2317
▁chance	-2318
▁discuss	-2319
▁Miss	-2320
▁reach	-2321
▁soldiers	-2322
ifer	-2323
▁Cor	-2324
▁clim	-2325
▁farm	-2326
▁doctor	-2327
iant	-2328
pped	-2329
▁shop	-2330
▁Red	-2331
▁Bill	-2332
aker	-2333
▁followers	-2334
▁surrounded	-2335
▁less	-2336
▁Laura	-2337
inally	-2338
000	-2339
▁teen	-2340
▁access	-2341
▁teacher	-2342
het	-2343
▁create	-2344
▁hidden	-2345
▁Charlie	-2346
▁18	-2347
▁Fred	-2348
▁narrator	-2349
▁causes	-2350
▁humans	-2351
▁drive	-2352
cing	-2353
ena	-2354
ellig	-2355
▁flee	-2356
sw	-2357
▁Charles	-2358
▁might	-2359
▁gold	-2360
back	-2361
▁change	-2362
▁giving	-2363
▁someone	-2364
antic	-2365
▁Billy	-2366
▁spirit	-2367
house	-2368
▁band	-2369
▁field	-2370
bed	-2371
▁Then	-2372
▁pregn	-2373
▁attacked	-2374
▁mill	-2375
ither	-2376
known	-2377
▁wedd	-2378
▁fellow	-2379
▁strange	-2380
▁five	-2381
▁community	-2382
▁brings	-2383
▁contact	-2384
▁treat	-2385
wood	-2386
inated	-2387
▁States	-2388
▁race	-2389
rain	-2390
ari	-2391
▁elegance	-2392
rav	-2393
ores	-2394
▁gen	-2395
▁revenge	-2396
▁Adam	-2397
▁Paris	-2398
▁particularly	-2399
▁claims	-2400
▁drawn	-2401
▁mean	-2402
dom	-2403
dy	-2404
cher	-2405
▁Club	-2406
inations	-2407
▁ground	-2408
▁fly	-2409
ague	-2410
▁cop	-2411
ground	-2412
▁surviv	-2413
erson	-2414
▁agent	-2415
▁light	-2416
▁rather	-2417
▁sav	-2418
▁Their	-2419
itter	-2420
▁chap	-2421
▁glamorous	-2422
▁Ev	-2423
anks	-2424
▁foc	-2425
▁towards	-2426
chie	-2427
▁unf	-2428
ected	-2429
▁hero	-2430
▁Mel	-2431
uly	-2432
▁vibr	-2433
▁Captain	-2434
▁Je	-2435
▁perfectly	-2436
▁Im	-2437
▁Ry	-2438
▁collection	-2439
▁Sus	-2440
▁wedding	-2441
▁proper	-2442
▁although	-2443
iment	-2444
▁Jerry	-2445
▁enjoyed	-2446
▁pot	-2447
▁really	-2448
iron	-2449
rance	-2450
▁press	-2451
rang	-2452
▁arg	-2453
▁fict	-2454
▁separ	-2455
▁causing	-2456
▁jewelry	-2457
row	-2458
▁Mo	-2459
▁ste	-2460
cepts	-2461
▁talk	-2462
▁pieces	-2463
▁arrested	-2464
▁books	-2465
abeth	-2466
▁lands	-2467
▁Pe	-2468
▁bank	-2469
▁number	-2470
eng	-2471
▁Que	-2472
▁encounters	-2473
bol	-2474
▁Mike	-2475
ming	-2476
▁remains	-2477
▁committed	-2478
ells	-2479
▁offer	-2480
▁vibrant	-2481
▁Dar	-2482
▁challen	-2483
▁why	-2484
uz	-2485
like	-2486
▁nearby	-2487
▁feat	-2488
father	-2489
▁accidentally	-2490
▁mach	-2491
▁ultim	-2492
▁white	-2493
▁situation	-2494
con	-2495
aine	-2496
▁manage	-2497
▁env	-2498
▁rare	-2499
▁times	-2500
▁professional	-2501
uing	-2502
▁big	-2503
▁question	-2504
▁court	-2505
str	-2506
▁exist	-2507
ously	-2508
▁fem	-2509
ument	-2510
▁breath	-2511
▁clos	-2512
aper	-2513
ocked	-2514
▁kind	-2515
▁employ	-2516
▁office	-2517
▁By	-2518
▁star	-2519
▁moves	-2520
▁grounded	-2521
itting	-2522
▁Daniel	-2523
▁z	-2524
▁Arth	-2525
▁Eliz	-2526
▁college	-2527
▁Sk	-2528
hew	-2529
ino	-2530
▁peace	-2531
▁sett	-2532
▁wild	-2533
ection	-2534
▁cross	-2535
▁kiss	-2536
▁revol	-2537
▁reflect	-2538
▁transform	-2539
▁Jap	-2540
▁ple	-2541
▁Ol	-2542
▁my	-2543
▁saying	-2544
ford	-2545
▁thinks	-2546
nder	-2547
▁Afric	-2548
ump	-2549
▁aut	-2550
chant	-2551
iance	-2552
elled	-2553
▁sexual	-2554
▁identity	-2555
▁helps	-2556
head	-2557
▁Before	-2558
▁hit	-2559
inded	-2560
▁gone	-2561
▁activ	-2562
▁brief	-2563
alls	-2564
▁lab	-2565
▁receives	-2566
▁ghost	-2567
▁younger	-2568
▁evidence	-2569
▁determined	-2570
▁experience	-2571
fort	-2572
▁pull	-2573
▁account	-2574
▁Jennifer	-2575
▁returned	-2576
yond	-2577
▁elect	-2578
▁May	-2579
▁Soon	-2580
▁student	-2581
fer	-2582
ried	-2583
after	-2584
▁bomb	-2585
oe	-2586
▁hon	-2587
▁blend	-2588
ape	-2589
▁hes	-2590
ocks	-2591
com	-2592
▁Roy	-2593
▁direct	-2594
▁finding	-2595
▁Ray	-2596
▁repl	-2597
bert	-2598
▁crim	-2599
rupt	-2600
▁vir	-2601
▁phone	-2602
▁showc	-2603
▁Martin	-2604
▁ancient	-2605
▁Pol	-2606
uge	-2607
▁phil	-2608
▁Bel	-2609
athan	-2610
▁held	-2611
eral	-2612
resses	-2613
▁loves	-2614
▁music	-2615
▁terror	-2616
▁draw	-2617
▁Japan	-2618
▁better	-2619
▁exquis	-2620
awn	-2621
aly	-2622
▁gradu	-2623
▁captivated	-2624
▁finest	-2625
iqu	-2626
▁looks	-2627
▁dreams	-2628
▁Eur	-2629
▁Just	-2630
▁boat	-2631
▁forg	-2632
▁celebr	-2633
off	-2634
▁sens	-2635
▁went	-2636
incess	-2637
▁record	-2638
▁exquisite	-2639
▁movie	-2640
▁Arthur	-2641
▁civil	-2642
▁Jon	-2643
▁neighbor	-2644
▁Jud	-2645
ilar	-2646
▁reun	-2647
▁beginning	-2648
aks	-2649
anda	-2650
▁acqu	-2651
▁Marc	-2652
▁guard	-2653
inary	-2654
itz	-2655
▁growing	-2656
ustle	-2657
▁fasc	-2658
hab	-2659
▁sed	-2660
▁confronts	-2661
▁craft	-2662
eph	-2663
▁persu	-2664
▁got	-2665
▁resear	-2666
riff	-2667
▁Mac	-2668
▁status	-2669
ball	-2670
▁tit	-2671
▁pret	-2672
▁Cla	-2673
ember	-2674
▁accomp	-2675
▁physical	-2676
ae	-2677
▁Sir	-2678
▁written	-2679
▁Ram	-2680
▁beyond	-2681
▁adventures	-2682
▁lik	-2683
▁demon	-2684
▁moment	-2685
▁estab	-2686
▁students	-2687
ips	-2688
▁Mic	-2689
▁Eric	-2690
▁carry	-2691
▁means	-2692
▁sought	-2693
▁Tim	-2694
ruction	-2695
▁except	-2696
▁dou	-2697
▁Anna	-2698
▁Mur	-2699
▁happened	-2700
andy	-2701
▁symbol	-2702
▁itself	-2703
▁Ash	-2704
▁ele	-2705
▁mansion	-2706
▁boyfriend	-2707
,"	-2708
▁convinces	-2709
▁fear	-2710
▁running	-2711
lished	-2712
▁powers	-2713
▁Elizabeth	-2714
▁area	-2715
▁term	-2716
▁purch	-2717
▁box	-2718
▁America	-2719
▁thought	-2720
▁Jane	-2721
▁list	-2722
▁clear	-2723
▁adventure	-2724
uce	-2725
▁Scott	-2726
▁extended	-2727
▁San	-2728
▁middle	-2729
▁commitment	-2730
▁rul	-2731
▁suddenly	-2732
ij	-2733
▁hide	-2734
▁vo	-2735
▁attend	-2736
mas	-2737
▁Queen	-2738
▁third	-2739
iting	-2740
▁week	-2741
▁desper	-2742
▁accepts	-2743
▁eyes	-2744
ium	-2745
▁stand	-2746
bl	-2747
ode	-2748
▁deb	-2749
▁exper	-2750
▁uncle	-2751
▁road	-2752
▁destroyed	-2753
▁testament	-2754
oke	-2755
▁Er	-2756
▁ward	-2757
atter	-2758
▁West	-2759
▁idea	-2760
,000	-2761
▁vide	-2762
taking	-2763
pre	-2764
▁Do	-2765
ality	-2766
▁Lind	-2767
▁pregnant	-2768
▁innate	-2769
▁Mer	-2770
▁Ros	-2771
▁nearly	-2772
▁intellig	-2773
▁returning	-2774
right	-2775
▁pun	-2776
▁pract	-2777
anna	-2778
itive	-2779
nal	-2780
▁political	-2781
▁Now	-2782
▁sea	-2783
▁cous	-2784
▁stab	-2785
mother	-2786
▁High	-2787
▁provided	-2788
▁investigation	-2789
▁window	-2790
▁suspect	-2791
▁&	-2792
ech	-2793
▁educ	-2794
▁emot	-2795
▁McC	-2796
▁grow	-2797
▁pair	-2798
▁exotic	-2799
▁brothers	-2800
▁investigate	-2801
▁fac	-2802
▁Del	-2803
▁ago	-2804
▁choice	-2805
rog	-2806
▁vac	-2807
▁truly	-2808
ique	-2809
▁squ	-2810
▁Comm	-2811
▁dying	-2812
▁longer	-2813
▁wrong	-2814
▁reluct	-2815
ume	-2816
▁base	-2817
▁arm	-2818
▁pur	-2819
urb	-2820
▁informs	-2821
▁original	-2822
▁else	-2823
▁wanted	-2824
olen	-2825
▁net	-2826
▁pick	-2827
▁That	-2828
▁avoid	-2829
▁dinner	-2830
▁II	-2831
ashing	-2832
▁coming	-2833
▁compan	-2834
ological	-2835
gin	-2836
asure	-2837
▁Thomas	-2838
▁confront	-2839
line	-2840
▁cry	-2841
iding	-2842
▁recon	-2843
▁castle	-2844
▁Once	-2845
▁Kel	-2846
▁major	-2847
▁seeing	-2848
▁plat	-2849
▁enter	-2850
ugg	-2851
▁murders	-2852
▁5	-2853
▁bas	-2854
minded	-2855
▁line	-2856
▁doing	-2857
▁architecture	-2858
▁breathtaking	-2859
▁Johnny	-2860
▁anything	-2861
▁abandoned	-2862
▁throughout	-2863
▁suc	-2864
yd	-2865
▁built	-2866
aven	-2867
▁circ	-2868
▁prevent	-2869
ilities	-2870
▁possible	-2871
ancy	-2872
▁adop	-2873
▁gained	-2874
▁responsible	-2875
▁Rac	-2876
asing	-2877
▁protagon	-2878
stit	-2879
▁Jeff	-2880
▁coun	-2881
inging	-2882
oved	-2883
ustr	-2884
▁Ber	-2885
opher	-2886
▁doesnt	-2887
▁lover	-2888
▁enters	-2889
▁command	-2890
▁learning	-2891
uit	-2892
▁vehicle	-2893
▁pen	-2894
▁turned	-2895
▁particular	-2896
▁hang	-2897
▁Jason	-2898
▁opportunity	-2899
owly	-2900
▁Lisa	-2901
▁technology	-2902
▁emer	-2903
▁our	-2904
▁sac	-2905
▁Jac	-2906
▁assign	-2907
ille	-2908
▁offered	-2909
▁20	-2910
▁whole	-2911
▁boss	-2912
▁fighting	-2913
▁di	-2914
pris	-2915
▁Reb	-2916
▁concern	-2917
ring	-2918
▁answ	-2919
▁Chris	-2920
sc	-2921
▁based	-2922
▁famil	-2923
▁stolen	-2924
▁realize	-2925
▁summ	-2926
▁sil	-2927
▁exch	-2928
▁alien	-2929
▁drunk	-2930
▁store	-2931
▁Jan	-2932
▁Ag	-2933
etic	-2934
▁Los	-2935
▁sun	-2936
▁sail	-2937
uction	-2938
▁feelings	-2939
▁Kim	-2940
▁Mill	-2941
▁female	-2942
▁storm	-2943
set	-2944
▁mut	-2945
▁vol	-2946
▁4	-2947
ults	-2948
▁god	-2949
▁walks	-2950
nie	-2951
▁Ex	-2952
▁partner	-2953
▁security	-2954
▁Van	-2955
▁horse	-2956
▁traveling	-2957
ya	-2958
▁wid	-2959
▁capture	-2960
ishing	-2961
▁convers	-2962
ators	-2963
▁Cass	-2964
▁South	-2965
▁happy	-2966
hol	-2967
▁sal	-2968
oins	-2969
▁Per	-2970
▁histor	-2971
aries	-2972
▁hiding	-2973
▁Co	-2974
▁buy	-2975
inking	-2976
▁Maria	-2977
▁US	-2978
▁thus	-2979
▁playing	-2980
▁succeed	-2981
aith	-2982
ency	-2983
▁Bro	-2984
▁cam	-2985
ript	-2986
▁privile	-2987
▁seemingly	-2988
pec	-2989
miss	-2990
▁popular	-2991
rem	-2992
ze	-2993
▁Ser	-2994
▁born	-2995
▁university	-2996
▁Sec	-2997
▁six	-2998
▁Aust	-2999
▁Edward	-3000
▁health	-3001
aint	-3002
rel	-3003
ault	-3004
ridge	-3005
airs	-3006
itor	-3007
▁Lady	-3008
▁hope	-3009
▁soul	-3010
▁trust	-3011
▁Wil	-3012
▁destinations	-3013
▁threatens	-3014
▁compet	-3015
▁Danny	-3016
▁animals	-3017
▁rock	-3018
▁forest	-3019
▁watches	-3020
▁Nic	-3021
▁imag	-3022
▁effort	-3023
ature	-3024
▁Angeles	-3025
▁creating	-3026
▁loses	-3027
ama	-3028
▁cab	-3029
▁dam	-3030
▁encou	-3031
▁allows	-3032
nds	-3033
▁den	-3034
▁street	-3035
▁planning	-3036
die	-3037
▁Bo	-3038
▁Mil	-3039
▁Ma	-3040
▁abs	-3041
▁bul	-3042
ki	-3043
yr	-3044
▁Dev	-3045
▁desert	-3046
▁Rome	-3047
▁safe	-3048
▁Franc	-3049
▁innoc	-3050
▁Joseph	-3051
▁Pres	-3052
ini	-3053
▁tort	-3054
▁changes	-3055
▁remaining	-3056
ror	-3057
▁deg	-3058
▁ful	-3059
asion	-3060
ushes	-3061
▁drives	-3062
▁research	-3063
▁ru	-3064
▁demands	-3065
eks	-3066
▁sne	-3067
▁Prince	-3068
▁ways	-3069
▁Cr	-3070
▁pil	-3071
che	-3072
iny	-3073
▁heads	-3074
▁Josh	-3075
▁Kn	-3076
enced	-3077
▁achie	-3078
▁freed	-3079
▁Sn	-3080
▁Kat	-3081
▁initially	-3082
▁behav	-3083
▁businessman	-3084
▁think	-3085
▁action	-3086
ula	-3087
ached	-3088
▁friendship	-3089
uter	-3090
▁Jer	-3091
▁expert	-3092
▁apparently	-3093
▁Bur	-3094
▁gather	-3095
▁century	-3096
irst	-3097
▁joins	-3098
asy	-3099
anth	-3100
▁flees	-3101
▁anyone	-3102
▁secretly	-3103
vert	-3104
▁unknown	-3105
raged	-3106
▁walk	-3107
▁model	-3108
▁piece	-3109
▁Rachel	-3110
▁announ	-3111
unn	-3112
▁ap	-3113
icult	-3114
▁jail	-3115
illing	-3116
▁importance	-3117
exic	-3118
▁onto	-3119
iana	-3120
▁hair	-3121
▁poison	-3122
▁whether	-3123
▁Laure	-3124
▁engine	-3125
▁path	-3126
▁plane	-3127
▁waiting	-3128
gl	-3129
▁Sl	-3130
▁Rose	-3131
▁beat	-3132
▁retrie	-3133
well	-3134
where	-3135
▁famous	-3136
▁interv	-3137
▁writing	-3138
▁Sil	-3139
ashes	-3140
▁ball	-3141
bb	-3142
▁Sal	-3143
▁Carol	-3144
ibly	-3145
▁Jake	-3146
▁Jean	-3147
▁convince	-3148
▁summer	-3149
▁describes	-3150
▁priest	-3151
rets	-3152
lict	-3153
prise	-3154
▁liter	-3155
▁suggests	-3156
ops	-3157
utes	-3158
▁nav	-3159
▁Mexic	-3160
▁North	-3161
▁detective	-3162
▁truck	-3163
▁dangerous	-3164
cil	-3165
▁fortune	-3166
mar	-3167
▁disgu	-3168
▁enemy	-3169
ua	-3170
▁hopes	-3171
▁cru	-3172
▁Hall	-3173
▁firm	-3174
▁cousin	-3175
time	-3176
▁reason	-3177
▁restaur	-3178
intage	-3179
▁Count	-3180
▁weeks	-3181
▁France	-3182
isticated	-3183
▁location	-3184
▁brut	-3185
▁Alice	-3186
▁send	-3187
▁cause	-3188
▁throws	-3189
▁exchange	-3190
▁Rog	-3191
▁audience	-3192
▁transport	-3193
▁pictures	-3194
▁Christopher	-3195
▁sophisticated	-3196
▁problems	-3197
ading	-3198
▁Christian	-3199
ada	-3200
cean	-3201
we	-3202
law	-3203
yer	-3204
▁heav	-3205
▁values	-3206
▁trouble	-3207
▁gard	-3208
adow	-3209
▁inhab	-3210
▁exposed	-3211
▁pack	-3212
▁remain	-3213
▁complete	-3214
▁attending	-3215
▁rou	-3216
▁client	-3217
▁recently	-3218
▁released	-3219
▁Christmas	-3220
▁platform	-3221
▁supposed	-3222
hern	-3223
▁Min	-3224
▁Gener	-3225
▁doesn	-3226
iod	-3227
orce	-3228
▁Bugs	-3229
▁catch	-3230
▁preser	-3231
▁vampire	-3232
▁Cam	-3233
▁lim	-3234
▁befriend	-3235
verse	-3236
oration	-3237
▁sacrif	-3238
▁surpris	-3239
▁Soc	-3240
▁You	-3241
▁exploring	-3242
▁Gar	-3243
▁vers	-3244
▁plant	-3245
▁similar	-3246
▁er	-3247
▁How	-3248
▁Lee	-3249
aching	-3250
ormal	-3251
▁current	-3252
▁ten	-3253
lessly	-3254
▁explos	-3255
▁Bre	-3256
▁disp	-3257
▁Francis	-3258
▁project	-3259
▁complement	-3260
▁No	-3261
gram	-3262
enny	-3263
▁fit	-3264
▁done	-3265
▁beach	-3266
▁church	-3267
▁defeat	-3268
▁depart	-3269
▁Great	-3270
▁inher	-3271
▁market	-3272
life	-3273
▁Two	-3274
alle	-3275
ette	-3276
▁Che	-3277
▁dom	-3278
▁river	-3279
ride	-3280
▁grows	-3281
▁struggle	-3282
ago	-3283
▁van	-3284
▁views	-3285
▁betray	-3286
▁training	-3287
▁Jew	-3288
▁Raj	-3289
▁sat	-3290
▁obsess	-3291
▁streets	-3292
▁wounded	-3293
▁difficult	-3294
▁Luke	-3295
▁cell	-3296
▁ultimately	-3297
In	-3298
oted	-3299
▁cars	-3300
ipp	-3301
▁upbr	-3302
▁super	-3303
▁addition	-3304
▁memory	-3305
▁report	-3306
▁single	-3307
▁arrival	-3308
▁protagonist	-3309
aret	-3310
mans	-3311
▁Park	-3312
▁thing	-3313
ortunately	-3314
▁upbringing	-3315
▁influential	-3316
▁Brown	-3317
▁Helen	-3318
▁empire	-3319
la	-3320
▁period	-3321
ety	-3322
▁poor	-3323
▁puts	-3324
▁broken	-3325
▁message	-3326
▁tradition	-3327
ulation	-3328
▁financ	-3329
▁fathers	-3330
icate	-3331
isters	-3332
▁Angela	-3333
▁Can	-3334
aging	-3335
▁Army	-3336
▁loss	-3337
▁fails	-3338
▁understand	-3339
▁here	-3340
▁tree	-3341
▁spends	-3342
▁retreat	-3343
▁environ	-3344
▁Pal	-3345
▁ign	-3346
▁Andrew	-3347
▁joined	-3348
▁Jimmy	-3349
atherine	-3350
▁driving	-3351
▁Dor	-3352
▁glim	-3353
▁details	-3354
▁vintage	-3355
ergy	-3356
▁radio	-3357
ression	-3358
▁ir	-3359
▁Tal	-3360
▁note	-3361
▁Wolf	-3362
▁hears	-3363
ibility	-3364
▁ride	-3365
▁elder	-3366
▁frequ	-3367
▁serious	-3368
▁suspects	-3369
arily	-3370
icated	-3371
▁chase	-3372
▁engage	-3373
▁invites	-3374
▁fate	-3375
▁machine	-3376
rage	-3377
uted	-3378
▁Vir	-3379
ensive	-3380
▁schools	-3381
▁Ra	-3382
oren	-3383
roud	-3384
▁suit	-3385
▁voice	-3386
▁captain	-3387
▁degree	-3388
▁wishes	-3389
onscious	-3390
elle	-3391
ining	-3392
rison	-3393
▁spot	-3394
▁White	-3395
▁keeps	-3396
▁reality	-3397
▁graduating	-3398
▁So	-3399
▁actions	-3400
▁believed	-3401
field	-3402
▁Anne	-3403
▁Susan	-3404
▁title	-3405
▁Sand	-3406
▁stops	-3407
pecially	-3408
athy	-3409
▁Mat	-3410
▁ending	-3411
▁kidnapped	-3412
illa	-3413
▁comfort	-3414
▁prim	-3415
▁said	-3416
▁service	-3417
▁grandfather	-3418
uable	-3419
▁unex	-3420
▁House	-3421
▁explore	-3422
▁har	-3423
▁sour	-3424
▁Island	-3425
▁produc	-3426
▁Finally	-3427
▁violent	-3428
▁refer	-3429
▁admits	-3430
robe	-3431
useum	-3432
▁poin	-3433
▁loved	-3434
enes	-3435
ornia	-3436
▁Kate	-3437
▁helping	-3438
▁doc	-3439
▁tro	-3440
▁song	-3441
▁eager	-3442
▁General	-3443
dd	-3444
bur	-3445
▁wond	-3446
▁belong	-3447
ompl	-3448
odies	-3449
▁personality	-3450
pses	-3451
▁Sun	-3452
come	-3453
▁Win	-3454
▁Tony	-3455
▁knowing	-3456
▁creature	-3457
▁Gab	-3458
▁woods	-3459
▁repres	-3460
▁important	-3461
▁environment	-3462
ply	-3463
van	-3464
iber	-3465
▁Art	-3466
▁bal	-3467
▁yach	-3468
▁Calif	-3469
▁angry	-3470
▁moved	-3471
ky	-3472
inese	-3473
▁education	-3474
ston	-3475
▁neck	-3476
▁proceed	-3477
▁wearing	-3478
▁saw	-3479
▁subsequ	-3480
▁shown	-3481
▁Though	-3482
▁created	-3483
▁insists	-3484
▁refined	-3485
▁mountain	-3486
▁Ter	-3487
de	-3488
lan	-3489
▁dance	-3490
▁Japanese	-3491
▁understanding	-3492
ona	-3493
raft	-3494
▁neg	-3495
▁level	-3496
▁striking	-3497
emb	-3498
isc	-3499
mond	-3500
▁Steve	-3501
▁classic	-3502
▁struggles	-3503
▁tar	-3504
▁saved	-3505
kins	-3506
▁surround	-3507
ealous	-3508
asingly	-3509
▁enroll	-3510
▁injured	-3511
▁prostit	-3512
▁acad	-3513
usion	-3514
▁Emily	-3515
▁agree	-3516
▁charm	-3517
▁eat	-3518
▁officers	-3519
▁Smith	-3520
▁200	-3521
▁prove	-3522
oly	-3523
bing	-3524
▁certain	-3525
ka	-3526
▁Lucy	-3527
▁intric	-3528
▁criminal	-3529
▁don	-3530
▁desire	-3531
▁Hol	-3532
▁Sch	-3533
▁key	-3534
aken	-3535
rick	-3536
▁Med	-3537
▁thinking	-3538
▁Nat	-3539
▁Shar	-3540
▁Roman	-3541
▁Chinese	-3542
▁weapons	-3543
▁followed	-3544
▁fictional	-3545
▁Ir	-3546
anch	-3547
odes	-3548
▁Cent	-3549
▁wakes	-3550
▁mystery	-3551
▁California	-3552
▁Go	-3553
min	-3554
▁trial	-3555
▁revealing	-3556
fts	-3557
onel	-3558
▁exact	-3559
▁increasingly	-3560
▁Michel	-3561
▁million	-3562
▁wardrobe	-3563
▁#	-3564
▁lived	-3565
▁memories	-3566
▁photograph	-3567
▁Some	-3568
idents	-3569
▁Simon	-3570
▁Stephen	-3571
▁assistant	-3572
▁disappear	-3573
enty	-3574
▁Dark	-3575
▁date	-3576
▁Europe	-3577
▁failed	-3578
▁experiment	-3579
▁Back	-3580
pected	-3581
▁Rh	-3582
umes	-3583
▁Lar	-3584
▁doll	-3585
▁agents	-3586
▁thous	-3587
▁Russian	-3588
▁especially	-3589
▁ring	-3590
▁influence	-3591
▁highly	-3592
▁Naz	-3593
▁nob	-3594
icted	-3595
▁leaders	-3596
▁bott	-3597
▁words	-3598
▁computer	-3599
▁maintain	-3600
▁watching	-3601
▁ur	-3602
▁Holly	-3603
▁floor	-3604
▁combined	-3605
▁sure	-3606
▁flash	-3607
▁arrang	-3608
▁sche	-3609
▁attended	-3610
▁promises	-3611
▁graduation	-3612
▁mir	-3613
▁sword	-3614
▁accompl	-3615
▁survive	-3616
spect	-3617
iamond	-3618
▁Brand	-3619
order	-3620
▁Marg	-3621
▁sell	-3622
▁medical	-3623
▁occup	-3624
▁rival	-3625
▁caused	-3626
▁plays	-3627
▁evening	-3628
elt	-3629
ify	-3630
▁Kar	-3631
▁Rod	-3632
▁Bud	-3633
▁Leon	-3634
▁bene	-3635
▁notices	-3636
▁mob	-3637
eared	-3638
▁magical	-3639
▁Kevin	-3640
▁Louis	-3641
▁simply	-3642
▁questions	-3643
oes	-3644
hold	-3645
▁Star	-3646
▁owned	-3647
▁falling	-3648
uests	-3649
▁reader	-3650
▁jealous	-3651
face	-3652
over	-3653
▁Sov	-3654
acing	-3655
▁Duke	-3656
▁orph	-3657
pse	-3658
▁fat	-3659
assed	-3660
inger	-3661
▁Grand	-3662
▁innov	-3663
▁intens	-3664
oard	-3665
▁Camp	-3666
▁repe	-3667
▁tour	-3668
▁Little	-3669
▁program	-3670
▁sophist	-3671
▁birthday	-3672
▁suspicious	-3673
▁sophistication	-3674
▁Eve	-3675
▁speak	-3676
▁romantic	-3677
▁Bal	-3678
▁Ham	-3679
▁Sol	-3680
▁Empire	-3681
▁rescued	-3682
▁sharing	-3683
cend	-3684
▁Det	-3685
▁cul	-3686
▁Brad	-3687
▁magn	-3688
▁purp	-3689
▁intelligence	-3690
hus	-3691
oud	-3692
▁lack	-3693
▁giant	-3694
val	-3695
stal	-3696
▁pan	-3697
▁guests	-3698
▁narrative	-3699
▁previously	-3700
▁dig	-3701
▁wall	-3702
▁slowly	-3703
▁catches	-3704
▁imprison	-3705
▁interview	-3706
▁pet	-3707
▁task	-3708
▁convinced	-3709
▁completely	-3710
ems	-3711
▁privileged	-3712
umps	-3713
▁pal	-3714
▁wine	-3715
▁confesses	-3716
sters	-3717
▁laun	-3718
▁These	-3719
▁neighb	-3720
▁My	-3721
▁bi	-3722
ushed	-3723
▁Barb	-3724
▁recru	-3725
▁reaches	-3726
ata	-3727
▁match	-3728
▁mental	-3729
▁interior	-3730
gar	-3731
▁mad	-3732
▁hous	-3733
▁proud	-3734
▁trapped	-3735
▁attempting	-3736
lear	-3737
illeg	-3738
mate	-3739
enant	-3740
iques	-3741
▁jud	-3742
▁exam	-3743
▁served	-3744
▁marries	-3745
uries	-3746
▁prog	-3747
▁either	-3748
▁condition	-3749
ani	-3750
ction	-3751
▁cost	-3752
▁include	-3753
▁seeking	-3754
▁restaurant	-3755
uty	-3756
agers	-3757
▁chief	-3758
▁bodies	-3759
▁vehicles	-3760
▁Ver	-3761
ublic	-3762
▁Greg	-3763
▁Sant	-3764
eter	-3765
▁Jam	-3766
▁aid	-3767
itude	-3768
▁trail	-3769
▁letters	-3770
▁problem	-3771
mates	-3772
▁Cast	-3773
▁lies	-3774
▁crash	-3775
▁seeks	-3776
▁matter	-3777
▁calling	-3778
▁secrets	-3779
▁customer	-3780
annah	-3781
▁Rock	-3782
▁Ryan	-3783
▁newsp	-3784
▁quiet	-3785
eds	-3786
irt	-3787
kes	-3788
▁places	-3789
▁fascinated	-3790
▁introduced	-3791
eps	-3792
▁lot	-3793
agram	-3794
▁Brian	-3795
read	-3796
▁ask	-3797
▁tail	-3798
▁brain	-3799
▁complex	-3800
▁non	-3801
inate	-3802
▁cold	-3803
▁Jessica	-3804
▁capital	-3805
▁deliver	-3806
▁Les	-3807
▁property	-3808
▁countless	-3809
othes	-3810
▁crit	-3811
▁polic	-3812
▁safety	-3813
▁conflict	-3814
▁grandmother	-3815
iri	-3816
▁dragon	-3817
▁shooting	-3818
▁organization	-3819
▁Short	-3820
▁names	-3821
▁artist	-3822
▁earned	-3823
iate	-3824
▁trap	-3825
▁exped	-3826
▁Big	-3827
▁Tik	-3828
▁inspir	-3829
▁families	-3830
▁Instead	-3831
▁network	-3832
md	-3833
▁lose	-3834
▁seek	-3835
▁coast	-3836
▁saves	-3837
▁weapon	-3838
▁writer	-3839
zy	-3840
undred	-3841
eman	-3842
▁sight	-3843
▁warri	-3844
▁soldier	-3845
▁talking	-3846
▁illeg	-3847
▁normal	-3848
▁efforts	-3849
▁official	-3850
▁appearance	-3851
owd	-3852
▁iss	-3853
▁Ruth	-3854
▁chapter	-3855
▁existence	-3856
oom	-3857
▁Rep	-3858
▁massive	-3859
▁Amy	-3860
world	-3861
▁stage	-3862
▁happens	-3863
▁Liz	-3864
ender	-3865
mdash	-3866
ension	-3867
anthrop	-3868
▁unconscious	-3869
▁tow	-3870
▁stra	-3871
▁cabin	-3872
▁altern	-3873
▁fine	-3874
ressive	-3875
▁humanity	-3876
▁purchased	-3877
▁unexpected	-3878
▁hired	-3879
cohol	-3880
▁mult	-3881
▁victims	-3882
▁energy	-3883
▁losing	-3884
▁conversation	-3885
▁Fre	-3886
iated	-3887
▁allowing	-3888
▁President	-3889
oper	-3890
▁Tor	-3891
▁male	-3892
▁incident	-3893
Tok	-3894
can	-3895
pet	-3896
▁194	-3897
▁Mont	-3898
▁active	-3899
prof	-3900
▁conclud	-3901
▁gar	-3902
▁bath	-3903
▁mater	-3904
▁enthus	-3905
▁release	-3906
▁Son	-3907
▁Dave	-3908
▁Kelly	-3909
▁slave	-3910
▁wellness	-3911
ayl	-3912
▁vast	-3913
uclear	-3914
▁fallen	-3915
▁legacy	-3916
▁museum	-3917
rap	-3918
▁Uni	-3919
▁Bern	-3920
▁Stan	-3921
gie	-3922
angu	-3923
▁cal	-3924
▁Sher	-3925
▁embr	-3926
▁your	-3927
▁earth	-3928
▁raised	-3929
za	-3930
inks	-3931
▁Haw	-3932
▁Tem	-3933
▁gas	-3934
erous	-3935
inked	-3936
▁Over	-3937
▁Da	-3938
▁kept	-3939
▁navig	-3940
▁states	-3941
▁suggest	-3942
▁behavior	-3943
▁holds	-3944
▁journal	-3945
ival	-3946
ners	-3947
inent	-3948
▁Ital	-3949
▁gain	-3950
war	-3951
aked	-3952
iled	-3953
▁corn	-3954
▁wins	-3955
▁eight	-3956
▁general	-3957
▁murderer	-3958
rate	-3959
▁TikTok	-3960
▁funeral	-3961
▁provide	-3962
▁Bab	-3963
▁meant	-3964
▁pulls	-3965
▁telev	-3966
ta	-3967
iece	-3968
▁196	-3969
▁199	-3970
▁fair	-3971
▁Philip	-3972
under	-3973
▁pred	-3974
▁contem	-3975
▁vision	-3976
▁writes	-3977
▁Fe	-3978
▁Mir	-3979
▁Wall	-3980
▁lege	-3981
▁creatures	-3982
▁Not	-3983
prene	-3984
reprene	-3985
▁driver	-3986
▁Tri	-3987
▁awak	-3988
▁parts	-3989
▁towns	-3990
▁tried	-3991
▁deeply	-3992
ieut	-3993
▁fal	-3994
▁gift	-3995
▁drove	-3996
▁comple	-3997
▁desperate	-3998
BI	-3999
othy	-4000
▁rap	-4001
▁cred	-4002
▁sound	-4003
▁toward	-4004
itc	-4005
▁la	-4006
▁san	-4007
light	-4008
▁blind	-4009
ila	-4010
▁landscap	-4011
▁introduces	-4012
ecca	-4013
▁Law	-4014
epend	-4015
▁Jenny	-4016
▁honed	-4017
▁feeling	-4018
▁enrolled	-4019
▁survivors	-4020
▁hear	-4021
▁grace	-4022
▁Instagram	-4023
peror	-4024
▁admir	-4025
▁drugs	-4026
▁alcohol	-4027
▁connected	-4028
ls	-4029
issa	-4030
▁Dou	-4031
▁esc	-4032
▁fond	-4033
▁orphan	-4034
eed	-4035
▁Te	-4036
▁exh	-4037
▁Julie	-4038
▁financial	-4039
▁park	-4040
▁guards	-4041
▁started	-4042
rol	-4043
▁hall	-4044
▁ocean	-4045
▁entreprene	-4046
anted	-4047
▁warns	-4048
▁visiting	-4049
▁believing	-4050
▁hen	-4051
rible	-4052
▁excell	-4053
▁Jonathan	-4054
▁Throughout	-4055
▁Es	-4056
▁Nich	-4057
▁effect	-4058
▁player	-4059
▁worked	-4060
▁nuclear	-4061
▁completing	-4062
▁successfully	-4063
riven	-4064
▁doub	-4065
▁setting	-4066
elia	-4067
▁cater	-4068
▁lawyer	-4069
rab	-4070
▁Part	-4071
▁resol	-4072
▁remember	-4073
ga	-4074
▁obt	-4075
▁talks	-4076
ocr	-4077
char	-4078
▁What	-4079
▁arts	-4080
▁academ	-4081
ervation	-4082
▁Bec	-4083
▁asked	-4084
kin	-4085
▁Karen	-4086
▁assoc	-4087
▁faith	-4088
▁strang	-4089
▁decision	-4090
uis	-4091
▁ty	-4092
asts	-4093
ease	-4094
▁hat	-4095
ounts	-4096
▁aboard	-4097
▁fights	-4098
▁Ron	-4099
▁cow	-4100
ether	-4101
▁widow	-4102
iar	-4103
iger	-4104
itage	-4105
▁sick	-4106
iction	-4107
ocking	-4108
▁advice	-4109
▁camera	-4110
▁corrupt	-4111
▁version	-4112
▁glimpses	-4113
eder	-4114
uded	-4115
uman	-4116
▁Mount	-4117
▁ready	-4118
▁trick	-4119
ola	-4120
aded	-4121
▁Sup	-4122
▁hol	-4123
▁cant	-4124
▁gave	-4125
▁shel	-4126
▁knife	-4127
ability	-4128
profile	-4129
▁freedom	-4130
onic	-4131
▁resist	-4132
▁hundred	-4133
▁kingdom	-4134
wen	-4135
▁FBI	-4136
▁rub	-4137
▁numerous	-4138
▁timeless	-4139
▁pir	-4140
▁seven	-4141
▁Doctor	-4142
▁shortly	-4143
▁staying	-4144
▁religious	-4145
who	-4146
born	-4147
ample	-4148
▁Beth	-4149
▁Jacob	-4150
▁dedicated	-4151
▁destruction	-4152
▁ic	-4153
named	-4154
▁Both	-4155
▁Bobby	-4156
▁operation	-4157
reng	-4158
▁Ant	-4159
▁Gal	-4160
arian	-4161
▁Green	-4162
▁Under	-4163
▁drink	-4164
▁drown	-4165
▁roots	-4166
▁constantly	-4167
▁17	-4168
▁af	-4169
▁Reg	-4170
▁Wes	-4171
▁East	-4172
▁Prof	-4173
▁heir	-4174
▁quar	-4175
▁aware	-4176
▁obser	-4177
▁hostage	-4178
▁reflection	-4179
▁sad	-4180
▁Indian	-4181
▁African	-4182
rin	-4183
vol	-4184
▁tale	-4185
▁Eddie	-4186
▁Lauren	-4187
▁searching	-4188
▁Ur	-4189
▁holding	-4190
▁sisters	-4191
▁6	-4192
▁:	-4193
▁ris	-4194
▁common	-4195
▁ice	-4196
▁bear	-4197
▁afflu	-4198
▁witch	-4199
▁Matthew	-4200
▁learned	-4201
bre	-4202
stone	-4203
▁bound	-4204
▁staff	-4205
▁If	-4206
arks	-4207
play	-4208
umed	-4209
▁Unf	-4210
yearold	-4211
▁parties	-4212
ios	-4213
riel	-4214
aware	-4215
▁reck	-4216
▁flight	-4217
▁changed	-4218
och	-4219
uan	-4220
▁Rick	-4221
▁clean	-4222
▁content	-4223
▁potential	-4224
▁intensified	-4225
hi	-4226
▁Land	-4227
▁arms	-4228
▁Julia	-4229
▁troub	-4230
▁hoping	-4231
▁humble	-4232
aughters	-4233
▁science	-4234
▁uncover	-4235
▁sen	-4236
▁bird	-4237
▁kids	-4238
itation	-4239
▁crafts	-4240
▁moving	-4241
▁clothes	-4242
▁opening	-4243
ca	-4244
isf	-4245
ois	-4246
olas	-4247
uous	-4248
▁197	-4249
▁Robin	-4250
▁elderly	-4251
▁Kir	-4252
▁sons	-4253
uls	-4254
▁Nor	-4255
erior	-4256
▁Jones	-4257
▁meaning	-4258
.,	-4259
▁Bru	-4260
▁Ven	-4261
▁mid	-4262
▁crowd	-4263
▁passes	-4264
▁robber	-4265
▁thrown	-4266
▁inhabit	-4267
ieutenant	-4268
▁challenges	-4269
▁Tre	-4270
ecess	-4271
▁bare	-4272
▁yacht	-4273
itiz	-4274
outs	-4275
▁Dun	-4276
▁Alan	-4277
othing	-4278
▁India	-4279
▁passions	-4280
cts	-4281
iat	-4282
▁figures	-4283
▁surprise	-4284
▁valuable	-4285
vey	-4286
▁Bond	-4287
▁Isab	-4288
▁cave	-4289
▁empt	-4290
▁fears	-4291
▁charism	-4292
▁walking	-4293
▁accompan	-4294
▁innocent	-4295
▁witnesses	-4296
ida	-4297
ourt	-4298
▁Cap	-4299
▁Sat	-4300
imate	-4301
▁wand	-4302
▁occur	-4303
▁write	-4304
▁television	-4305
▁philanthrop	-4306
▁impro	-4307
▁teenage	-4308
▁langu	-4309
▁streng	-4310
▁Unfortunately	-4311
▁elegant	-4312
▁discovery	-4313
▁fant	-4314
▁flour	-4315
▁least	-4316
▁Soviet	-4317
▁Society	-4318
▁explain	-4319
▁manager	-4320
▁treasure	-4321
▁7	-4322
▁harm	-4323
▁isol	-4324
▁Linda	-4325
▁fan	-4326
incip	-4327
▁Book	-4328
▁Gold	-4329
▁pilot	-4330
▁determination	-4331
lad	-4332
▁Fer	-4333
annel	-4334
ching	-4335
orter	-4336
manship	-4337
▁pursuit	-4338
▁president	-4339
oys	-4340
ube	-4341
iced	-4342
▁Cat	-4343
▁fund	-4344
▁ancest	-4345
▁represent	-4346
▁underground	-4347
▁Old	-4348
▁devast	-4349
▁above	-4350
▁deaths	-4351
▁mothers	-4352
▁develops	-4353
▁Ken	-4354
▁spy	-4355
pired	-4356
▁proves	-4357
▁princess	-4358
▁profession	-4359
▁played	-4360
▁violence	-4361
▁generations	-4362
▁10	-4363
leep	-4364
conom	-4365
craft	-4366
▁mort	-4367
▁expand	-4368
▁points	-4369
▁steals	-4370
▁includes	-4371
icul	-4372
▁zomb	-4373
▁charge	-4374
▁affluent	-4375
▁suffering	-4376
lings	-4377
▁epis	-4378
▁peers	-4379
▁spell	-4380
▁Father	-4381
▁involve	-4382
▁thoughts	-4383
win	-4384
▁cook	-4385
▁heal	-4386
rified	-4387
▁Italian	-4388
▁da	-4389
iates	-4390
▁Gord	-4391
▁Wood	-4392
▁quite	-4393
▁complic	-4394
▁described	-4395
▁newspaper	-4396
▁countryside	-4397
▁picturesque	-4398
ns	-4399
iens	-4400
mail	-4401
▁Est	-4402
▁source	-4403
▁Because	-4404
▁University	-4405
ider	-4406
▁Fel	-4407
▁sor	-4408
▁Dick	-4409
▁Three	-4410
▁hustle	-4411
▁destroys	-4412
▁9	-4413
ville	-4414
▁dress	-4415
ucky	-4416
▁diamond	-4417
▁showing	-4418
aph	-4419
▁shes	-4420
▁legend	-4421
▁turning	-4422
▁interested	-4423
▁neighborhood	-4424
mes	-4425
▁Anth	-4426
ologist	-4427
▁Police	-4428
▁School	-4429
▁asking	-4430
▁forgot	-4431
▁Washing	-4432
rived	-4433
▁Vinc	-4434
rupted	-4435
▁Marie	-4436
▁Walter	-4437
▁indulging	-4438
▁maintained	-4439
edy	-4440
▁Harr	-4441
▁Colonel	-4442
▁Virgin	-4443
▁bustle	-4444
▁reading	-4445
▁shocked	-4446
▁suffers	-4447
▁flashback	-4448
righ	-4449
▁low	-4450
aylor	-4451
class	-4452
▁lets	-4453
▁Mexico	-4454
▁extrem	-4455
▁forever	-4456
▁received	-4457
▁complemented	-4458
▁Ve	-4459
usted	-4460
▁hunt	-4461
▁Bruce	-4462
▁promise	-4463
▁confidence	-4464
uary	-4465
▁Dom	-4466
▁Pro	-4467
▁particip	-4468
▁retrieve	-4469
▁intricate	-4470
▁Tod	-4471
eller	-4472
emies	-4473
▁vent	-4474
▁guilt	-4475
▁Dragon	-4476
▁device	-4477
▁tracks	-4478
▁escaped	-4479
▁Com	-4480
▁ess	-4481
▁target	-4482
▁invited	-4483
▁craftsmanship	-4484
boy	-4485
▁Kh	-4486
down	-4487
▁fast	-4488
coming	-4489
ulated	-4490
▁terms	-4491
▁locked	-4492
▁signific	-4493
ician	-4494
▁glob	-4495
▁colon	-4496
▁intent	-4497
▁prince	-4498
▁Rebecca	-4499
▁beloved	-4500
▁material	-4501
▁Den	-4502
asons	-4503
isher	-4504
▁refuge	-4505
▁planned	-4506
▁daughters	-4507
▁reluctantly	-4508
▁Cle	-4509
▁bag	-4510
▁Soph	-4511
▁study	-4512
▁Morgan	-4513
▁driven	-4514
▁disappears	-4515
kn	-4516
abor	-4517
▁via	-4518
▁scream	-4519
▁rescues	-4520
▁preserving	-4521
▁Tommy	-4522
▁autom	-4523
▁Africa	-4524
▁monster	-4525
▁Princess	-4526
▁Washington	-4527
▁danc	-4528
▁opul	-4529
▁wish	-4530
▁First	-4531
▁frustr	-4532
▁passed	-4533
▁Michelle	-4534
▁Set	-4535
▁drag	-4536
▁econom	-4537
▁placed	-4538
▁visited	-4539
▁befriends	-4540
▁destroying	-4541
usc	-4542
▁lav	-4543
ivers	-4544
▁Sean	-4545
▁expect	-4546
▁results	-4547
▁romance	-4548
▁carrying	-4549
hem	-4550
cent	-4551
▁ban	-4552
▁Having	-4553
▁subject	-4554
▁Boy	-4555
▁Far	-4556
▁Jed	-4557
eding	-4558
▁weak	-4559
▁Terry	-4560
▁picture	-4561
▁connection	-4562
▁Os	-4563
▁Tam	-4564
▁batt	-4565
ration	-4566
▁glass	-4567
▁Joshua	-4568
▁universe	-4569
away	-4570
▁Tob	-4571
▁haun	-4572
▁independ	-4573
iley	-4574
▁Chic	-4575
▁aunt	-4576
▁swim	-4577
▁flying	-4578
▁regard	-4579
▁remote	-4580
▁Shortly	-4581
▁regular	-4582
▁Republic	-4583
▁realises	-4584
▁enl	-4585
▁hits	-4586
▁newly	-4587
▁overhe	-4588
▁prisoner	-4589
erts	-4590
▁198	-4591
▁Fal	-4592
▁impl	-4593
▁pool	-4594
▁deadly	-4595
▁willing	-4596
▁historical	-4597
ugh	-4598
▁Bet	-4599
▁won	-4600
▁trade	-4601
▁twenty	-4602
▁assault	-4603
▁repeated	-4604
▁revolution	-4605
ev	-4606
iling	-4607
▁snow	-4608
▁China	-4609
▁raise	-4610
▁Stephan	-4611
▁enemies	-4612
▁expedition	-4613
▁imprisoned	-4614
▁established	-4615
osen	-4616
atory	-4617
▁Comp	-4618
▁ships	-4619
▁corpse	-4620
▁Patrick	-4621
uf	-4622
sey	-4623
▁huge	-4624
▁sequ	-4625
▁shut	-4626
▁Master	-4627
▁basement	-4628
▁Ot	-4629
rett	-4630
▁Tar	-4631
ravel	-4632
▁Larry	-4633
▁worth	-4634
▁object	-4635
▁approaches	-4636
add	-4637
▁Ca	-4638
pping	-4639
▁Uncle	-4640
▁upset	-4641
▁Carter	-4642
▁surface	-4643
▁drinking	-4644
▁accompany	-4645
▁excellence	-4646
urse	-4647
▁Hor	-4648
▁eas	-4649
▁heard	-4650
▁surre	-4651
▁achieve	-4652
rect	-4653
uxury	-4654
▁citiz	-4655
▁magaz	-4656
▁philos	-4657
▁purpose	-4658
▁studies	-4659
ogue	-4660
otte	-4661
▁Hal	-4662
▁Wend	-4663
▁desp	-4664
▁proposes	-4665
▁Vlad	-4666
atives	-4667
itious	-4668
▁prepares	-4669
IA	-4670
▁evol	-4671
▁hides	-4672
▁youth	-4673
▁divorce	-4674
▁carefully	-4675
ils	-4676
iest	-4677
▁Out	-4678
▁cer	-4679
heart	-4680
izard	-4681
▁Trav	-4682
▁breaking	-4683
▁abilities	-4684
ship	-4685
▁Ire	-4686
▁abd	-4687
▁happen	-4688
▁servant	-4689
▁showcased	-4690
car	-4691
for	-4692
▁Nav	-4693
▁wasn	-4694
action	-4695
ez	-4696
▁moon	-4697
▁recent	-4698
--	-4699
ja	-4700
▁picks	-4701
▁landed	-4702
▁mention	-4703
▁Francisco	-4704
ela	-4705
agues	-4706
▁empty	-4707
rawling	-4708
▁simple	-4709
▁clientele	-4710
▁ver	-4711
essor	-4712
▁assigned	-4713
▁resulting	-4714
▁dece	-4715
▁bedroom	-4716
▁stealing	-4717
1,	-4718
aign	-4719
▁hyp	-4720
▁furn	-4721
▁unus	-4722
▁video	-4723
▁helped	-4724
▁scientist	-4725
▁possession	-4726
zed	-4727
▁royal	-4728
▁apolog	-4729
▁buried	-4730
▁performance	-4731
▁Ob	-4732
irty	-4733
▁stays	-4734
▁confir	-4735
▁spaces	-4736
▁princip	-4737
▁Margaret	-4738
▁heritage	-4739
▁blackmail	-4740
ixt	-4741
ader	-4742
▁Moon	-4743
icious	-4744
▁attracted	-4745
▁mountains	-4746
▁background	-4747
▁membership	-4748
wor	-4749
more	-4750
odge	-4751
▁Sing	-4752
▁didn	-4753
▁needed	-4754
cast	-4755
▁cas	-4756
▁bull	-4757
▁hors	-4758
▁push	-4759
ording	-4760
▁compl	-4761
▁center	-4762
▁unwind	-4763
▁engaged	-4764
▁contract	-4765
▁8	-4766
asha	-4767
▁Call	-4768
▁extra	-4769
▁Claire	-4770
▁animal	-4771
▁unaware	-4772
▁approach	-4773
19	-4774
ba	-4775
bro	-4776
keep	-4777
▁Nik	-4778
▁sch	-4779
▁wel	-4780
eline	-4781
▁fleet	-4782
▁Maggie	-4783
▁channel	-4784
▁shelter	-4785
▁opportunities	-4786
lyn	-4787
▁Ul	-4788
▁odd	-4789
lying	-4790
▁Sen	-4791
▁hig	-4792
▁Cath	-4793
▁coff	-4794
▁consider	-4795
▁distract	-4796
▁spending	-4797
▁15	-4798
onym	-4799
▁195	-4800
▁Jay	-4801
ission	-4802
▁Taylor	-4803
▁impact	-4804
▁excelled	-4805
▁authorities	-4806
▁traditional	-4807
gypt	-4808
▁Alf	-4809
▁fulf	-4810
▁cerem	-4811
▁descend	-4812
▁forward	-4813
▁claiming	-4814
path	-4815
▁Day	-4816
▁unh	-4817
▁Stone	-4818
▁jet	-4819
claim	-4820
▁ming	-4821
▁Death	-4822
▁belief	-4823
▁Germany	-4824
▁example	-4825
lers	-4826
▁Ele	-4827
▁Scot	-4828
▁meth	-4829
▁infilt	-4830
▁intends	-4831
▁respond	-4832
2,	-4833
ennis	-4834
found	-4835
▁rise	-4836
▁Every	-4837
▁persuades	-4838
▁sprawling	-4839
key	-4840
olic	-4841
hetic	-4842
steps	-4843
embers	-4844
▁section	-4845
▁document	-4846
▁announces	-4847
mosp	-4848
▁prior	-4849
▁intern	-4850
▁worlds	-4851
▁beaches	-4852
▁studying	-4853
▁conqu	-4854
▁image	-4855
▁conspir	-4856
▁Bra	-4857
▁flat	-4858
▁site	-4859
inating	-4860
▁brands	-4861
▁circum	-4862
▁located	-4863
▁inhabitants	-4864
▁Gra	-4865
▁Arch	-4866
▁Foll	-4867
▁Hans	-4868
itable	-4869
▁prompt	-4870
▁sports	-4871
▁bringing	-4872
▁sleeping	-4873
oles	-4874
reen	-4875
▁Dep	-4876
▁Tex	-4877
▁ord	-4878
▁swe	-4879
▁sole	-4880
▁Italy	-4881
▁atmosp	-4882
▁Austral	-4883
reek	-4884
encer	-4885
▁diss	-4886
▁strike	-4887
▁winter	-4888
▁counter	-4889
▁conscious	-4890
▁involving	-4891
ura	-4892
▁ut	-4893
▁cha	-4894
▁spl	-4895
▁warm	-4896
▁amassed	-4897
▁factory	-4898
▁contains	-4899
vy	-4900
what	-4901
▁Aud	-4902
▁Nicole	-4903
▁Ted	-4904
▁More	-4905
▁Molly	-4906
▁Nancy	-4907
▁conce	-4908
▁Anthony	-4909
▁ensured	-4910
pher	-4911
▁Andre	-4912
spector	-4913
▁Amanda	-4914
▁consequ	-4915
▁hearing	-4916
▁stranger	-4917
▁footsteps	-4918
▁investigating	-4919
col	-4920
rik	-4921
icop	-4922
▁Bon	-4923
▁Dam	-4924
▁Lor	-4925
▁Bell	-4926
▁rule	-4927
▁Roger	-4928
▁Union	-4929
▁touch	-4930
▁knocks	-4931
▁remind	-4932
▁argument	-4933
▁Hun	-4934
▁bra	-4935
▁Egypt	-4936
▁Jesse	-4937
▁tribe	-4938
▁latter	-4939
▁presents	-4940
ilty	-4941
▁Lew	-4942
▁Albert	-4943
▁Victoria	-4944
▁campaign	-4945
▁establish	-4946
▁household	-4947
▁prisoners	-4948
▁inspiration	-4949
▁Ass	-4950
▁rape	-4951
▁Jamie	-4952
ogether	-4953
▁crimes	-4954
▁palace	-4955
▁vampires	-4956
▁activities	-4957
nes	-4958
▁Rom	-4959
▁Sum	-4960
eland	-4961
▁Rand	-4962
▁lake	-4963
▁roll	-4964
▁Twitter	-4965
▁discovering	-4966
▁ven	-4967
▁maid	-4968
▁Anton	-4969
▁table	-4970
▁barely	-4971
▁bridge	-4972
▁accepted	-4973
▁arriving	-4974
▁language	-4975
gs	-4976
▁lavish	-4977
▁Chicago	-4978
▁vacation	-4979
▁Professor	-4980
▁Us	-4981
▁Cra	-4982
engers	-4983
▁chases	-4984
▁resour	-4985
▁Catherine	-4986
▁cy	-4987
▁sab	-4988
oster	-4989
▁Beck	-4990
▁cuts	-4991
▁Chief	-4992
▁extremely	-4993
▁Gen	-4994
▁Tur	-4995
▁gal	-4996
▁guide	-4997
▁ranks	-4998
▁suppl	-4999
▁reject	-5000
▁individual	-5001
sp	-5002
▁Mas	-5003
▁Ral	-5004
iller	-5005
▁Aunt	-5006
▁Sara	-5007
▁squad	-5008
▁request	-5009
▁charisma	-5010
▁Stephanie	-5011
▁frequently	-5012
vest	-5013
▁resort	-5014
▁proceeds	-5015
▁professor	-5016
kind	-5017
ieces	-5018
▁Luxury	-5019
▁forcing	-5020
▁separate	-5021
esh	-5022
geon	-5023
▁Marl	-5024
▁lady	-5025
▁double	-5026
▁Following	-5027
ato	-5028
gic	-5029
raid	-5030
worth	-5031
▁Real	-5032
▁Linked	-5033
▁chosen	-5034
▁saving	-5035
▁emotional	-5036
▁enthusias	-5037
▁Jes	-5038
▁somet	-5039
▁stopped	-5040
▁LinkedIn	-5041
▁director	-5042
▁strength	-5043
phs	-5044
ria	-5045
▁mas	-5046
▁labor	-5047
▁novels	-5048
▁dismiss	-5049
▁reunited	-5050
▁relationships	-5051
▁193	-5052
▁Pri	-5053
▁Flor	-5054
▁Sally	-5055
▁region	-5056
▁CIA	-5057
▁sust	-5058
▁Gordon	-5059
▁wounds	-5060
▁reckoned	-5061
▁connections	-5062
da	-5063
▁ren	-5064
▁Mort	-5065
▁libr	-5066
porary	-5067
▁River	-5068
▁drops	-5069
▁workers	-5070
▁invasion	-5071
▁expertise	-5072
▁atmosphere	-5073
▁mix	-5074
▁prec	-5075
▁ordered	-5076
▁demanding	-5077
roc	-5078
▁golf	-5079
▁Marsh	-5080
▁exhib	-5081
▁fired	-5082
▁stone	-5083
▁abandon	-5084
▁cultural	-5085
▁escaping	-5086
▁explosion	-5087
▁Oz	-5088
ighter	-5089
▁Diana	-5090
▁closer	-5091
▁Vincent	-5092
▁happily	-5093
▁published	-5094
▁Bh	-5095
▁Leo	-5096
▁bond	-5097
▁fake	-5098
▁cruel	-5099
▁border	-5100
▁garden	-5101
▁guilty	-5102
▁Emperor	-5103
▁consult	-5104
zo	-5105
ipl	-5106
met	-5107
▁Syl	-5108
▁Khan	-5109
▁gall	-5110
▁worse	-5111
▁arrange	-5112
▁helicop	-5113
▁navigate	-5114
▁restoration	-5115
▁Air	-5116
▁Nap	-5117
▁Rud	-5118
▁hur	-5119
▁rac	-5120
▁felt	-5121
uccess	-5122
▁Ellen	-5123
▁Hannah	-5124
▁throne	-5125
▁considered	-5126
ste	-5127
▁Gil	-5128
anced	-5129
▁Hill	-5130
▁raid	-5131
▁hench	-5132
▁asleep	-5133
▁thanks	-5134
▁chapters	-5135
▁clothing	-5136
▁expected	-5137
ifts	-5138
▁Kay	-5139
▁Log	-5140
▁lay	-5141
▁nest	-5142
charge	-5143
▁Court	-5144
▁stars	-5145
▁Ashley	-5146
▁lovers	-5147
▁scenes	-5148
▁answers	-5149
▁cliff	-5150
▁flies	-5151
▁collaps	-5152
▁receive	-5153
▁Alexander	-5154
ss	-5155
▁tot	-5156
▁bust	-5157
▁Travis	-5158
▁Inspector	-5159
ji	-5160
▁Dis	-5161
▁Rad	-5162
▁rit	-5163
▁anger	-5164
▁teach	-5165
▁Marcus	-5166
▁necess	-5167
▁arrived	-5168
▁Virginia	-5169
▁dim	-5170
alled	-5171
▁Here	-5172
▁dogs	-5173
▁duel	-5174
▁Serge	-5175
▁equip	-5176
▁focus	-5177
▁manip	-5178
▁smugg	-5179
▁Steven	-5180
▁development	-5181
▁("	-5182
echan	-5183
ivity	-5184
▁twins	-5185
▁native	-5186
▁gradually	-5187
ado	-5188
▁Ts	-5189
▁unl	-5190
▁Grace	-5191
▁Since	-5192
ossible	-5193
▁scheme	-5194
▁videos	-5195
▁conclus	-5196
▁Nicholas	-5197
▁facility	-5198
▁features	-5199
agn	-5200
eer	-5201
zen	-5202
ashed	-5203
▁Annie	-5204
▁painting	-5205
▁scientists	-5206
mann	-5207
▁spa	-5208
▁Vick	-5209
▁paper	-5210
▁taught	-5211
▁troops	-5212
▁enchant	-5213
▁pursued	-5214
▁standing	-5215
▁surviving	-5216
▁subsequently	-5217
▁Ton	-5218
▁ones	-5219
▁adult	-5220
▁badly	-5221
▁cutting	-5222
▁prostitute	-5223
▁pup	-5224
▁rum	-5225
ables	-5226
adise	-5227
andra	-5228
iable	-5229
▁Nazi	-5230
stairs	-5231
▁instit	-5232
▁method	-5233
▁passionate	-5234
#3	-5235
nam	-5236
▁Jr	-5237
▁id	-5238
▁wer	-5239
▁Mars	-5240
▁fans	-5241
▁poet	-5242
ointed	-5243
▁circumst	-5244
▁disappeared	-5245
▁oil	-5246
▁Lily	-5247
▁check	-5248
▁Julian	-5249
▁robbery	-5250
ala	-5251
▁Ba	-5252
▁TV	-5253
ffic	-5254
ilst	-5255
reck	-5256
▁tom	-5257
▁Even	-5258
▁Good	-5259
▁Seth	-5260
▁dressed	-5261
ifies	-5262
inity	-5263
▁grabs	-5264
▁disease	-5265
▁population	-5266
olk	-5267
▁Ax	-5268
▁Ast	-5269
▁jumps	-5270
▁nurse	-5271
▁queen	-5272
ih	-5273
ika	-5274
▁Ac	-5275
▁Way	-5276
▁Hard	-5277
▁Viet	-5278
▁acts	-5279
▁adopted	-5280
ols	-5281
▁Jun	-5282
▁Pan	-5283
▁Pin	-5284
▁opt	-5285
people	-5286
▁daily	-5287
▁grown	-5288
▁shape	-5289
▁Nathan	-5290
▁defend	-5291
▁reconc	-5292
▁species	-5293
▁assassin	-5294
▁entrepreneurs	-5295
acks	-5296
rael	-5297
▁Ren	-5298
▁Dian	-5299
outhern	-5300
▁Valley	-5301
▁sneaks	-5302
▁sending	-5303
▁fondness	-5304
▁recognizing	-5305
nda	-5306
ales	-5307
▁relax	-5308
▁steps	-5309
▁brutal	-5310
▁pressure	-5311
▁surprised	-5312
roy	-5313
essa	-5314
uced	-5315
▁ast	-5316
▁none	-5317
▁beaten	-5318
▁provides	-5319
▁companion	-5320
▁management	-5321
cen	-5322
▁Sy	-5323
andal	-5324
▁Kyle	-5325
antage	-5326
▁reads	-5327
▁somewhat	-5328
ams	-5329
▁16	-5330
otes	-5331
entle	-5332
▁Cind	-5333
▁coup	-5334
▁Along	-5335
▁hires	-5336
▁relig	-5337
▁survived	-5338
▁survives	-5339
board	-5340
inals	-5341
▁card	-5342
▁Marth	-5343
▁faces	-5344
▁forms	-5345
▁awakens	-5346
▁boarding	-5347
▁concerns	-5348
▁projects	-5349
▁surrounding	-5350
gen	-5351
phy	-5352
rier	-5353
anish	-5354
▁Each	-5355
▁guns	-5356
▁deals	-5357
▁lines	-5358
▁horses	-5359
▁ceremony	-5360
ante	-5361
▁Eth	-5362
astic	-5363
▁tick	-5364
▁trav	-5365
▁ensues	-5366
▁trends	-5367
▁hunting	-5368
▁sheriff	-5369
▁declares	-5370
▁thousands	-5371
eted	-5372
▁eth	-5373
▁fix	-5374
▁paid	-5375
▁aliens	-5376
▁rebell	-5377
▁keeping	-5378
▁separated	-5379
▁treatment	-5380
▁passengers	-5381
▁Sud	-5382
▁Only	-5383
▁nick	-5384
▁trib	-5385
uments	-5386
▁Jesus	-5387
▁Sever	-5388
▁false	-5389
▁solve	-5390
▁controll	-5391
▁execution	-5392
▁reluctant	-5393
▁maintaining	-5394
edge	-5395
unch	-5396
▁Squ	-5397
power	-5398
▁motor	-5399
▁shares	-5400
▁collector	-5401
▁colleagues	-5402
aze	-5403
omed	-5404
▁Long	-5405
▁Thor	-5406
▁grave	-5407
▁easily	-5408
▁mechan	-5409
▁season	-5410
▁waters	-5411
▁inherit	-5412
▁singing	-5413
▁terrible	-5414
▁philosoph	-5415
▁involvement	-5416
▁disappearance	-5417
ucts	-5418
▁lon	-5419
▁Barry	-5420
▁pride	-5421
righten	-5422
▁speech	-5423
▁failure	-5424
▁constant	-5425
arp	-5426
body	-5427
▁Fin	-5428
▁Hell	-5429
▁Mick	-5430
▁Priv	-5431
▁Other	-5432
▁encourag	-5433
▁realizing	-5434
▁afterwards	-5435
▁notes	-5436
▁Howard	-5437
▁enjoying	-5438
▁football	-5439
▁Norm	-5440
▁hurt	-5441
▁Jewish	-5442
▁custody	-5443
▁illness	-5444
▁innovative	-5445
ko	-5446
▁Ret	-5447
▁lie	-5448
▁fully	-5449
▁colony	-5450
▁passing	-5451
▁sacrifice	-5452
▁confronted	-5453
▁recognizes	-5454
aire	-5455
itty	-5456
▁typ	-5457
▁Fire	-5458
▁Miles	-5459
▁Phill	-5460
▁laugh	-5461
▁Church	-5462
▁Donald	-5463
▁airport	-5464
▁Charlotte	-5465
▁Vol	-5466
▁larg	-5467
▁stands	-5468
▁unusual	-5469
▁involves	-5470
▁succeeds	-5471
▁concludes	-5472
▁stal	-5473
▁Megan	-5474
▁ahead	-5475
▁alter	-5476
▁notice	-5477
▁riding	-5478
▁intended	-5479
enc	-5480
▁Its	-5481
▁mart	-5482
istine	-5483
▁stabs	-5484
alleled	-5485
▁Britain	-5486
▁du	-5487
▁Pen	-5488
▁hole	-5489
▁lying	-5490
▁Second	-5491
yard	-5492
▁frag	-5493
▁Major	-5494
▁ideas	-5495
▁Spanish	-5496
▁balance	-5497
▁briefly	-5498
▁distant	-5499
▁civilization	-5500
▁Rub	-5501
ferred	-5502
▁sport	-5503
▁stumb	-5504
iro	-5505
▁gay	-5506
▁sin	-5507
▁Port	-5508
▁Krist	-5509
▁Young	-5510
▁beats	-5511
▁rushes	-5512
▁chooses	-5513
▁citizens	-5514
▁possibly	-5515
▁psychiat	-5516
mon	-5517
rial	-5518
ravag	-5519
urban	-5520
▁Conf	-5521
▁Shel	-5522
▁groom	-5523
▁answer	-5524
▁combat	-5525
▁insane	-5526
▁punish	-5527
▁managed	-5528
▁therefore	-5529
▁unsuccess	-5530
▁villagers	-5531
▁Sel	-5532
▁Cont	-5533
▁cand	-5534
▁artif	-5535
▁Miller	-5536
▁shadow	-5537
▁extravag	-5538
▁captivating	-5539
3,	-5540
ima	-5541
iple	-5542
ties	-5543
▁mine	-5544
▁Ralph	-5545
▁fiance	-5546
▁Jackson	-5547
▁recharge	-5548
▁Lieutenant	-5549
▁Ak	-5550
aunt	-5551
okes	-5552
▁Hay	-5553
▁Also	-5554
▁Anita	-5555
▁armed	-5556
▁furious	-5557
▁conclusion	-5558
hand	-5559
▁Aug	-5560
▁bes	-5561
isted	-5562
▁tricks	-5563
▁executed	-5564
ipe	-5565
▁12	-5566
ails	-5567
hest	-5568
▁Dem	-5569
▁nep	-5570
▁Bert	-5571
▁Jill	-5572
▁rules	-5573
▁invent	-5574
▁rejects	-5575
▁warning	-5576
▁pristine	-5577
paralleled	-5578
▁intention	-5579
▁confrontation	-5580
haps	-5581
olph	-5582
▁Bor	-5583
ronic	-5584
▁cure	-5585
ellect	-5586
▁Const	-5587
▁settle	-5588
▁socially	-5589
▁Christine	-5590
▁unparalleled	-5591
oms	-5592
▁wa	-5593
appy	-5594
iner	-5595
▁Att	-5596
▁cris	-5597
▁sort	-5598
▁wolf	-5599
▁crush	-5600
▁slaves	-5601
▁Private	-5602
▁Detective	-5603
▁Kath	-5604
▁tunn	-5605
▁round	-5606
ections	-5607
▁ensure	-5608
▁immers	-5609
▁illegal	-5610
▁landscape	-5611
▁Ty	-5612
▁Arm	-5613
woman	-5614
▁mask	-5615
▁roof	-5616
▁Clark	-5617
▁heavy	-5618
▁heavily	-5619
▁meticul	-5620
▁systems	-5621
.)	-5622
ras	-5623
inct	-5624
▁ecc	-5625
enger	-5626
▁Jedi	-5627
▁bill	-5628
▁champ	-5629
▁judge	-5630
▁crashes	-5631
▁prepare	-5632
▁Together	-5633
▁demonstr	-5634
▁providing	-5635
yo	-5636
▁Holl	-5637
▁begs	-5638
atural	-5639
itchen	-5640
▁adopt	-5641
▁forget	-5642
▁nephew	-5643
▁strate	-5644
▁Another	-5645
▁positive	-5646
oir	-5647
▁Ka	-5648
igan	-5649
▁Jord	-5650
▁dism	-5651
▁virt	-5652
▁wear	-5653
uality	-5654
▁chaos	-5655
▁nation	-5656
▁central	-5657
▁inspired	-5658
rad	-5659
▁Bri	-5660
▁Row	-5661
▁Fore	-5662
▁alleg	-5663
▁clues	-5664
▁legal	-5665
▁Castle	-5666
▁Johnson	-5667
▁commits	-5668
▁effects	-5669
▁contacts	-5670
▁descript	-5671
▁starting	-5672
gun	-5673
▁Li	-5674
▁egg	-5675
rence	-5676
▁Joan	-5677
▁pros	-5678
▁sear	-5679
▁twin	-5680
entric	-5681
▁serve	-5682
▁victory	-5683
▁newfound	-5684
▁promising	-5685
▁companions	-5686
▁accompanied	-5687
Ch	-5688
▁der	-5689
▁Carm	-5690
▁Gene	-5691
▁Swiss	-5692
▁Using	-5693
▁shock	-5694
▁acting	-5695
▁actress	-5696
ctors	-5697
▁Wild	-5698
▁remembers	-5699
▁residents	-5700
▁containing	-5701
▁engagement	-5702
ano	-5703
iday	-5704
look	-5705
stein	-5706
▁Daff	-5707
▁skin	-5708
▁text	-5709
▁diary	-5710
▁Barbara	-5711
▁burning	-5712
▁perspect	-5713
▁talented	-5714
▁advantage	-5715
▁impossible	-5716
opp	-5717
reet	-5718
rict	-5719
▁Viv	-5720
▁dealer	-5721
▁groups	-5722
▁movement	-5723
isy	-5724
cles	-5725
scar	-5726
uffy	-5727
▁Atl	-5728
antha	-5729
▁Romeo	-5730
▁minor	-5731
▁Darren	-5732
▁finish	-5733
▁treated	-5734
▁extensive	-5735
olds	-5736
unte	-5737
▁App	-5738
▁Ned	-5739
▁Dawn	-5740
▁gamb	-5741
▁fires	-5742
▁August	-5743
▁horror	-5744
▁loving	-5745
▁obsessed	-5746
ef	-5747
aled	-5748
▁Dec	-5749
▁cart	-5750
▁rend	-5751
▁demand	-5752
▁execut	-5753
▁Catholic	-5754
▁instruct	-5755
▁Hollywood	-5756
▁intellect	-5757
▁investment	-5758
▁threatening	-5759
asm	-5760
▁Lo	-5761
wise	-5762
ifying	-5763
▁below	-5764
▁oppos	-5765
▁route	-5766
onymous	-5767
▁satisf	-5768
▁fishing	-5769
▁reports	-5770
▁practice	-5771
▁presented	-5772
▁helicopter	-5773
hr	-5774
oto	-5775
berg	-5776
orney	-5777
▁Emma	-5778
▁Martha	-5779
▁allies	-5780
▁serial	-5781
▁accused	-5782
▁moments	-5783
▁strikes	-5784
▁teenager	-5785
▁sometimes	-5786
▁accessories	-5787
▁interrupted	-5788
pat	-5789
▁Guy	-5790
▁Pac	-5791
▁bit	-5792
▁sib	-5793
▁tax	-5794
isting	-5795
orious	-5796
▁Royal	-5797
▁green	-5798
▁north	-5799
▁sanct	-5800
▁Valent	-5801
▁demons	-5802
▁sitting	-5803
▁theater	-5804
▁magnetic	-5805
▁preparing	-5806
ito	-5807
▁Pam	-5808
▁blue	-5809
▁outs	-5810
▁Blake	-5811
▁overw	-5812
▁virus	-5813
▁granted	-5814
▁repeatedly	-5815
udd	-5816
▁Ali	-5817
▁Cole	-5818
▁Cons	-5819
▁Stev	-5820
▁feed	-5821
uctive	-5822
▁Jeremy	-5823
▁carries	-5824
▁catered	-5825
▁assassination	-5826
how	-5827
iah	-5828
yler	-5829
▁Res	-5830
▁drop	-5831
▁tape	-5832
▁Israel	-5833
▁afraid	-5834
▁frighten	-5835
▁mistress	-5836
▁challenge	-5837
do	-5838
usive	-5839
▁Buck	-5840
▁rail	-5841
▁doubt	-5842
▁Cassie	-5843
▁Sophie	-5844
▁torture	-5845
▁invested	-5846
▁resources	-5847
elve	-5848
▁cash	-5849
▁duty	-5850
▁rout	-5851
▁revel	-5852
▁speaks	-5853
▁display	-5854
▁focuses	-5855
▁eccentric	-5856
lie	-5857
▁Bat	-5858
▁Fox	-5859
otion	-5860
▁timep	-5861
▁curated	-5862
▁hanging	-5863
actic	-5864
▁Andy	-5865
▁Carr	-5866
▁Many	-5867
▁paint	-5868
▁throw	-5869
▁Samantha	-5870
▁greatest	-5871
▁philanthropist	-5872
imp	-5873
reg	-5874
hatt	-5875
▁Cad	-5876
▁lad	-5877
▁obl	-5878
▁Force	-5879
▁photos	-5880
▁reasons	-5881
▁friendly	-5882
▁religion	-5883
▁sentenced	-5884
▁circumstances	-5885
resh	-5886
star	-5887
ught	-5888
▁avid	-5889
▁nurs	-5890
▁coach	-5891
▁draws	-5892
▁bright	-5893
▁mercen	-5894
▁apprent	-5895
▁initial	-5896
▁commander	-5897
mir	-5898
osc	-5899
▁Lyn	-5900
▁Mus	-5901
▁Blue	-5902
▁Lion	-5903
▁edge	-5904
▁lush	-5905
▁indeed	-5906
▁select	-5907
▁carried	-5908
▁terrorist	-5909
bit	-5910
▁Hong	-5911
▁traum	-5912
mission	-5913
▁accuses	-5914
▁disguise	-5915
▁occasion	-5916
▁Americans	-5917
▁--	-5918
reme	-5919
uces	-5920
▁Cre	-5921
▁Sur	-5922
icked	-5923
▁Corn	-5924
▁Coun	-5925
▁legs	-5926
attered	-5927
▁supern	-5928
▁contest	-5929
▁volunte	-5930
▁elements	-5931
▁Av	-5932
uated	-5933
▁trop	-5934
▁Imper	-5935
▁sabot	-5936
▁poring	-5937
▁attempted	-5938
▁originally	-5939
inic	-5940
asted	-5941
▁Pete	-5942
▁Night	-5943
▁manner	-5944
▁owners	-5945
▁convent	-5946
▁isolated	-5947
▁prominent	-5948
▁impressive	-5949
▁responsibility	-5950
wal	-5951
▁rej	-5952
▁sem	-5953
▁intrig	-5954
▁considers	-5955
▁...	-5956
▁Four	-5957
▁Oliv	-5958
▁Lewis	-5959
▁raped	-5960
▁issues	-5961
▁justice	-5962
▁lessons	-5963
▁superior	-5964
▁construction	-5965
▁Suz	-5966
▁fab	-5967
▁Zach	-5968
▁agre	-5969
▁anti	-5970
▁cuis	-5971
▁goal	-5972
▁prob	-5973
urance	-5974
▁Wendy	-5975
▁races	-5976
▁Silver	-5977
▁gentle	-5978
▁crystal	-5979
▁kitchen	-5980
▁bustling	-5981
▁recovers	-5982
▁Gary	-5983
▁jung	-5984
▁trio	-5985
▁honor	-5986
▁venge	-5987
▁Manhatt	-5988
▁charges	-5989
▁partners	-5990
▁penchant	-5991
▁assistance	-5992
club	-5993
hens	-5994
▁Sin	-5995
▁Dean	-5996
▁Dere	-5997
▁fier	-5998
▁righ	-5999
▁unit	-6000
▁chair	-6001
▁gains	-6002
▁schol	-6003
▁veter	-6004
working	-6005
▁actual	-6006
▁exactly	-6007
▁teaches	-6008
▁suspicion	-6009
iy	-6010
isha	-6011
▁Men	-6012
amber	-6013
▁Chap	-6014
▁Chand	-6015
▁Mason	-6016
▁trips	-6017
▁upper	-6018
▁Wilson	-6019
▁struct	-6020
▁selling	-6021
▁winning	-6022
Th	-6023
bid	-6024
tim	-6025
▁14	-6026
▁avail	-6027
▁spots	-6028
▁thief	-6029
▁mirror	-6030
▁creates	-6031
▁devoted	-6032
▁ambition	-6033
▁defeated	-6034
▁criminals	-6035
▁designers	-6036
▁Eva	-6037
▁Hit	-6038
apers	-6039
elson	-6040
angers	-6041
▁Daffy	-6042
▁defeats	-6043
▁putting	-6044
▁warrior	-6045
▁interrog	-6046
▁Manhattan	-6047
erc	-6048
▁Dut	-6049
▁Tak	-6050
▁lap	-6051
▁cann	-6052
▁fool	-6053
▁Logan	-6054
▁south	-6055
▁Walker	-6056
▁circle	-6057
▁pastime	-6058
▁pursues	-6059
▁infected	-6060
osh	-6061
ador	-6062
▁Doc	-6063
▁Ric	-6064
▁rage	-6065
erning	-6066
▁Dennis	-6067
▁Harold	-6068
▁climax	-6069
▁emotion	-6070
▁obvious	-6071
▁informed	-6072
▁multiple	-6073
▁offering	-6074
zie	-6075
drop	-6076
▁pul	-6077
▁sky	-6078
leton	-6079
▁brill	-6080
▁werew	-6081
▁choose	-6082
▁ritual	-6083
▁Melissa	-6084
▁ensuing	-6085
▁acquaint	-6086
▁designed	-6087
▁showcase	-6088
▁concerned	-6089
▁discerning	-6090
fe	-6091
▁Bu	-6092
▁Som	-6093
▁Tiff	-6094
▁Super	-6095
▁bottle	-6096
▁corpor	-6097
▁houses	-6098
uzz	-6099
gett	-6100
▁Lake	-6101
iments	-6102
orthern	-6103
▁fiction	-6104
▁arranges	-6105
▁nightclub	-6106
▁journalist	-6107
iko	-6108
bell	-6109
gers	-6110
▁buys	-6111
▁Diane	-6112
▁sides	-6113
▁Oliver	-6114
▁emerges	-6115
▁consciousness	-6116
▁pit	-6117
▁fuel	-6118
▁merely	-6119
▁Russell	-6120
▁portray	-6121
▁supplies	-6122
▁significant	-6123
lim	-6124
ints	-6125
▁Ale	-6126
▁Time	-6127
▁rose	-6128
▁medic	-6129
▁value	-6130
▁wheel	-6131
▁competition	-6132
which	-6133
▁feet	-6134
▁rain	-6135
▁secl	-6136
▁chest	-6137
▁amount	-6138
▁larger	-6139
▁beneath	-6140
▁cuisine	-6141
▁overcome	-6142
▁scientific	-6143
oker	-6144
▁Cir	-6145
▁Kam	-6146
icken	-6147
▁Curt	-6148
▁Hist	-6149
▁fish	-6150
keeper	-6151
▁Craig	-6152
▁damage	-6153
▁models	-6154
▁Leonard	-6155
▁conduct	-6156
▁persuade	-6157
▁tropical	-6158
▁centuries	-6159
▁reconcile	-6160
▁protection	-6161
")	-6162
rim	-6163
▁Tok	-6164
▁ruth	-6165
▁Texas	-6166
▁month	-6167
▁tower	-6168
▁senior	-6169
▁eagerly	-6170
▁shoulders	-6171
▁academically	-6172
fast	-6173
itan	-6174
▁Seb	-6175
▁hab	-6176
▁Drac	-6177
▁Neil	-6178
▁lord	-6179
▁homes	-6180
▁mouth	-6181
▁Mother	-6182
▁territ	-6183
▁Dorothy	-6184
▁battles	-6185
▁choices	-6186
▁foreign	-6187
▁reporter	-6188
ira	-6189
▁aim	-6190
▁bom	-6191
ulate	-6192
▁Arab	-6193
▁Kenn	-6194
▁copy	-6195
▁elim	-6196
▁Griff	-6197
▁Irish	-6198
▁Oscar	-6199
▁curse	-6200
▁Kimber	-6201
▁Secret	-6202
▁bitter	-6203
▁kisses	-6204
▁wonder	-6205
▁Jeffrey	-6206
▁assumes	-6207
azz	-6208
ees	-6209
acle	-6210
gged	-6211
▁Hub	-6212
opean	-6213
▁Fair	-6214
▁Pear	-6215
▁Pier	-6216
▁elev	-6217
▁Greek	-6218
▁broad	-6219
▁address	-6220
▁perhaps	-6221
▁distance	-6222
▁struggling	-6223
enna	-6224
▁Inf	-6225
ishop	-6226
ponse	-6227
▁Anim	-6228
▁Conn	-6229
▁Baron	-6230
▁likes	-6231
▁ranch	-6232
▁overhears	-6233
▁sanctuary	-6234
▁conditions	-6235
▁Wy	-6236
case	-6237
quar	-6238
▁Dex	-6239
▁Joy	-6240
▁gem	-6241
▁Bart	-6242
▁shap	-6243
▁decor	-6244
▁Freddy	-6245
▁temple	-6246
▁resistance	-6247
ero	-6248
▁Most	-6249
▁luck	-6250
▁Derek	-6251
▁Georg	-6252
▁films	-6253
▁humil	-6254
▁restored	-6255
gery	-6256
resp	-6257
▁Horn	-6258
▁pages	-6259
▁lights	-6260
▁occurs	-6261
▁Tiffany	-6262
▁quality	-6263
▁bathroom	-6264
▁progress	-6265
▁response	-6266
▁survival	-6267
▁transformed	-6268
auc	-6269
icia	-6270
▁map	-6271
▁blow	-6272
▁Shadow	-6273
▁kidnap	-6274
▁looked	-6275
▁reward	-6276
▁included	-6277
▁vacations	-6278
▁perspective	-6279
inda	-6280
rich	-6281
▁Cry	-6282
▁Vik	-6283
olves	-6284
▁YouT	-6285
▁explo	-6286
rifying	-6287
▁Jordan	-6288
▁dating	-6289
▁advances	-6290
▁aircraft	-6291
▁betrayed	-6292
dest	-6293
rell	-6294
▁Fur	-6295
oston	-6296
▁Cher	-6297
▁Navy	-6298
ateful	-6299
▁Daisy	-6300
▁negot	-6301
▁likely	-6302
▁worker	-6303
▁evident	-6304
▁pirates	-6305
▁disguised	-6306
but	-6307
see	-6308
vis	-6309
hess	-6310
ribe	-6311
▁Mah	-6312
▁voy	-6313
owned	-6314
▁Bent	-6315
▁Sylv	-6316
▁seam	-6317
▁flood	-6318
▁instr	-6319
▁rides	-6320
▁circus	-6321
▁therap	-6322
▁wanting	-6323
▁deceased	-6324
▁throwing	-6325
▁ancestors	-6326
▁encourages	-6327
▁professionals	-6328
enth	-6329
▁Lam	-6330
▁Sid	-6331
▁joy	-6332
point	-6333
▁Gray	-6334
▁Karl	-6335
▁page	-6336
urning	-6337
▁walls	-6338
▁captive	-6339
▁sustain	-6340
▁Kimberly	-6341
▁creations	-6342
▁supposedly	-6343
▁13	-6344
▁Ko	-6345
book	-6346
▁Apr	-6347
▁Tan	-6348
▁Tra	-6349
▁showed	-6350
▁siblings	-6351
▁straight	-6352
▁accomplish	-6353
arsh	-6354
▁Shaw	-6355
▁myth	-6356
▁games	-6357
▁eating	-6358
▁Raymond	-6359
▁courage	-6360
▁haunted	-6361
▁minutes	-6362
▁national	-6363
▁seriously	-6364
▁Sab	-6365
▁fif	-6366
▁dwar	-6367
▁theme	-6368
▁Marian	-6369
▁crisis	-6370
▁remark	-6371
▁drunken	-6372
▁martial	-6373
▁players	-6374
▁backdrop	-6375
▁sexually	-6376
▁ultimate	-6377
▁necessary	-6378
▁residence	-6379
▁intelligent	-6380
ache	-6381
erie	-6382
icts	-6383
▁Dra	-6384
▁Jen	-6385
▁jump	-6386
ington	-6387
master	-6388
▁chased	-6389
▁escort	-6390
▁teaching	-6391
▁meanwhile	-6392
▁kidnapping	-6393
▁consequences	-6394
▁Fle	-6395
▁rif	-6396
fight	-6397
uther	-6398
▁Clay	-6399
▁coin	-6400
▁debt	-6401
▁ended	-6402
▁speed	-6403
▁transl	-6404
▁YouTube	-6405
▁deliber	-6406
▁entertain	-6407
▁collecting	-6408
▁flourished	-6409
tle	-6410
una	-6411
▁Kit	-6412
▁Ten	-6413
umber	-6414
▁April	-6415
▁noble	-6416
▁rural	-6417
ography	-6418
▁Berlin	-6419
▁screen	-6420
▁theory	-6421
▁readers	-6422
▁mistaken	-6423
5,	-6424
mo	-6425
oku	-6426
girl	-6427
roat	-6428
▁Acc	-6429
eling	-6430
▁Hank	-6431
▁cats	-6432
▁genu	-6433
▁Boston	-6434
▁lonely	-6435
▁propos	-6436
▁defense	-6437
▁doctors	-6438
▁library	-6439
▁secretary	-6440
▁Ap	-6441
fire	-6442
road	-6443
▁Guard	-6444
▁sneak	-6445
▁trigg	-6446
▁abduct	-6447
▁argues	-6448
▁dancing	-6449
▁patient	-6450
aron	-6451
▁Ross	-6452
umably	-6453
▁embod	-6454
▁refuse	-6455
▁attends	-6456
▁capable	-6457
▁possessed	-6458
0,	-6459
ye	-6460
foot	-6461
▁ski	-6462
icing	-6463
▁Ivan	-6464
▁Kong	-6465
idance	-6466
▁Lucas	-6467
▁Storm	-6468
▁ruins	-6469
▁solid	-6470
▁Russia	-6471
▁critic	-6472
▁secure	-6473
▁Wallace	-6474
▁retired	-6475
▁threatened	-6476
gas	-6477
▁Sav	-6478
water	-6479
▁dram	-6480
▁pian	-6481
raught	-6482
▁Cross	-6483
▁immort	-6484
enthouse	-6485
▁matters	-6486
▁objects	-6487
▁destined	-6488
▁seductive	-6489
▁subsequent	-6490
wing	-6491
▁Ari	-6492
▁Hum	-6493
▁Sad	-6494
iring	-6495
▁Maur	-6496
▁tank	-6497
▁Patric	-6498
▁Sandra	-6499
ographer	-6500
▁desires	-6501
▁edition	-6502
▁grounds	-6503
▁leadership	-6504
ati	-6505
▁Ern	-6506
eries	-6507
▁frees	-6508
▁bullet	-6509
▁burned	-6510
▁episode	-6511
▁supernatural	-6512
don	-6513
▁Mid	-6514
guard	-6515
oking	-6516
▁vess	-6517
▁vows	-6518
▁abuse	-6519
▁Justin	-6520
▁cancer	-6521
▁Frances	-6522
▁Kingdom	-6523
▁weekend	-6524
▁European	-6525
▁overwhel	-6526
▁searches	-6527
▁Katherine	-6528
▁enthusiasts	-6529
aya	-6530
▁Od	-6531
▁Las	-6532
inist	-6533
orned	-6534
ourne	-6535
▁Ethan	-6536
▁Polly	-6537
▁signs	-6538
▁subst	-6539
▁Jackie	-6540
▁League	-6541
▁mostly	-6542
▁perman	-6543
▁remove	-6544
quarters	-6545
▁neither	-6546
arre	-6547
▁Cas	-6548
▁Kal	-6549
▁ran	-6550
estrian	-6551
▁Intern	-6552
▁Louise	-6553
▁Florida	-6554
▁Imperial	-6555
▁Scotland	-6556
▁advanced	-6557
▁Christina	-6558
▁neighbors	-6559
▁approached	-6560
oop	-6561
▁21	-6562
▁asp	-6563
▁nor	-6564
iplom	-6565
▁risk	-6566
▁scar	-6567
▁dealing	-6568
▁earning	-6569
▁Caroline	-6570
▁directly	-6571
▁ambitious	-6572
▁happiness	-6573
▁attraction	-6574
va	-6575
iot	-6576
mit	-6577
▁Lu	-6578
▁fo	-6579
pson	-6580
▁Lil	-6581
grily	-6582
oland	-6583
▁Girl	-6584
▁Kent	-6585
▁Grant	-6586
▁Keith	-6587
▁Tyler	-6588
▁actor	-6589
▁aspir	-6590
▁wrote	-6591
▁Battle	-6592
▁locate	-6593
▁angrily	-6594
▁finance	-6595
▁ensuring	-6596
▁entirely	-6597
▁marrying	-6598
▁severely	-6599
▁tortured	-6600
▁explaining	-6601
umn	-6602
uts	-6603
mark	-6604
▁Nob	-6605
▁flo	-6606
iture	-6607
phone	-6608
▁dont	-6609
▁afford	-6610
▁cities	-6611
▁infant	-6612
▁serves	-6613
▁divided	-6614
▁replies	-6615
▁paradise	-6616
▁primarily	-6617
▁Afterwards	-6618
erk	-6619
▁Om	-6620
edly	-6621
oria	-6622
▁Ban	-6623
anner	-6624
▁Tess	-6625
▁clan	-6626
ranged	-6627
▁begun	-6628
▁diver	-6629
▁minds	-6630
artment	-6631
▁studio	-6632
▁fitness	-6633
▁guidance	-6634
▁frustrated	-6635
▁timepieces	-6636
▁experienced	-6637
',	-6638
▁Lat	-6639
▁McG	-6640
opper	-6641
ermans	-6642
ottage	-6643
▁Tracy	-6644
▁bests	-6645
▁grief	-6646
▁stuck	-6647
▁Floren	-6648
▁beings	-6649
▁Heather	-6650
▁Williams	-6651
▁explores	-6652
▁ruthless	-6653
▁services	-6654
▁extravagant	-6655
7,	-6656
wart	-6657
▁Bas	-6658
▁Cab	-6659
▁nin	-6660
▁tied	-6661
▁miles	-6662
▁rapid	-6663
▁implic	-6664
▁Lawrence	-6665
▁opulence	-6666
▁patients	-6667
fl	-6668
▁Whe	-6669
▁anal	-6670
▁gods	-6671
▁hell	-6672
▁pays	-6673
▁rans	-6674
▁user	-6675
▁split	-6676
▁strand	-6677
▁knocked	-6678
▁insights	-6679
▁politics	-6680
▁stronger	-6681
▁troubled	-6682
▁attractive	-6683
▁physically	-6684
▁terrorists	-6685
▁unexpectedly	-6686
▁international	-6687
▁Il	-6688
etta	-6689
iper	-6690
▁bab	-6691
▁von	-6692
inson	-6693
▁code	-6694
▁Adams	-6695
▁benef	-6696
▁Dexter	-6697
▁agency	-6698
▁silver	-6699
▁traged	-6700
▁meantime	-6701
▁interests	-6702
▁otherwise	-6703
▁hob	-6704
aming	-6705
▁Case	-6706
asures	-6707
▁Donna	-6708
▁State	-6709
▁guest	-6710
▁robot	-6711
▁wreck	-6712
ificial	-6713
▁serene	-6714
▁delight	-6715
▁specific	-6716
▁thousand	-6717
▁collapses	-6718
▁expresses	-6719
▁literature	-6720
&#3	-6721
tar	-6722
alie	-6723
▁Fitz	-6724
▁wake	-6725
▁Marco	-6726
▁fresh	-6727
▁trait	-6728
▁closes	-6729
▁wizard	-6730
▁Bernard	-6731
▁Vietnam	-6732
▁Western	-6733
▁warriors	-6734
▁11	-6735
▁Fa	-6736
▁ec	-6737
▁See	-6738
aders	-6739
lands	-6740
▁Snow	-6741
▁motel	-6742
▁serving	-6743
▁explodes	-6744
▁henchmen	-6745
▁Realizing	-6746
▁alcoholic	-6747
'.	-6748
force	-6749
▁Finn	-6750
▁disg	-6751
▁sand	-6752
▁Times	-6753
▁blame	-6754
▁neckl	-6755
▁niece	-6756
▁sales	-6757
▁Leslie	-6758
▁brutally	-6759
▁electric	-6760
▁suffered	-6761
ethe	-6762
▁Drag	-6763
▁rein	-6764
▁Tiger	-6765
▁shoes	-6766
▁fantasy	-6767
▁zombies	-6768
▁Danielle	-6769
▁captures	-6770
▁estranged	-6771
▁complicated	-6772
ulf	-6773
uate	-6774
usty	-6775
▁bow	-6776
asant	-6777
▁Barn	-6778
▁leng	-6779
▁pock	-6780
▁Stark	-6781
▁caret	-6782
▁hates	-6783
▁withd	-6784
▁Hitler	-6785
▁Parker	-6786
▁detect	-6787
▁skilled	-6788
▁injuries	-6789
▁pretends	-6790
▁secluded	-6791
▁encouraged	-6792
▁production	-6793
▁communicate	-6794
urbs	-6795
▁Hon	-6796
▁Juan	-6797
▁evac	-6798
irloom	-6799
▁Colin	-6800
▁Light	-6801
▁Saint	-6802
▁launch	-6803
▁obtain	-6804
▁Gabriel	-6805
▁records	-6806
▁responds	-6807
▁stumbles	-6808
▁alternate	-6809
▁receiving	-6810
▁assignment	-6811
amm	-6812
▁Sa	-6813
ikes	-6814
sely	-6815
▁Bay	-6816
▁Han	-6817
▁Earl	-6818
▁Kore	-6819
▁inspect	-6820
▁undercover	-6821
ban	-6822
▁Az	-6823
Clan	-6824
pers	-6825
rise	-6826
▁ing	-6827
▁Benj	-6828
▁Percy	-6829
▁resur	-6830
▁unfor	-6831
ception	-6832
▁explan	-6833
▁jungle	-6834
▁retire	-6835
▁mistake	-6836
▁affection	-6837
4,	-6838
oli	-6839
occh	-6840
estic	-6841
▁Coll	-6842
▁Whit	-6843
▁singer	-6844
▁kidnaps	-6845
▁youngest	-6846
▁Australia	-6847
▁attacking	-6848
▁respected	-6849
9,	-6850
▁Kr	-6851
▁Ky	-6852
▁Ta	-6853
denly	-6854
racts	-6855
▁inex	-6856
▁nine	-6857
▁Cliff	-6858
▁alike	-6859
▁Commun	-6860
▁Holmes	-6861
▁picked	-6862
▁Central	-6863
▁embrace	-6864
▁vicious	-6865
▁shopping	-6866
say	-6867
oves	-6868
oting	-6869
▁rabb	-6870
▁sits	-6871
▁Wolfe	-6872
▁immig	-6873
▁conver	-6874
▁drinks	-6875
▁fourth	-6876
▁heroes	-6877
▁twelve	-6878
▁Council	-6879
▁drawing	-6880
▁instantly	-6881
▁photographs	-6882
▁Lin	-6883
▁Syd	-6884
▁Ford	-6885
▁Love	-6886
▁isnt	-6887
▁nerv	-6888
▁abort	-6889
▁motiv	-6890
▁halluc	-6891
▁sorcer	-6892
▁passage	-6893
▁conspiracy	-6894
agu	-6895
▁Cy	-6896
▁Str	-6897
▁dad	-6898
▁easy	-6899
▁iron	-6900
▁items	-6901
▁loose	-6902
▁Hunter	-6903
▁goodby	-6904
▁safely	-6905
▁dollars	-6906
▁restore	-6907
▁extraord	-6908
run	-6909
▁Gro	-6910
ellow	-6911
rants	-6912
rities	-6913
▁incor	-6914
▁temper	-6915
▁whilst	-6916
▁covered	-6917
▁illustr	-6918
▁worried	-6919
▁attorney	-6920
▁ge	-6921
iser	-6922
hered	-6923
lects	-6924
▁Gall	-6925
▁Well	-6926
▁prem	-6927
astern	-6928
ilogue	-6929
ulates	-6930
▁Betty	-6931
▁artic	-6932
▁resign	-6933
▁groomed	-6934
▁equipment	-6935
▁recovering	-6936
▁mysteriously	-6937
▁25	-6938
▁Zo	-6939
▁Ivy	-6940
▁celeb	-6941
▁price	-6942
▁Sebast	-6943
▁ghosts	-6944
▁iconic	-6945
▁mingle	-6946
▁Mexican	-6947
▁absence	-6948
▁nestled	-6949
▁talents	-6950
▁handsome	-6951
▁promised	-6952
▁construct	-6953
▁Vi	-6954
fall	-6955
▁Bos	-6956
▁Cyn	-6957
▁Pic	-6958
▁isn	-6959
ester	-6960
etown	-6961
▁Gret	-6962
▁Scar	-6963
▁torn	-6964
▁Blood	-6965
▁ideal	-6966
▁naked	-6967
▁villa	-6968
▁necklace	-6969
▁celebrities	-6970
▁headquarters	-6971
6,	-6972
sen	-6973
town	-6974
▁Rip	-6975
▁Sak	-6976
▁Sky	-6977
going	-6978
▁Grey	-6979
▁inad	-6980
▁ties	-6981
ielding	-6982
▁prophe	-6983
▁refers	-6984
▁dreaming	-6985
▁grateful	-6986
▁heirloom	-6987
▁mentioned	-6988
zz	-6989
cut	-6990
gal	-6991
▁Ze	-6992
amin	-6993
know	-6994
▁Erik	-6995
▁Wind	-6996
▁pist	-6997
ipping	-6998
izarre	-6999
▁clubs	-7000
▁photo	-7001
▁Peters	-7002
▁antique	-7003
▁landing	-7004
▁medicine	-7005
▁brilliant	-7006
▁colleague	-7007
▁penthouse	-7008
bie	-7009
owe	-7010
▁30	-7011
esar	-7012
▁McL	-7013
▁fed	-7014
▁barn	-7015
▁skyl	-7016
▁Clara	-7017
▁await	-7018
▁Sheriff	-7019
▁related	-7020
▁wonders	-7021
▁confused	-7022
▁celebrate	-7023
icip	-7024
▁Bun	-7025
▁Mass	-7026
encing	-7027
▁fatal	-7028
▁stole	-7029
▁bought	-7030
▁voyage	-7031
▁Suddenly	-7032
▁arranged	-7033
▁recognize	-7034
▁contemporary	-7035
ece	-7036
▁Cel	-7037
▁cov	-7038
▁shy	-7039
▁Gard	-7040
▁aest	-7041
▁hill	-7042
erness	-7043
▁Claud	-7044
▁mouse	-7045
▁theft	-7046
▁wines	-7047
▁embarr	-7048
▁gardens	-7049
▁techniques	-7050
ucks	-7051
▁Mak	-7052
ector	-7053
maker	-7054
▁vine	-7055
ifteen	-7056
▁Tower	-7057
▁manor	-7058
▁total	-7059
▁sevent	-7060
▁strict	-7061
▁supply	-7062
▁limited	-7063
▁Florence	-7064
▁darkness	-7065
▁sentence	-7066
▁inherited	-7067
bsp	-7068
erve	-7069
nbsp	-7070
▁Die	-7071
▁Dol	-7072
▁Yet	-7073
▁agg	-7074
▁Chan	-7075
atever	-7076
▁urges	-7077
▁Brenda	-7078
▁incred	-7079
▁seduce	-7080
▁spread	-7081
▁Germans	-7082
▁bizarre	-7083
▁tragedy	-7084
▁inadvert	-7085
▁presumably	-7086
▁desperately	-7087
cks	-7088
ota	-7089
avan	-7090
eddy	-7091
oyle	-7092
▁Sea	-7093
▁Sue	-7094
▁cig	-7095
▁syn	-7096
▁outf	-7097
▁deton	-7098
▁fairy	-7099
▁winem	-7100
▁Winter	-7101
▁plants	-7102
▁Several	-7103
▁Stevens	-7104
▁paralle	-7105
▁primary	-7106
▁rebellion	-7107
▁wealthiest	-7108
gue	-7109
▁Ah	-7110
omen	-7111
▁Int	-7112
▁Chlo	-7113
▁adapt	-7114
▁arist	-7115
▁burst	-7116
▁divor	-7117
▁Pinocch	-7118
▁creation	-7119
▁featured	-7120
▁exceptional	-7121
axy	-7122
▁Na	-7123
riet	-7124
with	-7125
▁Spec	-7126
▁rush	-7127
▁Katie	-7128
aborate	-7129
▁denies	-7130
▁hunter	-7131
▁spring	-7132
▁spirits	-7133
▁frequent	-7134
▁magazines	-7135
amic	-7136
burg	-7137
▁guy	-7138
never	-7139
▁Hugh	-7140
▁Mosc	-7141
estern	-7142
▁Enter	-7143
▁Years	-7144
▁Govern	-7145
▁editor	-7146
▁Timothy	-7147
▁holiday	-7148
▁somehow	-7149
▁delivers	-7150
▁ordinary	-7151
▁furniture	-7152
▁policeman	-7153
▁Dal	-7154
▁Stu	-7155
▁era	-7156
▁mal	-7157
▁Dead	-7158
▁Fort	-7159
▁Kathy	-7160
▁frame	-7161
▁ambush	-7162
▁covers	-7163
ibilities	-7164
▁engaging	-7165
▁legendary	-7166
▁territory	-7167
bal	-7168
ibb	-7169
osex	-7170
ripp	-7171
▁Bow	-7172
▁tut	-7173
▁react	-7174
▁sharp	-7175
▁consum	-7176
▁honest	-7177
▁mentor	-7178
entially	-7179
▁Stanley	-7180
▁cottage	-7181
▁departs	-7182
▁masterp	-7183
▁hometown	-7184
▁mentally	-7185
▁mentions	-7186
▁devastated	-7187
▁Bry	-7188
▁Wat	-7189
asket	-7190
ested	-7191
▁Goku	-7192
isions	-7193
▁Admir	-7194
▁faced	-7195
▁poise	-7196
▁Sharpe	-7197
▁opened	-7198
▁disturb	-7199
▁National	-7200
▁requests	-7201
▁revolves	-7202
▁Pinocchio	-7203
▁suspected	-7204
▁punishment	-7205
II	-7206
ums	-7207
aying	-7208
▁Dire	-7209
▁Serv	-7210
▁fled	-7211
Americ	-7212
▁Sandy	-7213
▁metal	-7214
▁intense	-7215
▁veteran	-7216
▁Sergeant	-7217
▁replaced	-7218
▁insurance	-7219
▁socialite	-7220
▁unforgett	-7221
▁performing	-7222
▁recognized	-7223
▁imagination	-7224
awa	-7225
mare	-7226
▁191	-7227
▁Town	-7228
▁bold	-7229
erence	-7230
▁Amber	-7231
▁burns	-7232
▁color	-7233
▁stock	-7234
▁Madame	-7235
▁Moscow	-7236
▁bottom	-7237
▁unless	-7238
▁unhappy	-7239
▁aristocr	-7240
▁disaster	-7241
▁releases	-7242
▁survivor	-7243
▁caretaker	-7244
▁happening	-7245
▁unforgettable	-7246
An	-7247
aka	-7248
aro	-7249
tra	-7250
lets	-7251
usal	-7252
▁coc	-7253
▁cases	-7254
▁scout	-7255
▁Stella	-7256
▁Street	-7257
▁pushes	-7258
▁boasted	-7259
▁favored	-7260
▁greater	-7261
▁according	-7262
obi	-7263
▁Di	-7264
just	-7265
owed	-7266
thia	-7267
▁192	-7268
▁Haz	-7269
▁Kum	-7270
▁Sub	-7271
▁Urs	-7272
▁dyn	-7273
▁Cord	-7274
▁Kings	-7275
▁annoy	-7276
▁diplom	-7277
▁adorned	-7278
▁beating	-7279
▁centers	-7280
▁correct	-7281
▁damaged	-7282
▁graceful	-7283
▁impressed	-7284
▁developing	-7285
orky	-7286
▁Dur	-7287
▁Ian	-7288
▁Met	-7289
agger	-7290
▁June	-7291
▁Pers	-7292
▁Civil	-7293
▁locks	-7294
▁usual	-7295
▁Murphy	-7296
▁decades	-7297
▁express	-7298
▁focused	-7299
▁suburbs	-7300
▁torment	-7301
▁unnamed	-7302
▁nightlife	-7303
▁suspicions	-7304
oh	-7305
▁Su	-7306
lege	-7307
oken	-7308
▁100	-7309
anche	-7310
armed	-7311
etime	-7312
▁Nina	-7313
▁size	-7314
▁Veron	-7315
▁opera	-7316
▁Duncan	-7317
▁solace	-7318
▁Gilbert	-7319
▁contain	-7320
▁entered	-7321
▁Patricia	-7322
▁antiques	-7323
▁whatever	-7324
▁infiltrate	-7325
▁independent	-7326
aga	-7327
ayer	-7328
ilda	-7329
▁Mia	-7330
▁Vel	-7331
▁caf	-7332
▁Ring	-7333
▁whis	-7334
bidden	-7335
▁thugs	-7336
ensions	-7337
▁garage	-7338
▁prized	-7339
▁husbands	-7340
▁prepared	-7341
▁upstairs	-7342
▁regularly	-7343
▁ow	-7344
anqu	-7345
osis	-7346
▁Six	-7347
▁pig	-7348
▁une	-7349
▁Rain	-7350
▁chem	-7351
▁cruc	-7352
▁lock	-7353
▁irres	-7354
▁stick	-7355
▁struck	-7356
▁Company	-7357
▁alliance	-7358
▁monsters	-7359
bek	-7360
net	-7361
▁50	-7362
▁Arn	-7363
▁Els	-7364
itute	-7365
▁Child	-7366
▁bears	-7367
▁theat	-7368
▁today	-7369
▁Isabel	-7370
▁Juliet	-7371
▁rebels	-7372
▁aspects	-7373
▁surgery	-7374
▁charming	-7375
▁neighbour	-7376
▁officials	-7377
▁somewhere	-7378
acc	-7379
orp	-7380
▁sy	-7381
boat	-7382
rays	-7383
acked	-7384
▁Hend	-7385
▁Life	-7386
▁calm	-7387
▁exha	-7388
▁Aaron	-7389
▁Davis	-7390
▁Still	-7391
▁Tokyo	-7392
▁realm	-7393
▁Harris	-7394
▁Admiral	-7395
▁artists	-7396
▁clearly	-7397
▁digital	-7398
▁healthy	-7399
▁sailing	-7400
▁depressed	-7401
▁protecting	-7402
▁wilderness	-7403
▁extraordinary	-7404
▁inadvertently	-7405
jo	-7406
bar	-7407
init	-7408
irts	-7409
rant	-7410
front	-7411
iolet	-7412
▁Brun	-7413
▁Hart	-7414
▁Dutch	-7415
▁Kitty	-7416
▁Marty	-7417
▁diner	-7418
▁Malcol	-7419
▁People	-7420
▁bloody	-7421
▁dining	-7422
▁infect	-7423
▁skyline	-7424
▁entering	-7425
▁purchase	-7426
▁treacher	-7427
▁innocence	-7428
▁vengeance	-7429
▁occupation	-7430
hell	-7431
seen	-7432
▁Act	-7433
▁Mod	-7434
▁fro	-7435
iders	-7436
orphs	-7437
▁Olivia	-7438
▁Unable	-7439
▁Willie	-7440
▁candid	-7441
▁rights	-7442
▁rising	-7443
▁ruined	-7444
▁Garrett	-7445
▁abusive	-7446
▁credits	-7447
▁reminds	-7448
▁trained	-7449
▁visions	-7450
▁culinary	-7451
▁alongside	-7452
▁enchanting	-7453
▁equestrian	-7454
▁investigates	-7455
▁transportation	-7456
lock	-7457
▁lib	-7458
▁Todd	-7459
▁Santa	-7460
▁Thorn	-7461
▁ransom	-7462
▁slight	-7463
▁affairs	-7464
▁comment	-7465
▁removed	-7466
▁required	-7467
▁admiration	-7468
pro	-7469
▁Op	-7470
anor	-7471
glas	-7472
iona	-7473
▁End	-7474
annon	-7475
oving	-7476
▁Free	-7477
▁Joey	-7478
▁Pink	-7479
▁curs	-7480
▁pref	-7481
▁tent	-7482
▁panic	-7483
▁rooms	-7484
▁Roland	-7485
▁allure	-7486
▁submar	-7487
▁Ireland	-7488
▁nervous	-7489
▁employee	-7490
▁interven	-7491
▁servants	-7492
▁speaking	-7493
▁customized	-7494
▁transported	-7495
8,	-7496
agg	-7497
osm	-7498
▁Mu	-7499
dess	-7500
iami	-7501
lord	-7502
▁Cob	-7503
▁Cur	-7504
▁prev	-7505
▁facing	-7506
▁Vanessa	-7507
▁advance	-7508
▁advises	-7509
▁genuine	-7510
▁largely	-7511
▁epilogue	-7512
▁familiar	-7513
▁literary	-7514
▁pursuing	-7515
▁obsession	-7516
▁biological	-7517
▁Gw	-7518
rons	-7519
▁bat	-7520
▁sess	-7521
▁sket	-7522
ranean	-7523
▁Rocky	-7524
▁cards	-7525
▁shore	-7526
▁waits	-7527
▁pulled	-7528
▁automob	-7529
▁enraged	-7530
▁refused	-7531
▁scandal	-7532
▁declines	-7533
▁determine	-7534
▁murdering	-7535
▁spiritual	-7536
cat	-7537
▁Ly	-7538
rust	-7539
anging	-7540
atched	-7541
▁Among	-7542
▁lower	-7543
▁Ernest	-7544
▁acknow	-7545
▁massac	-7546
▁portra	-7547
▁tempor	-7548
▁adventur	-7549
eler	-7550
gent	-7551
acker	-7552
gency	-7553
▁Beat	-7554
arship	-7555
▁inval	-7556
▁Alfred	-7557
▁global	-7558
▁concert	-7559
▁goodbye	-7560
▁irresist	-7561
▁poisoned	-7562
▁recounts	-7563
bel	-7564
izz	-7565
afia	-7566
▁III	-7567
▁Poo	-7568
▁Pot	-7569
▁Wor	-7570
akers	-7571
▁Mack	-7572
▁touc	-7573
▁Ghost	-7574
▁enorm	-7575
▁inner	-7576
▁teams	-7577
▁Connie	-7578
▁Things	-7579
▁advert	-7580
daughter	-7581
▁fleeing	-7582
▁footage	-7583
▁baseball	-7584
▁betrayal	-7585
▁principal	-7586
▁regarding	-7587
▁showcasing	-7588
▁experiments	-7589
inx	-7590
▁Fab	-7591
▁tur	-7592
incol	-7593
▁Abby	-7594
▁Maya	-7595
▁laws	-7596
iating	-7597
umping	-7598
▁Miami	-7599
▁Pearl	-7600
▁chain	-7601
▁globe	-7602
▁roads	-7603
▁sweet	-7604
▁chamber	-7605
▁equally	-7606
▁hostile	-7607
▁attitude	-7608
▁identify	-7609
▁werewolf	-7610
uki	-7611
▁Ut	-7612
▁Hug	-7613
▁anx	-7614
▁hij	-7615
rates	-7616
▁Card	-7617
▁Next	-7618
▁Nora	-7619
▁Tina	-7620
▁Vamp	-7621
inates	-7622
▁Britt	-7623
▁Chloe	-7624
▁argue	-7625
▁honey	-7626
atively	-7627
▁Alicia	-7628
▁throat	-7629
▁Pacific	-7630
▁admired	-7631
▁wanders	-7632
▁achieved	-7633
▁consists	-7634
▁engineer	-7635
▁gambling	-7636
▁performs	-7637
▁relatives	-7638
▁travelling	-7639
▁description	-7640
ete	-7641
iac	-7642
ova	-7643
idal	-7644
itar	-7645
▁Dix	-7646
▁Gus	-7647
riage	-7648
▁Rita	-7649
▁opin	-7650
▁sixt	-7651
▁succ	-7652
acking	-7653
▁Buffy	-7654
▁broke	-7655
▁spite	-7656
▁manusc	-7657
▁tranqu	-7658
American	-7659
▁extreme	-7660
▁flashbacks	-7661
▁$	-7662
nel	-7663
uns	-7664
emen	-7665
ylum	-7666
▁Ark	-7667
▁Gor	-7668
▁blog	-7669
▁hook	-7670
▁soft	-7671
inding	-7672
▁Spain	-7673
▁block	-7674
▁slips	-7675
▁Theres	-7676
▁closed	-7677
▁cooper	-7678
▁deeper	-7679
▁enjoys	-7680
▁failing	-7681
▁screams	-7682
▁stabbed	-7683
▁Campbell	-7684
▁discussing	-7685
▁environmental	-7686
omer	-7687
pent	-7688
▁Bol	-7689
▁Dog	-7690
▁Lib	-7691
▁Pre	-7692
acies	-7693
▁Murd	-7694
▁Mitch	-7695
▁birds	-7696
iveness	-7697
▁behavi	-7698
▁higher	-7699
▁overth	-7700
▁Cynthia	-7701
▁Malcolm	-7702
▁concent	-7703
▁profile	-7704
▁contrast	-7705
▁sinister	-7706
▁witnessed	-7707
▁department	-7708
▁introduction	-7709
ggy	-7710
oby	-7711
olis	-7712
uven	-7713
▁Nar	-7714
▁Pig	-7715
▁gor	-7716
▁shr	-7717
arson	-7718
▁Acad	-7719
icient	-7720
itated	-7721
▁Brook	-7722
▁Jacqu	-7723
▁lodge	-7724
▁smart	-7725
▁Gerald	-7726
▁Spencer	-7727
▁psychic	-7728
▁stating	-7729
▁artificial	-7730
▁commission	-7731
eron	-7732
mers	-7733
▁Meg	-7734
adows	-7735
▁Tara	-7736
▁Loren	-7737
▁climb	-7738
▁moral	-7739
▁Lincol	-7740
▁foster	-7741
▁pretty	-7742
▁closing	-7743
▁familys	-7744
▁numbers	-7745
▁pattern	-7746
▁entrance	-7747
▁probably	-7748
▁apprentice	-7749
ses	-7750
▁Kid	-7751
inter	-7752
uties	-7753
▁Mall	-7754
▁Never	-7755
▁retal	-7756
▁rifle	-7757
▁Carlos	-7758
▁weight	-7759
▁Miranda	-7760
▁rejected	-7761
▁possibility	-7762
cel	-7763
hend	-7764
hlet	-7765
▁Var	-7766
▁puzz	-7767
▁spin	-7768
▁oppon	-7769
▁trees	-7770
▁Douglas	-7771
▁fifteen	-7772
▁loyalty	-7773
▁methods	-7774
ification	-7775
▁peaceful	-7776
▁realized	-7777
▁boundaries	-7778
▁collectors	-7779
▁pretending	-7780
▁meticulously	-7781
egr	-7782
▁Pa	-7783
apse	-7784
▁Nan	-7785
ieves	-7786
ulous	-7787
▁Chen	-7788
▁Erin	-7789
▁amaz	-7790
▁obst	-7791
▁subd	-7792
broken	-7793
▁Chuck	-7794
▁tragic	-7795
▁Special	-7796
▁realise	-7797
▁economic	-7798
▁hundreds	-7799
▁referred	-7800
▁discusses	-7801
▁surrender	-7802
▁depression	-7803
▁generation	-7804
▁Kl	-7805
neys	-7806
uild	-7807
▁Oct	-7808
acles	-7809
▁Spir	-7810
▁Trev	-7811
▁hour	-7812
▁jobs	-7813
▁rats	-7814
▁Paula	-7815
▁skill	-7816
▁banker	-7817
▁dismay	-7818
▁embark	-7819
▁golden	-7820
▁listen	-7821
▁plague	-7822
▁College	-7823
▁heading	-7824
▁Animorphs	-7825
▁classmates	-7826
▁operations	-7827
▁irresistible	-7828
▁photographer	-7829
▁Du	-7830
agan	-7831
▁Hot	-7832
aling	-7833
borah	-7834
▁Kane	-7835
▁conn	-7836
abouts	-7837
▁Bella	-7838
▁Penny	-7839
▁Theod	-7840
▁aging	-7841
▁doors	-7842
▁forth	-7843
▁occas	-7844
▁rebel	-7845
▁tears	-7846
itimate	-7847
▁Sydney	-7848
▁online	-7849
▁valley	-7850
▁Phillip	-7851
▁tracking	-7852
▁marketing	-7853
▁continuing	-7854
eur	-7855
azar	-7856
pper	-7857
istan	-7858
rated	-7859
▁urban	-7860
underst	-7861
▁Archie	-7862
▁Caesar	-7863
▁farmer	-7864
▁Collect	-7865
▁genetic	-7866
▁impress	-7867
▁breakfast	-7868
▁progresses	-7869
lee	-7870
▁Agn	-7871
▁Daw	-7872
▁Kaz	-7873
▁Pap	-7874
▁Roc	-7875
▁awa	-7876
oured	-7877
▁Flet	-7878
▁Much	-7879
▁Oper	-7880
▁Penn	-7881
▁gifts	-7882
▁range	-7883
▁	-7884
e	-7885
t	-7886
a	-7887
i	-7888
n	-7889
o	-7890
s	-7891
r	-7892
h	-7893
l	-7894
d	-7895
c	-7896
u	-7897
m	-7898
f	-7899
g	-7900
p	-7901
y	-7902
w	-7903
b	-7904
,	-7905
v	-7906
.	-7907
k	-7908
T	-7909
S	-7910
A	-7911
M	-7912
H	-7913
C	-7914
x	-7915
B	-7916
'	-7917
D	-7918
J	-7919
L	-7920
R	-7921
W	-7922
I	-7923
P	-7924
-	-7925
G	-7926
j	-7927
E	-7928
F	-7929
z	-7930
K	-7931
N	-7932
q	-7933
"	-7934
O	-7935
V	-7936
1	-7937
U	-7938
)	-7939
(	-7940
0	-7941
Y	-7942
;	-7943
9	-7944
:	-7945
2	-7946
Z	-7947
3	-7948
5	-7949
4	-7950
8	-7951
Q	-7952
7	-7953
6	-7954
?	-7955
*	-7956
&	-7957
!	-7958
X	-7959
#	-7960
/	-7961
]	-7962
[	-7963
$	-7964
|	-7965
=	-7966
<	-7967
>	-7968
%	-7969
_	-7970
`	-7971
+	-7972
}	-7973
{	-7974
@	-7975
~	-7976
\	-7977
^	-7978
