<pad>	0
<unk>	0
<s>	0
</s>	0
<action>	0
<ai>	0
<children>	0
<comedy>	0
<crime>	0
<drama>	0
<fantasy>	0
<historical>	0
<horror>	0
<nonfiction>	0
<other>	0
<realism>	0
<romance>	0
<science_fiction>	0
<speculative>	0
<thriller>	0
<young_adult>	0
▁t	-0
he	-1
▁a	-2
in	-3
▁the	-4
er	-5
nd	-6
▁s	-7
re	-8
is	-9
▁o	-10
▁w	-11
es	-12
▁h	-13
▁b	-14
at	-15
▁f	-16
on	-17
▁to	-18
▁c	-19
en	-20
ing	-21
▁and	-22
or	-23
it	-24
ed	-25
ar	-26
an	-27
▁in	-28
▁p	-29
▁of	-30
▁he	-31
al	-32
▁d	-33
▁m	-34
ou	-35
le	-36
as	-37
om	-38
ic	-39
el	-40
il	-41
▁th	-42
▁l	-43
▁re	-44
▁is	-45
▁T	-46
ion	-47
im	-48
▁her	-49
▁g	-50
▁his	-51
▁e	-52
▁n	-53
ent	-54
▁S	-55
ac	-56
▁A	-57
▁be	-58
st	-59
ot	-60
ur	-61
ly	-62
ow	-63
ut	-64
ol	-65
ith	-66
et	-67
ri	-68
ve	-69
ad	-70
▁M	-71
am	-72
▁with	-73
▁for	-74
ir	-75
▁H	-76
▁wh	-77
▁that	-78
ter	-79
ver	-80
▁on	-81
▁C	-82
us	-83
▁st	-84
id	-85
gh	-86
her	-87
▁B	-88
un	-89
ec	-90
▁The	-91
ro	-92
ay	-93
▁as	-94
ra	-95
ill	-96
▁D	-97
ce	-98
▁an	-99
ak	-100
ul	-101
▁him	-102
▁by	-103
ts	-104
▁J	-105
if	-106
▁at	-107
▁L	-108
▁R	-109
ers	-110
▁al	-111
▁she	-112
▁W	-113
os	-114
ation	-115
ge	-116
ess	-117
ch	-118
rom	-119
▁k	-120
and	-121
▁P	-122
est	-123
em	-124
ous	-125
ld	-126
ap	-127
▁con	-128
▁I	-129
▁G	-130
ain	-131
▁was	-132
▁who	-133
▁ex	-134
▁F	-135
▁le	-136
▁from	-137
▁E	-138
up	-139
end	-140
▁v	-141
op	-142
▁it	-143
iv	-144
od	-145
▁de	-146
ie	-147
▁sh	-148
▁ch	-149
ell	-150
igh	-151
ig	-152
art	-153
▁whe	-154
ack	-155
▁but	-156
res	-157
▁has	-158
▁com	-159
ind	-160
▁se	-161
▁lo	-162
ate	-163
▁K	-164
ant	-165
▁ne	-166
▁are	-167
ab	-168
ist	-169
rou	-170
av	-171
um	-172
▁wor	-173
▁N	-174
▁their	-175
ore	-176
all	-177
ity	-178
▁int	-179
▁they	-180
qu	-181
ich	-182
ct	-183
th	-184
ag	-185
ies	-186
ard	-187
ome	-188
▁un	-189
▁He	-190
fter	-191
ry	-192
ally	-193
▁pl	-194
ive	-195
ure	-196
▁r	-197
are	-198
▁ar	-199
oun	-200
▁y	-201
▁ab	-202
ave	-203
ear	-204
ife	-205
ect	-206
▁up	-207
▁out	-208
ust	-209
▁not	-210
oc	-211
▁j	-212
ok	-213
▁su	-214
▁sp	-215
ile	-216
ip	-217
▁O	-218
▁dis	-219
▁pro	-220
other	-221
ud	-222
▁into	-223
▁man	-224
ast	-225
ass	-226
out	-227
urn	-228
▁cl	-229
▁them	-230
▁go	-231
se	-232
ort	-233
ight	-234
▁bec	-235
vel	-236
cc	-237
▁en	-238
own	-239
▁att	-240
▁bo	-241
ep	-242
▁which	-243
▁She	-244
ious	-245
one	-246
ks	-247
▁tak	-248
▁In	-249
wn	-250
ment	-251
ong	-252
iz	-253
ia	-254
▁Ch	-255
ather	-256
▁V	-257
ite	-258
ime	-259
ans	-260
▁find	-261
▁all	-262
▁had	-263
▁exp	-264
▁do	-265
our	-266
ide	-267
▁tr	-268
▁one	-269
▁ev	-270
ue	-271
age	-272
▁where	-273
▁kill	-274
sel	-275
co	-276
ost	-277
ice	-278
pp	-279
ire	-280
ff	-281
▁life	-282
ine	-283
ne	-284
ath	-285
ther	-286
▁off	-287
▁ag	-288
▁or	-289
▁res	-290
ace	-291
ory	-292
ated	-293
ily	-294
ick	-295
ould	-296
ob	-297
riend	-298
ild	-299
▁when	-300
ance	-301
▁after	-302
ame	-303
oll	-304
▁cont	-305
ves	-306
▁have	-307
ence	-308
▁des	-309
self	-310
▁St	-311
ik	-312
▁tra	-313
▁As	-314
ang	-315
▁"	-316
▁im	-317
ach	-318
▁so	-319
▁ret	-320
ond	-321
▁Th	-322
▁ad	-323
▁world	-324
ash	-325
ial	-326
ian	-327
hen	-328
▁(	-329
▁pre	-330
▁no	-331
uc	-332
▁time	-333
▁about	-334
▁tw	-335
ings	-336
ish	-337
ater	-338
ets	-339
▁me	-340
▁other	-341
▁U	-342
ins	-343
ays	-344
▁fam	-345
ub	-346
so	-347
ign	-348
▁this	-349
▁Mar	-350
▁An	-351
▁father	-352
▁sc	-353
ib	-354
ens	-355
rough	-356
▁will	-357
pt	-358
der	-359
▁ro	-360
▁pr	-361
orm	-362
reat	-363
og	-364
und	-365
▁can	-366
▁dec	-367
old	-368
▁love	-369
▁over	-370
arn	-371
act	-372
▁back	-373
▁been	-374
▁mak	-375
ents	-376
▁friend	-377
ew	-378
ions	-379
▁also	-380
ree	-381
cover	-382
▁beg	-383
▁comp	-384
use	-385
cl	-386
▁Al	-387
▁only	-388
▁kn	-389
▁qu	-390
hes	-391
mer	-392
ound	-393
▁then	-394
ough	-395
▁app	-396
ears	-397
▁inv	-398
ood	-399
ose	-400
▁new	-401
ely	-402
▁part	-403
able	-404
▁family	-405
ful	-406
ren	-407
▁fin	-408
▁tell	-409
ations	-410
ows	-411
▁two	-412
▁return	-413
ouse	-414
▁1	-415
▁br	-416
▁work	-417
ives	-418
ail	-419
▁When	-420
▁After	-421
▁own	-422
ys	-423
au	-424
iss	-425
ons	-426
oung	-427
round	-428
als	-429
ever	-430
ult	-431
▁end	-432
very	-433
▁mar	-434
een	-435
ict	-436
ber	-437
▁hel	-438
ru	-439
fore	-440
ces	-441
▁young	-442
ary	-443
uring	-444
ress	-445
▁bl	-446
▁Her	-447
ord	-448
▁Jo	-449
man	-450
▁home	-451
ical	-452
▁tri	-453
ates	-454
app	-455
oth	-456
▁fir	-457
▁es	-458
itt	-459
▁imp	-460
▁child	-461
ters	-462
▁help	-463
▁mother	-464
owing	-465
▁acc	-466
▁Y	-467
▁we	-468
▁real	-469
▁would	-470
cap	-471
ade	-472
▁while	-473
ors	-474
riv	-475
ux	-476
▁sec	-477
▁discover	-478
aw	-479
▁pass	-480
▁per	-481
▁They	-482
▁rem	-483
les	-484
hed	-485
▁through	-486
▁some	-487
▁aw	-488
▁again	-489
per	-490
ount	-491
ning	-492
ran	-493
▁rel	-494
ually	-495
oy	-496
▁und	-497
uxur	-498
▁car	-499
▁us	-500
ool	-501
owever	-502
▁sur	-503
▁himself	-504
▁being	-505
augh	-506
▁book	-507
▁ind	-508
ov	-509
▁gr	-510
▁story	-511
hip	-512
▁first	-513
▁comm	-514
▁luxur	-515
ike	-516
▁pers	-517
▁pe	-518
▁before	-519
▁cr	-520
hn	-521
apt	-522
▁inf	-523
▁foll	-524
▁call	-525
▁more	-526
irl	-527
▁house	-528
aren	-529
▁finds	-530
▁under	-531
▁get	-532
▁act	-533
▁inter	-534
▁high	-535
▁escap	-536
ating	-537
its	-538
aving	-539
ied	-540
hile	-541
air	-542
▁pol	-543
ft	-544
▁Sh	-545
rand	-546
ise	-547
▁dest	-548
land	-549
ident	-550
▁wom	-551
▁ass	-552
▁te	-553
▁tells	-554
▁conf	-555
oin	-556
▁old	-557
ase	-558
▁most	-559
▁there	-560
▁its	-561
▁fl	-562
ert	-563
▁char	-564
▁ref	-565
amp	-566
▁ser	-567
ashion	-568
ere	-569
▁mem	-570
▁It	-571
▁ra	-572
ccess	-573
▁plan	-574
king	-575
▁ac	-576
▁bus	-577
▁rep	-578
ron	-579
▁ent	-580
▁becom	-581
▁bet	-582
▁bel	-583
ition	-584
▁death	-585
ting	-586
oss	-587
▁ins	-588
▁lead	-589
▁expl	-590
chool	-591
▁Ar	-592
▁take	-593
att	-594
▁fashion	-595
▁city	-596
▁down	-597
▁loc	-598
▁takes	-599
▁success	-600
ark	-601
▁see	-602
amed	-603
gg	-604
▁years	-605
▁At	-606
▁learn	-607
ness	-608
▁reve	-609
▁girl	-610
lect	-611
▁det	-612
▁rec	-613
ause	-614
ph	-615
▁em	-616
▁attem	-617
ues	-618
▁col	-619
▁does	-620
ower	-621
▁fe	-622
▁am	-623
▁mur	-624
▁novel	-625
ean	-626
▁travel	-627
▁found	-628
red	-629
▁turn	-630
ople	-631
ret	-632
▁ph	-633
▁school	-634
▁ri	-635
ures	-636
arl	-637
▁soc	-638
▁night	-639
▁hum	-640
▁person	-641
▁pres	-642
ides	-643
▁capt	-644
ah	-645
rit	-646
▁art	-647
xt	-648
▁day	-649
▁vis	-650
▁design	-651
ten	-652
▁way	-653
▁later	-654
led	-655
▁make	-656
▁were	-657
vers	-658
▁both	-659
▁what	-660
▁begins	-661
▁contin	-662
less	-663
▁bre	-664
ock	-665
vent	-666
▁away	-667
ann	-668
▁inst	-669
▁friends	-670
oot	-671
▁His	-672
arr	-673
▁becomes	-674
▁Cl	-675
▁luxury	-676
ward	-677
▁sup	-678
▁every	-679
ody	-680
eth	-681
orn	-682
yle	-683
▁now	-684
▁perf	-685
get	-686
▁people	-687
▁However	-688
▁El	-689
▁set	-690
ced	-691
aves	-692
▁fall	-693
▁goes	-694
pite	-695
▁run	-696
iving	-697
▁care	-698
ains	-699
ual	-700
▁well	-701
yst	-702
ands	-703
pl	-704
▁wife	-705
ison	-706
ved	-707
▁attack	-708
▁murder	-709
▁co	-710
▁John	-711
▁bu	-712
my	-713
enn	-714
▁killed	-715
ier	-716
ars	-717
▁named	-718
▁Z	-719
clud	-720
ley	-721
urs	-722
ke	-723
ene	-724
▁tal	-725
▁woman	-726
iness	-727
▁son	-728
▁gu	-729
ants	-730
▁any	-731
ric	-732
▁belie	-733
▁just	-734
ince	-735
aughter	-736
iet	-737
▁cons	-738
▁during	-739
▁become	-740
let	-741
▁Mr	-742
▁Le	-743
▁paren	-744
ited	-745
▁town	-746
uth	-747
▁because	-748
▁made	-749
▁sm	-750
▁escape	-751
rew	-752
ork	-753
▁arri	-754
ble	-755
▁Re	-756
▁Un	-757
▁event	-758
▁head	-759
▁than	-760
roup	-761
ven	-762
az	-763
▁19	-764
▁passion	-765
▁police	-766
els	-767
pect	-768
▁Des	-769
▁parents	-770
iff	-771
ween	-772
ake	-773
▁often	-774
▁another	-775
▁This	-776
rist	-777
▁war	-778
▁brother	-779
▁marri	-780
ern	-781
▁even	-782
ull	-783
▁el	-784
▁long	-785
▁op	-786
▁sl	-787
▁New	-788
▁between	-789
▁herself	-790
▁meet	-791
ient	-792
▁men	-793
oney	-794
▁like	-795
▁group	-796
▁play	-797
▁quick	-798
▁On	-799
olog	-800
arly	-801
▁next	-802
uch	-803
ured	-804
▁if	-805
erm	-806
▁rest	-807
ined	-808
iel	-809
by	-810
▁each	-811
▁soon	-812
▁But	-813
ists	-814
ately	-815
▁sk	-816
ek	-817
uses	-818
▁business	-819
▁dead	-820
▁ke	-821
▁ob	-822
▁daughter	-823
ling	-824
ty	-825
▁could	-826
io	-827
▁never	-828
ilm	-829
arth	-830
ane	-831
▁how	-832
▁includ	-833
pts	-834
▁quickly	-835
▁power	-836
▁De	-837
▁children	-838
▁place	-839
ady	-840
▁against	-841
ained	-842
▁invest	-843
00	-844
▁gl	-845
ale	-846
▁tries	-847
atch	-848
▁sub	-849
▁Gr	-850
ps	-851
▁three	-852
▁stud	-853
ister	-854
▁leave	-855
ased	-856
any	-857
▁things	-858
▁around	-859
▁look	-860
▁realiz	-861
aut	-862
▁try	-863
ug	-864
ina	-865
ros	-866
ines	-867
den	-868
▁happ	-869
▁boy	-870
▁And	-871
ility	-872
ted	-873
▁Bl	-874
▁str	-875
▁fight	-876
▁meets	-877
rag	-878
ities	-879
ages	-880
▁gets	-881
▁2	-882
eri	-883
▁film	-884
▁ext	-885
▁break	-886
▁En	-887
▁returns	-888
velop	-889
▁Sp	-890
▁mo	-891
▁comes	-892
▁Despite	-893
ax	-894
▁nat	-895
▁personal	-896
▁though	-897
▁leaves	-898
alth	-899
▁many	-900
ends	-901
ner	-902
ying	-903
ways	-904
uck	-905
▁money	-906
▁While	-907
af	-908
ink	-909
▁def	-910
▁Fran	-911
▁decides	-912
▁fav	-913
meric	-914
ination	-915
ames	-916
▁beh	-917
ible	-918
▁dem	-919
ital	-920
▁charac	-921
▁having	-922
ream	-923
▁miss	-924
ney	-925
..	-926
▁eventually	-927
▁inc	-928
▁develop	-929
▁sever	-930
▁secret	-931
▁always	-932
▁-	-933
▁priv	-934
bers	-935
te	-936
▁hist	-937
part	-938
ued	-939
▁count	-940
▁come	-941
▁dr	-942
arm	-943
▁With	-944
arts	-945
▁mag	-946
▁ship	-947
▁body	-948
gether	-949
▁together	-950
▁seem	-951
▁age	-952
anc	-953
▁social	-954
▁trans	-955
▁successful	-956
▁reveal	-957
▁must	-958
que	-959
ided	-960
▁still	-961
▁mon	-962
ving	-963
▁discovers	-964
▁prom	-965
ects	-966
▁human	-967
▁sw	-968
▁Jack	-969
▁Christ	-970
▁Americ	-971
▁med	-972
▁est	-973
▁relations	-974
ton	-975
ared	-976
▁unt	-977
▁left	-978
▁enc	-979
▁room	-980
▁attempt	-981
ix	-982
▁Br	-983
while	-984
▁aff	-985
▁order	-986
▁prot	-987
▁main	-988
gn	-989
▁Be	-990
▁show	-991
lic	-992
▁Sc	-993
▁sle	-994
friend	-995
ense	-996
▁know	-997
▁events	-998
ered	-999
▁Tom	-1000
▁last	-1001
▁makes	-1002
vin	-1003
be	-1004
▁stop	-1005
▁destro	-1006
ional	-1007
▁Em	-1008
ches	-1009
▁lives	-1010
▁One	-1011
ross	-1012
ator	-1013
cept	-1014
▁po	-1015
▁perfect	-1016
▁ends	-1017
▁relationship	-1018
illed	-1019
▁follow	-1020
uct	-1021
▁keep	-1022
▁ca	-1023
ural	-1024
▁contr	-1025
▁sus	-1026
▁Q	-1027
aster	-1028
▁let	-1029
▁same	-1030
▁mod	-1031
port	-1032
▁sent	-1033
yl	-1034
▁Rob	-1035
▁called	-1036
▁beaut	-1037
hel	-1038
uss	-1039
igious	-1040
▁much	-1041
ris	-1042
ony	-1043
▁favor	-1044
ener	-1045
▁Ad	-1046
▁Dr	-1047
aj	-1048
leg	-1049
▁very	-1050
▁local	-1051
lex	-1052
▁Har	-1053
▁Ang	-1054
nown	-1055
usb	-1056
▁reg	-1057
side	-1058
▁inform	-1059
▁until	-1060
ired	-1061
aur	-1062
ats	-1063
ically	-1064
osp	-1065
▁sex	-1066
▁begin	-1067
eanwhile	-1068
ead	-1069
ger	-1070
▁Am	-1071
yster	-1072
▁Ed	-1073
aim	-1074
▁past	-1075
gan	-1076
▁shoot	-1077
▁ey	-1078
▁.	-1079
▁lif	-1080
▁Will	-1081
▁along	-1082
▁investig	-1083
▁finally	-1084
▁husb	-1085
med	-1086
▁thr	-1087
▁Meanwhile	-1088
▁poss	-1089
▁asks	-1090
▁arrives	-1091
▁learns	-1092
▁several	-1093
rest	-1094
clus	-1095
inc	-1096
▁Ge	-1097
rie	-1098
▁dri	-1099
▁sees	-1100
ative	-1101
▁living	-1102
▁name	-1103
br	-1104
▁diff	-1105
▁uni	-1106
▁job	-1107
▁Con	-1108
ank	-1109
▁dist	-1110
▁creat	-1111
▁wr	-1112
oon	-1113
▁surv	-1114
ism	-1115
iec	-1116
rid	-1117
ication	-1118
▁purs	-1119
▁whom	-1120
▁favorite	-1121
▁Is	-1122
ering	-1123
▁deep	-1124
▁need	-1125
▁career	-1126
to	-1127
▁gives	-1128
▁experi	-1129
ially	-1130
ently	-1131
▁prof	-1132
▁true	-1133
ex	-1134
▁known	-1135
▁visit	-1136
ght	-1137
▁Sam	-1138
▁kills	-1139
▁heart	-1140
▁offic	-1141
▁club	-1142
iew	-1143
▁gun	-1144
▁resc	-1145
▁turns	-1146
▁former	-1147
arch	-1148
yn	-1149
▁myster	-1150
▁free	-1151
ield	-1152
▁attempts	-1153
▁cour	-1154
▁hand	-1155
oses	-1156
ple	-1157
▁Fl	-1158
rig	-1159
▁wants	-1160
ises	-1161
▁husband	-1162
▁use	-1163
▁start	-1164
▁reveals	-1165
ott	-1166
oph	-1167
cle	-1168
▁vill	-1169
iam	-1170
ished	-1171
son	-1172
ason	-1173
▁Pr	-1174
▁near	-1175
▁Dav	-1176
▁able	-1177
▁Pet	-1178
▁live	-1179
▁great	-1180
ular	-1181
▁including	-1182
),	-1183
▁member	-1184
▁During	-1185
▁dra	-1186
▁collect	-1187
ara	-1188
eal	-1189
▁York	-1190
▁history	-1191
pe	-1192
▁want	-1193
▁To	-1194
▁Ph	-1195
ittle	-1196
the	-1197
▁prov	-1198
▁however	-1199
▁eng	-1200
ires	-1201
▁narr	-1202
ael	-1203
attle	-1204
▁inn	-1205
ention	-1206
▁apart	-1207
aul	-1208
▁put	-1209
▁island	-1210
▁stay	-1211
▁form	-1212
▁small	-1213
▁taken	-1214
▁brand	-1215
ories	-1216
▁invol	-1217
▁prest	-1218
ges	-1219
rib	-1220
▁too	-1221
▁cre	-1222
ending	-1223
▁eff	-1224
ences	-1225
oint	-1226
▁falls	-1227
▁Eng	-1228
▁good	-1229
▁sister	-1230
▁private	-1231
ush	-1232
▁prestigious	-1233
▁wealth	-1234
▁once	-1235
▁ded	-1236
▁land	-1237
iety	-1238
).	-1239
▁class	-1240
▁Wh	-1241
ject	-1242
ctor	-1243
▁read	-1244
▁cent	-1245
▁partic	-1246
▁Car	-1247
▁behind	-1248
▁build	-1249
ics	-1250
▁jour	-1251
▁adv	-1252
▁without	-1253
nect	-1254
rees	-1255
▁lar	-1256
▁Geor	-1257
osed	-1258
ai	-1259
▁prison	-1260
▁became	-1261
ront	-1262
ards	-1263
err	-1264
▁Mc	-1265
▁working	-1266
▁fle	-1267
ots	-1268
ments	-1269
▁cur	-1270
aking	-1271
thing	-1272
ope	-1273
▁fact	-1274
idn	-1275
▁these	-1276
▁train	-1277
▁lat	-1278
▁opp	-1279
▁unw	-1280
rop	-1281
▁del	-1282
ders	-1283
ait	-1284
▁best	-1285
ended	-1286
▁party	-1287
▁says	-1288
▁country	-1289
unt	-1290
aid	-1291
▁Ann	-1292
lu	-1293
erry	-1294
▁style	-1295
▁cult	-1296
ices	-1297
▁threat	-1298
▁leaving	-1299
▁following	-1300
ck	-1301
▁dream	-1302
ole	-1303
▁Angel	-1304
ey	-1305
aring	-1306
▁allow	-1307
ald	-1308
▁spec	-1309
▁disc	-1310
▁fail	-1311
▁join	-1312
▁second	-1313
▁such	-1314
▁mov	-1315
ortun	-1316
ospital	-1317
not	-1318
▁wal	-1319
▁team	-1320
▁you	-1321
ook	-1322
▁cor	-1323
▁mor	-1324
▁Earth	-1325
▁realizes	-1326
aces	-1327
though	-1328
▁dev	-1329
aining	-1330
bs	-1331
▁encoun	-1332
▁others	-1333
▁members	-1334
duc	-1335
clusive	-1336
ened	-1337
▁used	-1338
pon	-1339
gr	-1340
▁quest	-1341
imes	-1342
ests	-1343
▁Mich	-1344
orts	-1345
▁Jul	-1346
▁destroy	-1347
▁met	-1348
▁che	-1349
▁black	-1350
estyle	-1351
ny	-1352
▁gang	-1353
▁sim	-1354
▁grand	-1355
cy	-1356
▁adm	-1357
anger	-1358
▁Man	-1359
▁accident	-1360
▁few	-1361
vern	-1362
ills	-1363
han	-1364
▁susp	-1365
ingly	-1366
rounded	-1367
int	-1368
▁var	-1369
ior	-1370
ution	-1371
oned	-1372
▁may	-1373
▁lifestyle	-1374
▁Dan	-1375
▁Alex	-1376
▁claim	-1377
ised	-1378
▁hospital	-1379
ange	-1380
▁rece	-1381
ee	-1382
▁King	-1383
▁year	-1384
ruct	-1385
▁killing	-1386
iation	-1387
▁Bar	-1388
▁dep	-1389
▁starts	-1390
▁cle	-1391
▁win	-1392
form	-1393
▁pos	-1394
▁pub	-1395
ule	-1396
▁going	-1397
tern	-1398
ym	-1399
▁grad	-1400
ird	-1401
▁wit	-1402
▁exc	-1403
▁cou	-1404
ract	-1405
▁detail	-1406
▁dies	-1407
ized	-1408
▁advent	-1409
▁David	-1410
iven	-1411
▁fire	-1412
inal	-1413
ours	-1414
urch	-1415
▁War	-1416
▁led	-1417
▁using	-1418
▁add	-1419
▁whose	-1420
▁hor	-1421
▁scene	-1422
▁search	-1423
ont	-1424
▁disapp	-1425
▁writ	-1426
ms	-1427
▁lost	-1428
▁shows	-1429
▁enj	-1430
▁som	-1431
▁profess	-1432
▁fut	-1433
▁cho	-1434
▁There	-1435
▁par	-1436
▁luxurious	-1437
▁Col	-1438
ged	-1439
▁fore	-1440
▁deal	-1441
▁days	-1442
▁differ	-1443
▁exclusive	-1444
▁tre	-1445
▁ens	-1446
alf	-1447
hood	-1448
▁sold	-1449
▁fur	-1450
used	-1451
vious	-1452
ights	-1453
▁occ	-1454
▁hid	-1455
▁val	-1456
▁older	-1457
▁connect	-1458
▁American	-1459
▁spe	-1460
▁feel	-1461
▁cra	-1462
omb	-1463
akes	-1464
wards	-1465
▁leg	-1466
▁final	-1467
aches	-1468
▁ident	-1469
▁commun	-1470
ler	-1471
▁Michael	-1472
ilt	-1473
▁camp	-1474
ivid	-1475
▁ed	-1476
▁since	-1477
▁refuses	-1478
▁Paul	-1479
▁cust	-1480
erv	-1481
▁indust	-1482
omp	-1483
▁forced	-1484
▁due	-1485
orld	-1486
▁desc	-1487
▁revealed	-1488
▁trying	-1489
▁battle	-1490
ele	-1491
▁min	-1492
nt	-1493
ute	-1494
▁hard	-1495
▁seen	-1496
iver	-1497
olf	-1498
▁test	-1499
ived	-1500
▁rid	-1501
▁arrest	-1502
▁stri	-1503
▁give	-1504
ager	-1505
acher	-1506
▁upon	-1507
▁Tr	-1508
▁Jim	-1509
▁Rich	-1510
▁four	-1511
▁marry	-1512
."	-1513
sy	-1514
▁open	-1515
▁fig	-1516
▁av	-1517
elf	-1518
▁Lond	-1519
▁appears	-1520
ury	-1521
▁Brit	-1522
▁Gre	-1523
▁eye	-1524
▁hot	-1525
ience	-1526
▁determ	-1527
ific	-1528
idence	-1529
▁calls	-1530
▁saf	-1531
▁runs	-1532
anding	-1533
▁plot	-1534
▁sign	-1535
▁sol	-1536
gu	-1537
▁Ger	-1538
▁mysterious	-1539
▁Frank	-1540
▁move	-1541
▁London	-1542
▁Upon	-1543
▁short	-1544
▁continued	-1545
acy	-1546
▁women	-1547
ored	-1548
orth	-1549
ians	-1550
▁vict	-1551
oo	-1552
▁Jenn	-1553
▁finer	-1554
uation	-1555
▁George	-1556
▁fre	-1557
▁hold	-1558
▁making	-1559
▁Jos	-1560
▁save	-1561
▁shot	-1562
▁*	-1563
rugg	-1564
▁tast	-1565
▁bring	-1566
▁marriage	-1567
oring	-1568
▁enjoy	-1569
▁James	-1570
▁various	-1571
istic	-1572
▁Mart	-1573
▁latest	-1574
▁little	-1575
▁uses	-1576
▁control	-1577
▁cat	-1578
▁indul	-1579
▁ve	-1580
lish	-1581
par	-1582
year	-1583
▁forces	-1584
▁characters	-1585
sh	-1586
▁Se	-1587
ites	-1588
▁resp	-1589
▁apartment	-1590
ask	-1591
▁interest	-1592
ung	-1593
▁future	-1594
rup	-1595
▁Mary	-1596
▁num	-1597
▁individ	-1598
▁Later	-1599
illy	-1600
▁For	-1601
▁air	-1602
aught	-1603
▁piec	-1604
lin	-1605
▁thin	-1606
▁Ste	-1607
ecc	-1608
▁Ben	-1609
▁force	-1610
▁married	-1611
ma	-1612
▁should	-1613
ief	-1614
▁did	-1615
▁auth	-1616
yal	-1617
▁rich	-1618
▁blood	-1619
ster	-1620
ients	-1621
▁gener	-1622
echn	-1623
iol	-1624
▁mil	-1625
▁cannot	-1626
▁estate	-1627
▁Mor	-1628
▁manages	-1629
rif	-1630
rec	-1631
▁sense	-1632
▁series	-1633
here	-1634
unning	-1635
aver	-1636
▁rev	-1637
▁watch	-1638
▁sum	-1639
selves	-1640
▁taking	-1641
▁'	-1642
▁natural	-1643
▁died	-1644
▁point	-1645
▁Mrs	-1646
▁those	-1647
▁company	-1648
▁remained	-1649
▁works	-1650
▁instead	-1651
▁leads	-1652
▁Ind	-1653
cer	-1654
▁case	-1655
oid	-1656
unk	-1657
▁face	-1658
▁underst	-1659
▁agrees	-1660
▁perform	-1661
way	-1662
▁All	-1663
▁influ	-1664
▁media	-1665
▁busy	-1666
ething	-1667
▁const	-1668
▁pri	-1669
rug	-1670
▁colle	-1671
▁bar	-1672
▁developed	-1673
▁themselves	-1674
▁large	-1675
▁follows	-1676
▁prop	-1677
▁told	-1678
▁view	-1679
aps	-1680
▁wind	-1681
▁plans	-1682
▁ant	-1683
icide	-1684
",	-1685
▁say	-1686
▁given	-1687
▁discovered	-1688
▁pain	-1689
▁character	-1690
range	-1691
▁Tw	-1692
▁keen	-1693
bor	-1694
ien	-1695
▁protect	-1696
▁ide	-1697
▁seems	-1698
▁strugg	-1699
▁industry	-1700
▁bed	-1701
irth	-1702
▁Charl	-1703
▁journey	-1704
▁arrive	-1705
ology	-1706
▁kidn	-1707
The	-1708
ones	-1709
ote	-1710
▁result	-1711
▁mind	-1712
ement	-1713
▁complet	-1714
▁news	-1715
▁present	-1716
gy	-1717
▁host	-1718
aby	-1719
▁serv	-1720
antly	-1721
▁phys	-1722
▁outside	-1723
▁appro	-1724
iful	-1725
▁king	-1726
▁amb	-1727
▁convin	-1728
▁govern	-1729
▁gra	-1730
▁City	-1731
▁taste	-1732
edd	-1733
▁renown	-1734
▁intro	-1735
▁sleek	-1736
ray	-1737
ares	-1738
aun	-1739
▁Gu	-1740
▁Hen	-1741
▁bro	-1742
▁destination	-1743
ox	-1744
▁renowned	-1745
▁arch	-1746
aced	-1747
▁self	-1748
▁Cal	-1749
▁Char	-1750
▁hours	-1751
▁presence	-1752
▁rele	-1753
▁sing	-1754
ibr	-1755
▁spend	-1756
riving	-1757
▁dedication	-1758
▁sn	-1759
▁planet	-1760
▁Growing	-1761
▁ability	-1762
▁village	-1763
▁cond	-1764
▁previous	-1765
▁author	-1766
idd	-1767
▁Par	-1768
▁ill	-1769
▁ever	-1770
▁knows	-1771
▁believes	-1772
of	-1773
▁crew	-1774
▁suff	-1775
▁Ab	-1776
outh	-1777
using	-1778
▁Luc	-1779
▁everyone	-1780
▁mark	-1781
▁inside	-1782
eck	-1783
▁Don	-1784
▁techn	-1785
ision	-1786
▁import	-1787
▁eleg	-1788
▁different	-1789
▁pat	-1790
▁drug	-1791
▁across	-1792
aged	-1793
cogn	-1794
▁water	-1795
omm	-1796
▁Or	-1797
▁game	-1798
▁rob	-1799
▁share	-1800
▁From	-1801
▁custom	-1802
▁maint	-1803
▁Qu	-1804
olly	-1805
▁captiv	-1806
▁something	-1807
▁law	-1808
▁mat	-1809
pire	-1810
▁hop	-1811
▁oper	-1812
▁stre	-1813
room	-1814
ystem	-1815
day	-1816
▁dire	-1817
▁grew	-1818
▁dog	-1819
▁society	-1820
▁viol	-1821
ll	-1822
▁pop	-1823
".	-1824
sych	-1825
ades	-1826
▁neigh	-1827
▁talent	-1828
▁allowed	-1829
▁orig	-1830
▁strong	-1831
ances	-1832
▁escapes	-1833
▁cut	-1834
▁Sar	-1835
▁beauty	-1836
▁actually	-1837
▁among	-1838
▁conc	-1839
ready	-1840
▁din	-1841
▁Ne	-1842
▁polit	-1843
▁stunning	-1844
uke	-1845
ising	-1846
pr	-1847
uals	-1848
▁obs	-1849
ius	-1850
ceed	-1851
▁birth	-1852
itted	-1853
rent	-1854
▁foot	-1855
▁beautiful	-1856
▁apprec	-1857
▁recogn	-1858
▁chang	-1859
ledge	-1860
▁Jess	-1861
▁appear	-1862
por	-1863
▁cast	-1864
ths	-1865
uk	-1866
ging	-1867
▁fell	-1868
▁stat	-1869
ped	-1870
▁Peter	-1871
ander	-1872
izing	-1873
▁leader	-1874
ove	-1875
▁army	-1876
▁suicide	-1877
owers	-1878
▁modern	-1879
iers	-1880
oul	-1881
ries	-1882
ery	-1883
▁far	-1884
▁organ	-1885
▁spir	-1886
ram	-1887
most	-1888
▁already	-1889
▁magic	-1890
▁defe	-1891
ogra	-1892
ude	-1893
ha	-1894
▁mission	-1895
▁anc	-1896
▁decided	-1897
▁mom	-1898
new	-1899
ral	-1900
▁mot	-1901
ize	-1902
▁decide	-1903
medi	-1904
▁Joe	-1905
▁tor	-1906
emy	-1907
icks	-1908
rought	-1909
▁hom	-1910
▁track	-1911
▁further	-1912
▁morning	-1913
uff	-1914
ept	-1915
▁came	-1916
▁wait	-1917
hic	-1918
▁phot	-1919
wh	-1920
era	-1921
▁sched	-1922
▁explains	-1923
...	-1924
▁right	-1925
▁affair	-1926
▁captured	-1927
▁continues	-1928
▁offers	-1929
inn	-1930
▁aband	-1931
pir	-1932
ias	-1933
▁sit	-1934
ified	-1935
▁inj	-1936
▁within	-1937
▁sym	-1938
▁British	-1939
▁Bob	-1940
▁meeting	-1941
▁vehic	-1942
atic	-1943
▁anim	-1944
▁warn	-1945
hing	-1946
ana	-1947
▁attention	-1948
ett	-1949
▁wound	-1950
▁psych	-1951
▁Robert	-1952
▁mus	-1953
▁door	-1954
ica	-1955
▁imm	-1956
▁comb	-1957
▁Ke	-1958
▁assist	-1959
▁Gl	-1960
▁powerful	-1961
▁confron	-1962
ought	-1963
▁enough	-1964
go	-1965
uel	-1966
ization	-1967
ament	-1968
▁dark	-1969
ential	-1970
▁close	-1971
▁entire	-1972
▁travels	-1973
▁Mad	-1974
▁hands	-1975
▁Richard	-1976
▁rescue	-1977
ressed	-1978
▁alone	-1979
rench	-1980
▁danger	-1981
▁girls	-1982
▁clients	-1983
aff	-1984
ora	-1985
▁Laur	-1986
itten	-1987
▁prep	-1988
▁God	-1989
▁system	-1990
▁ment	-1991
umb	-1992
arent	-1993
▁Russ	-1994
asc	-1995
▁Val	-1996
▁support	-1997
▁Sw	-1998
▁conv	-1999
avering	-2000
▁describ	-2001
▁individuals	-2002
▁breaks	-2003
▁German	-2004
▁immedi	-2005
▁ann	-2006
ases	-2007
otic	-2008
▁half	-2009
▁Lou	-2010
itary	-2011
agon	-2012
▁top	-2013
▁div	-2014
▁brought	-2015
▁side	-2016
ishes	-2017
osing	-2018
▁unwavering	-2019
▁William	-2020
▁cir	-2021
▁Hel	-2022
eless	-2023
▁fort	-2024
▁caught	-2025
▁Henry	-2026
ularly	-2027
▁continue	-2028
▁Wal	-2029
elling	-2030
▁Mag	-2031
iles	-2032
rival	-2033
▁possess	-2034
▁government	-2035
une	-2036
▁victim	-2037
▁shoots	-2038
▁unique	-2039
▁Matt	-2040
▁soph	-2041
rief	-2042
▁pay	-2043
▁despite	-2044
▁dro	-2045
▁everything	-2046
▁knowledge	-2047
▁full	-2048
ift	-2049
▁init	-2050
▁unc	-2051
amb	-2052
▁Nick	-2053
▁truth	-2054
▁Pat	-2055
▁Inst	-2056
▁position	-2057
▁World	-2058
ational	-2059
▁Mon	-2060
cious	-2061
▁fr	-2062
iter	-2063
ping	-2064
▁getting	-2065
▁recover	-2066
▁wat	-2067
▁Sim	-2068
▁respons	-2069
▁emb	-2070
versity	-2071
▁killer	-2072
na	-2073
▁Me	-2074
▁schedule	-2075
itch	-2076
orous	-2077
▁commit	-2078
▁jew	-2079
▁proble	-2080
▁Ro	-2081
▁Sm	-2082
itions	-2083
▁instilled	-2084
▁loyal	-2085
▁ep	-2086
lement	-2087
▁opportun	-2088
izes	-2089
▁couple	-2090
▁shared	-2091
▁station	-2092
▁reb	-2093
▁sugg	-2094
▁experiences	-2095
▁bur	-2096
▁witness	-2097
▁designs	-2098
ked	-2099
anny	-2100
▁believe	-2101
▁La	-2102
▁mer	-2103
▁nothing	-2104
▁sleep	-2105
▁fun	-2106
▁early	-2107
▁hotel	-2108
▁reput	-2109
▁accept	-2110
▁archit	-2111
▁post	-2112
▁state	-2113
venge	-2114
▁Phil	-2115
▁orders	-2116
ably	-2117
quis	-2118
▁mis	-2119
oe	-2120
▁course	-2121
ella	-2122
▁cover	-2123
▁mist	-2124
▁proc	-2125
▁Af	-2126
▁visits	-2127
▁apparent	-2128
▁Max	-2129
ective	-2130
me	-2131
rian	-2132
▁mans	-2133
▁word	-2134
▁vamp	-2135
▁missing	-2136
▁earl	-2137
▁trou	-2138
▁mount	-2139
▁building	-2140
urt	-2141
▁port	-2142
▁sends	-2143
ajor	-2144
▁murdered	-2145
ploy	-2146
▁ter	-2147
▁French	-2148
▁information	-2149
▁food	-2150
▁late	-2151
host	-2152
▁figure	-2153
oman	-2154
▁ble	-2155
▁rom	-2156
▁reputation	-2157
▁We	-2158
▁Through	-2159
▁began	-2160
▁sets	-2161
rey	-2162
ched	-2163
▁crime	-2164
▁attract	-2165
▁officer	-2166
▁earn	-2167
▁Harry	-2168
▁nature	-2169
▁introduc	-2170
▁almost	-2171
▁consid	-2172
▁exec	-2173
▁supp	-2174
fully	-2175
▁unable	-2176
▁culture	-2177
▁steal	-2178
▁encounter	-2179
▁bad	-2180
▁opens	-2181
▁architect	-2182
▁knew	-2183
earing	-2184
▁special	-2185
▁Vict	-2186
▁boys	-2187
▁immediately	-2188
ker	-2189
▁England	-2190
allen	-2191
▁weap	-2192
▁assass	-2193
▁spent	-2194
▁ang	-2195
dden	-2196
▁involved	-2197
▁glam	-2198
▁cele	-2199
▁impecc	-2200
▁Carl	-2201
▁baby	-2202
ivil	-2203
sequ	-2204
jects	-2205
▁respect	-2206
▁skills	-2207
men	-2208
▁Step	-2209
▁cap	-2210
ads	-2211
ids	-2212
▁aud	-2213
▁owner	-2214
▁girlfriend	-2215
▁pursue	-2216
▁public	-2217
▁looking	-2218
▁mess	-2219
▁wealthy	-2220
▁alive	-2221
▁United	-2222
▁earlier	-2223
▁Lord	-2224
▁mass	-2225
▁Sarah	-2226
ively	-2227
ese	-2228
▁pict	-2229
▁sudden	-2230
ita	-2231
▁Mark	-2232
▁equ	-2233
▁requ	-2234
▁appreciation	-2235
▁burn	-2236
▁tele	-2237
duct	-2238
▁rad	-2239
iddle	-2240
▁master	-2241
▁3	-2242
oor	-2243
▁tem	-2244
▁ult	-2245
▁letter	-2246
▁feels	-2247
▁trip	-2248
▁front	-2249
ham	-2250
▁space	-2251
▁telling	-2252
▁step	-2253
▁attacks	-2254
▁childhood	-2255
▁took	-2256
▁gre	-2257
ograph	-2258
▁needs	-2259
▁process	-2260
▁impeccable	-2261
▁Mal	-2262
▁leading	-2263
bo	-2264
rof	-2265
▁board	-2266
raw	-2267
▁uns	-2268
yp	-2269
▁Event	-2270
▁X	-2271
ertain	-2272
▁stories	-2273
▁Capt	-2274
▁suspic	-2275
▁indulge	-2276
▁tim	-2277
ening	-2278
▁incre	-2279
▁military	-2280
▁scient	-2281
▁Pl	-2282
ragon	-2283
▁decl	-2284
▁becoming	-2285
▁evil	-2286
▁wood	-2287
▁months	-2288
▁jewel	-2289
▁Cor	-2290
▁Thom	-2291
▁Although	-2292
▁designer	-2293
acts	-2294
▁Victor	-2295
▁role	-2296
roll	-2297
▁elite	-2298
▁Black	-2299
▁Charlie	-2300
▁confess	-2301
dy	-2302
work	-2303
▁Eventually	-2304
▁filled	-2305
isa	-2306
ned	-2307
▁die	-2308
▁red	-2309
▁Miss	-2310
▁chance	-2311
ores	-2312
ken	-2313
▁coll	-2314
▁English	-2315
ugs	-2316
▁Ell	-2317
error	-2318
urity	-2319
▁shop	-2320
▁doctor	-2321
▁discuss	-2322
▁farm	-2323
▁less	-2324
▁kidnapp	-2325
▁teacher	-2326
ena	-2327
▁hun	-2328
▁trad	-2329
▁yet	-2330
▁reach	-2331
iant	-2332
▁soldiers	-2333
▁drive	-2334
▁18	-2335
aker	-2336
ellig	-2337
▁followers	-2338
▁Red	-2339
▁Bill	-2340
inally	-2341
▁create	-2342
pped	-2343
▁Charles	-2344
▁surrounded	-2345
000	-2346
cing	-2347
het	-2348
▁teen	-2349
▁causes	-2350
▁hidden	-2351
wood	-2352
▁humans	-2353
▁clim	-2354
▁might	-2355
▁Fred	-2356
ifer	-2357
▁Laura	-2358
sw	-2359
▁narrator	-2360
▁field	-2361
▁giving	-2362
antic	-2363
▁pregn	-2364
▁Then	-2365
▁community	-2366
▁Je	-2367
back	-2368
▁flee	-2369
▁access	-2370
ither	-2371
▁someone	-2372
known	-2373
▁mill	-2374
▁spirit	-2375
bed	-2376
▁attacked	-2377
inated	-2378
▁Billy	-2379
erson	-2380
▁Adam	-2381
▁race	-2382
▁Ev	-2383
▁strange	-2384
▁change	-2385
▁rather	-2386
▁Mel	-2387
▁Sus	-2388
▁treat	-2389
▁brings	-2390
ari	-2391
chie	-2392
▁fellow	-2393
▁contact	-2394
▁gen	-2395
house	-2396
▁five	-2397
▁light	-2398
▁Paris	-2399
▁band	-2400
▁gold	-2401
▁wedd	-2402
▁States	-2403
▁revenge	-2404
ague	-2405
▁elegance	-2406
▁fly	-2407
▁agent	-2408
▁claims	-2409
▁mean	-2410
inations	-2411
dom	-2412
rain	-2413
▁drawn	-2414
▁particularly	-2415
rav	-2416
▁cop	-2417
▁towards	-2418
▁Club	-2419
anks	-2420
▁sav	-2421
▁Their	-2422
▁foc	-2423
iment	-2424
▁Captain	-2425
rance	-2426
ground	-2427
▁hero	-2428
▁Im	-2429
▁ste	-2430
▁glamorous	-2431
▁causing	-2432
▁unf	-2433
▁arg	-2434
▁press	-2435
▁ground	-2436
▁proper	-2437
▁surviv	-2438
▁perfectly	-2439
rang	-2440
ected	-2441
itter	-2442
▁collection	-2443
cher	-2444
▁chap	-2445
▁vibr	-2446
▁arrested	-2447
▁Ry	-2448
▁talk	-2449
▁enjoyed	-2450
▁challen	-2451
▁although	-2452
▁separ	-2453
uly	-2454
iron	-2455
▁pot	-2456
▁fict	-2457
cepts	-2458
▁number	-2459
▁really	-2460
row	-2461
▁By	-2462
▁Dar	-2463
▁Jerry	-2464
▁remains	-2465
▁wedding	-2466
▁white	-2467
▁mach	-2468
▁lands	-2469
▁encounters	-2470
▁committed	-2471
▁jewelry	-2472
con	-2473
ells	-2474
▁situation	-2475
▁feat	-2476
▁kind	-2477
aine	-2478
▁nearby	-2479
▁pieces	-2480
like	-2481
abeth	-2482
uz	-2483
▁Ol	-2484
▁Que	-2485
▁times	-2486
▁manage	-2487
▁office	-2488
▁accidentally	-2489
bol	-2490
eng	-2491
str	-2492
▁fem	-2493
▁employ	-2494
▁offer	-2495
▁ultim	-2496
▁vibrant	-2497
▁big	-2498
▁why	-2499
▁clos	-2500
▁z	-2501
ming	-2502
▁Jap	-2503
▁books	-2504
▁court	-2505
hew	-2506
off	-2507
▁Pe	-2508
▁bank	-2509
itting	-2510
▁exist	-2511
▁question	-2512
▁professional	-2513
ocked	-2514
uing	-2515
▁Sk	-2516
▁env	-2517
▁moves	-2518
aper	-2519
▁breath	-2520
ument	-2521
father	-2522
▁cross	-2523
▁grounded	-2524
▁Daniel	-2525
ously	-2526
▁star	-2527
▁hit	-2528
▁Arth	-2529
ino	-2530
▁revol	-2531
head	-2532
nder	-2533
▁ple	-2534
▁identity	-2535
▁my	-2536
elled	-2537
▁rare	-2538
▁sett	-2539
▁saying	-2540
▁reflect	-2541
▁Afric	-2542
▁kiss	-2543
▁Mike	-2544
▁wild	-2545
▁sexual	-2546
▁returned	-2547
ection	-2548
▁student	-2549
▁Pol	-2550
▁aut	-2551
▁peace	-2552
ford	-2553
inded	-2554
iance	-2555
▁Eliz	-2556
▁activ	-2557
▁younger	-2558
▁helps	-2559
▁college	-2560
ump	-2561
▁gone	-2562
chant	-2563
▁ghost	-2564
▁thinks	-2565
▁transform	-2566
fer	-2567
▁May	-2568
▁lab	-2569
com	-2570
▁pull	-2571
▁receives	-2572
▁phil	-2573
▁brief	-2574
▁Before	-2575
▁direct	-2576
fort	-2577
▁hes	-2578
alls	-2579
▁Roy	-2580
▁Soon	-2581
▁bomb	-2582
▁Japan	-2583
▁determined	-2584
▁evidence	-2585
yond	-2586
▁crim	-2587
▁account	-2588
▁blend	-2589
▁Bel	-2590
after	-2591
eral	-2592
▁hon	-2593
▁music	-2594
▁Martin	-2595
▁ancient	-2596
▁repl	-2597
▁experience	-2598
▁Sir	-2599
▁elect	-2600
awn	-2601
uge	-2602
rupt	-2603
ape	-2604
ried	-2605
▁Ray	-2606
bert	-2607
▁phone	-2608
▁finding	-2609
▁showc	-2610
▁held	-2611
▁draw	-2612
▁boat	-2613
▁movie	-2614
▁better	-2615
ocks	-2616
▁gradu	-2617
▁loves	-2618
▁captivated	-2619
▁vir	-2620
▁reun	-2621
resses	-2622
▁Jennifer	-2623
anda	-2624
▁Ital	-2625
incess	-2626
▁terror	-2627
▁sens	-2628
iqu	-2629
▁Mo	-2630
ilar	-2631
▁looks	-2632
▁exquis	-2633
▁tit	-2634
▁forg	-2635
▁went	-2636
▁students	-2637
▁dreams	-2638
▁Arthur	-2639
▁beginning	-2640
eph	-2641
▁Jon	-2642
▁Jud	-2643
▁finest	-2644
▁Eur	-2645
▁Ram	-2646
▁celebr	-2647
itz	-2648
▁sed	-2649
athan	-2650
▁record	-2651
▁exquisite	-2652
▁got	-2653
▁acqu	-2654
▁fasc	-2655
▁growing	-2656
aks	-2657
▁box	-2658
ustle	-2659
▁persu	-2660
▁confronts	-2661
▁Tim	-2662
▁civil	-2663
ips	-2664
▁craft	-2665
▁guard	-2666
inary	-2667
▁Just	-2668
▁demon	-2669
bl	-2670
▁Mic	-2671
ruction	-2672
hab	-2673
andy	-2674
▁status	-2675
ae	-2676
▁happened	-2677
▁physical	-2678
▁Marc	-2679
▁resear	-2680
▁estab	-2681
▁accomp	-2682
▁except	-2683
ember	-2684
▁Anna	-2685
▁moment	-2686
▁itself	-2687
▁powers	-2688
▁beyond	-2689
▁adventures	-2690
▁ele	-2691
▁Jane	-2692
▁Ash	-2693
▁pret	-2694
▁sought	-2695
riff	-2696
▁lik	-2697
▁carry	-2698
▁middle	-2699
▁mansion	-2700
▁written	-2701
▁Mur	-2702
▁dou	-2703
lished	-2704
▁purch	-2705
ball	-2706
▁running	-2707
▁Eric	-2708
▁list	-2709
▁boyfriend	-2710
▁Mac	-2711
▁San	-2712
▁term	-2713
▁means	-2714
▁attend	-2715
▁fear	-2716
▁idea	-2717
▁symbol	-2718
▁adventure	-2719
pre	-2720
▁rul	-2721
▁America	-2722
ode	-2723
▁vo	-2724
▁desper	-2725
▁extended	-2726
▁commitment	-2727
▁thought	-2728
▁destroyed	-2729
▁uncle	-2730
,"	-2731
▁West	-2732
▁road	-2733
▁exper	-2734
▁suddenly	-2735
anna	-2736
iting	-2737
▁eyes	-2738
▁accepts	-2739
oke	-2740
▁week	-2741
▁pregnant	-2742
▁Elizabeth	-2743
▁convinces	-2744
▁hide	-2745
▁third	-2746
uce	-2747
ium	-2748
▁clear	-2749
mas	-2750
▁Cla	-2751
▁Mer	-2752
▁vide	-2753
▁intellig	-2754
nal	-2755
▁Ros	-2756
atter	-2757
right	-2758
▁Queen	-2759
▁deb	-2760
▁area	-2761
▁cous	-2762
▁returning	-2763
,000	-2764
▁Lind	-2765
▁stand	-2766
ij	-2767
ality	-2768
▁Scott	-2769
▁innate	-2770
▁investigate	-2771
▁Comm	-2772
▁Do	-2773
▁sea	-2774
▁Er	-2775
▁pun	-2776
▁investigation	-2777
mother	-2778
▁pract	-2779
▁exotic	-2780
▁brothers	-2781
ique	-2782
▁McC	-2783
▁High	-2784
▁educ	-2785
▁stab	-2786
taking	-2787
▁Bro	-2788
▁emot	-2789
▁wrong	-2790
▁nearly	-2791
▁Kel	-2792
itive	-2793
▁window	-2794
▁dying	-2795
▁testament	-2796
▁&	-2797
▁ago	-2798
▁provided	-2799
▁ward	-2800
▁longer	-2801
▁suspect	-2802
▁political	-2803
ume	-2804
▁grow	-2805
▁vac	-2806
▁adop	-2807
olen	-2808
▁fac	-2809
▁pur	-2810
▁Jeff	-2811
rog	-2812
▁Now	-2813
▁That	-2814
▁squ	-2815
▁Del	-2816
▁avoid	-2817
▁major	-2818
▁coming	-2819
▁base	-2820
▁dinner	-2821
line	-2822
▁pair	-2823
▁Ber	-2824
▁arm	-2825
urb	-2826
▁choice	-2827
▁original	-2828
▁reluct	-2829
▁net	-2830
▁Once	-2831
▁castle	-2832
▁confront	-2833
▁pick	-2834
▁truly	-2835
▁cry	-2836
▁informs	-2837
▁II	-2838
▁else	-2839
▁seeing	-2840
▁murders	-2841
lo	-2842
ech	-2843
▁compan	-2844
iding	-2845
▁enter	-2846
ological	-2847
gin	-2848
ashing	-2849
▁anything	-2850
asure	-2851
▁Thomas	-2852
asing	-2853
yd	-2854
minded	-2855
▁wanted	-2856
▁abandoned	-2857
ancy	-2858
▁plat	-2859
▁recon	-2860
▁Johnny	-2861
▁throughout	-2862
▁5	-2863
▁possible	-2864
▁circ	-2865
▁line	-2866
▁responsible	-2867
▁architecture	-2868
▁doing	-2869
▁lover	-2870
▁prevent	-2871
ugg	-2872
ilities	-2873
stit	-2874
▁Kim	-2875
▁built	-2876
aven	-2877
ille	-2878
▁learning	-2879
ustr	-2880
▁Jason	-2881
▁protagon	-2882
▁coun	-2883
▁Rac	-2884
▁assign	-2885
▁breathtaking	-2886
uit	-2887
▁suc	-2888
▁bas	-2889
▁Reb	-2890
▁hang	-2891
▁command	-2892
▁technology	-2893
owly	-2894
▁our	-2895
▁enters	-2896
▁gained	-2897
▁opportunity	-2898
▁20	-2899
oved	-2900
pris	-2901
▁vehicle	-2902
▁emer	-2903
▁stolen	-2904
▁offered	-2905
▁doesnt	-2906
▁sac	-2907
▁boss	-2908
▁turned	-2909
▁Lisa	-2910
▁mut	-2911
▁sail	-2912
▁alien	-2913
▁whole	-2914
sc	-2915
▁pen	-2916
▁vol	-2917
▁realize	-2918
ishing	-2919
▁feelings	-2920
▁fighting	-2921
▁particular	-2922
▁concern	-2923
inging	-2924
▁based	-2925
▁Ex	-2926
▁drunk	-2927
ults	-2928
▁Jan	-2929
▁sil	-2930
▁sun	-2931
opher	-2932
▁famil	-2933
▁horse	-2934
▁store	-2935
▁female	-2936
yr	-2937
▁Co	-2938
▁Jac	-2939
▁Per	-2940
▁Ag	-2941
▁Los	-2942
▁di	-2943
▁wid	-2944
▁South	-2945
▁storm	-2946
etic	-2947
▁Van	-2948
▁answ	-2949
▁exch	-2950
set	-2951
▁histor	-2952
▁capture	-2953
▁traveling	-2954
▁Chris	-2955
▁4	-2956
oins	-2957
▁summ	-2958
▁Maria	-2959
ript	-2960
▁convers	-2961
▁partner	-2962
▁security	-2963
aries	-2964
▁happy	-2965
▁sal	-2966
▁neighbor	-2967
nie	-2968
▁thus	-2969
ze	-2970
▁buy	-2971
▁Mill	-2972
▁walks	-2973
▁Cass	-2974
▁born	-2975
▁university	-2976
▁Lady	-2977
▁animals	-2978
hol	-2979
▁god	-2980
ators	-2981
▁US	-2982
ault	-2983
▁six	-2984
▁soul	-2985
inking	-2986
ya	-2987
▁hiding	-2988
miss	-2989
▁Sec	-2990
ency	-2991
itor	-2992
▁playing	-2993
pec	-2994
▁Nic	-2995
▁hope	-2996
▁Bo	-2997
▁Danny	-2998
▁seemingly	-2999
▁cam	-3000
▁popular	-3001
die	-3002
▁compet	-3003
rel	-3004
▁Wil	-3005
▁Edward	-3006
ridge	-3007
▁health	-3008
▁succeed	-3009
▁Kat	-3010
▁trust	-3011
▁privile	-3012
▁threatens	-3013
aith	-3014
▁creating	-3015
▁destinations	-3016
aint	-3017
▁Aust	-3018
▁Josh	-3019
che	-3020
▁dam	-3021
▁encou	-3022
▁rock	-3023
▁imag	-3024
▁Joseph	-3025
rem	-3026
airs	-3027
▁Franc	-3028
▁watches	-3029
▁effort	-3030
▁Angeles	-3031
▁Pres	-3032
▁planning	-3033
ature	-3034
▁den	-3035
ama	-3036
▁street	-3037
nds	-3038
▁changes	-3039
▁ru	-3040
▁Ser	-3041
▁loses	-3042
▁allows	-3043
▁forest	-3044
ushes	-3045
▁desert	-3046
ki	-3047
eks	-3048
▁bul	-3049
▁heads	-3050
ula	-3051
▁Mil	-3052
▁safe	-3053
▁Prince	-3054
▁Min	-3055
▁ful	-3056
▁Ma	-3057
▁Dev	-3058
▁deg	-3059
▁ways	-3060
ring	-3061
ror	-3062
enced	-3063
iny	-3064
▁abs	-3065
▁cab	-3066
▁pil	-3067
uter	-3068
▁innoc	-3069
▁drives	-3070
▁expert	-3071
▁research	-3072
▁remaining	-3073
▁Sal	-3074
asion	-3075
▁gather	-3076
▁initially	-3077
▁Sn	-3078
irst	-3079
▁Jake	-3080
▁demands	-3081
▁freed	-3082
anth	-3083
▁action	-3084
iana	-3085
▁behav	-3086
▁joins	-3087
▁retrie	-3088
▁unknown	-3089
▁friendship	-3090
▁businessman	-3091
▁anyone	-3092
▁beat	-3093
▁achie	-3094
▁sne	-3095
▁Rose	-3096
▁Sl	-3097
▁think	-3098
ached	-3099
▁apparently	-3100
▁ap	-3101
▁tort	-3102
illing	-3103
▁flees	-3104
▁Bur	-3105
▁Rachel	-3106
▁century	-3107
▁importance	-3108
▁walk	-3109
unn	-3110
icult	-3111
raged	-3112
▁announ	-3113
asy	-3114
▁Jer	-3115
▁jail	-3116
▁onto	-3117
▁Carol	-3118
▁engine	-3119
▁piece	-3120
▁secretly	-3121
gl	-3122
▁Rome	-3123
vert	-3124
exic	-3125
▁poison	-3126
bb	-3127
▁truck	-3128
▁famous	-3129
▁Cr	-3130
well	-3131
ashes	-3132
▁whether	-3133
▁suggests	-3134
▁waiting	-3135
▁writing	-3136
▁path	-3137
▁model	-3138
▁North	-3139
▁enemy	-3140
▁Sil	-3141
▁convince	-3142
▁Hall	-3143
▁Jean	-3144
▁firm	-3145
▁France	-3146
▁cousin	-3147
▁interv	-3148
ua	-3149
▁Kn	-3150
where	-3151
▁hair	-3152
▁summer	-3153
lict	-3154
▁dangerous	-3155
▁describes	-3156
prise	-3157
▁liter	-3158
▁detective	-3159
▁priest	-3160
▁fortune	-3161
ibly	-3162
rets	-3163
▁Rog	-3164
▁weeks	-3165
▁plane	-3166
ops	-3167
▁nav	-3168
intage	-3169
▁Laure	-3170
▁Mexic	-3171
▁hopes	-3172
▁reason	-3173
utes	-3174
▁Count	-3175
▁transport	-3176
time	-3177
▁ball	-3178
▁cru	-3179
▁Alice	-3180
▁restaur	-3181
▁disgu	-3182
▁brut	-3183
▁audience	-3184
▁problems	-3185
mar	-3186
▁location	-3187
cean	-3188
▁Christian	-3189
▁cause	-3190
▁project	-3191
isticated	-3192
▁throws	-3193
cil	-3194
▁Gar	-3195
▁send	-3196
▁Gener	-3197
oration	-3198
▁values	-3199
▁surpris	-3200
verse	-3201
▁gard	-3202
▁heav	-3203
▁pack	-3204
ading	-3205
▁client	-3206
▁neighb	-3207
▁exchange	-3208
▁recently	-3209
yer	-3210
orce	-3211
▁Raj	-3212
▁catch	-3213
law	-3214
▁complete	-3215
we	-3216
ada	-3217
iod	-3218
▁Soc	-3219
▁rou	-3220
▁remain	-3221
▁Francis	-3222
▁sophisticated	-3223
▁current	-3224
▁similar	-3225
▁trouble	-3226
▁beach	-3227
▁preser	-3228
▁platform	-3229
▁Bre	-3230
▁Cam	-3231
▁lim	-3232
▁inhab	-3233
▁sacrif	-3234
▁pictures	-3235
▁Christmas	-3236
▁Bugs	-3237
▁vampire	-3238
▁released	-3239
▁Lee	-3240
▁attending	-3241
ini	-3242
▁er	-3243
▁ten	-3244
▁done	-3245
▁plant	-3246
▁exploring	-3247
▁exposed	-3248
adow	-3249
▁You	-3250
aching	-3251
▁doesn	-3252
▁befriend	-3253
lessly	-3254
▁supposed	-3255
▁Great	-3256
▁church	-3257
▁explos	-3258
ipp	-3259
ormal	-3260
▁river	-3261
▁defeat	-3262
alle	-3263
▁How	-3264
▁disp	-3265
▁Christopher	-3266
hern	-3267
▁fit	-3268
In	-3269
▁grows	-3270
▁super	-3271
▁betray	-3272
▁complement	-3273
▁Jew	-3274
▁inher	-3275
enny	-3276
oted	-3277
▁Army	-3278
▁thing	-3279
▁report	-3280
gram	-3281
▁Che	-3282
▁Pal	-3283
la	-3284
ago	-3285
ride	-3286
▁cars	-3287
▁Helen	-3288
▁depart	-3289
▁arrival	-3290
▁sat	-3291
▁vers	-3292
▁Angela	-3293
▁obsess	-3294
▁fathers	-3295
▁streets	-3296
▁wounded	-3297
▁difficult	-3298
▁ultimately	-3299
aret	-3300
▁market	-3301
▁understand	-3302
▁dom	-3303
icate	-3304
▁loss	-3305
▁struggle	-3306
ortunately	-3307
isters	-3308
▁protagonist	-3309
ergy	-3310
▁Dor	-3311
▁van	-3312
▁poor	-3313
▁Jimmy	-3314
▁broken	-3315
▁period	-3316
▁tree	-3317
▁views	-3318
▁memory	-3319
life	-3320
▁Two	-3321
▁Park	-3322
▁Luke	-3323
▁fails	-3324
▁driving	-3325
ety	-3326
▁No	-3327
▁ign	-3328
▁Anne	-3329
▁puts	-3330
ette	-3331
mans	-3332
▁influential	-3333
dd	-3334
▁Brown	-3335
ulation	-3336
▁Can	-3337
▁title	-3338
ression	-3339
▁financ	-3340
▁single	-3341
▁vintage	-3342
de	-3343
▁training	-3344
▁chase	-3345
▁retreat	-3346
▁joined	-3347
▁spends	-3348
▁addition	-3349
aging	-3350
▁elder	-3351
▁environ	-3352
▁radio	-3353
▁empire	-3354
▁message	-3355
▁tradition	-3356
▁upbr	-3357
▁suspects	-3358
▁ir	-3359
▁cell	-3360
▁glim	-3361
▁ride	-3362
icated	-3363
▁reality	-3364
onscious	-3365
▁machine	-3366
arily	-3367
▁frequ	-3368
▁upbringing	-3369
▁Tal	-3370
ibility	-3371
athy	-3372
rage	-3373
▁hears	-3374
▁here	-3375
▁engage	-3376
field	-3377
▁Wolf	-3378
atherine	-3379
▁details	-3380
▁Vir	-3381
▁note	-3382
▁degree	-3383
▁believed	-3384
▁keeps	-3385
▁voice	-3386
▁schools	-3387
▁serious	-3388
▁graduating	-3389
▁suit	-3390
▁invites	-3391
▁captain	-3392
oren	-3393
▁fate	-3394
▁Susan	-3395
▁stops	-3396
▁comfort	-3397
▁Steve	-3398
▁White	-3399
▁Andrew	-3400
▁service	-3401
illa	-3402
▁prim	-3403
▁So	-3404
▁produc	-3405
▁wishes	-3406
▁actions	-3407
▁Mat	-3408
ining	-3409
▁said	-3410
▁ending	-3411
come	-3412
▁Win	-3413
ensive	-3414
▁helping	-3415
roud	-3416
▁spot	-3417
▁explore	-3418
▁moved	-3419
▁refer	-3420
▁belong	-3421
▁General	-3422
▁har	-3423
▁saw	-3424
▁House	-3425
pecially	-3426
▁Ter	-3427
▁unex	-3428
▁Finally	-3429
▁Japanese	-3430
van	-3431
▁Art	-3432
uable	-3433
▁loved	-3434
▁execut	-3435
rison	-3436
▁proceed	-3437
▁violent	-3438
ompl	-3439
▁sour	-3440
▁angry	-3441
▁admits	-3442
▁kidnapped	-3443
elle	-3444
pses	-3445
▁doc	-3446
useum	-3447
bur	-3448
▁Sun	-3449
ornia	-3450
▁important	-3451
▁knowing	-3452
▁Emily	-3453
▁eager	-3454
▁personality	-3455
enes	-3456
▁Med	-3457
▁tro	-3458
▁woods	-3459
emb	-3460
▁shown	-3461
▁Though	-3462
▁grandfather	-3463
iber	-3464
▁Kate	-3465
ky	-3466
ply	-3467
odies	-3468
▁song	-3469
▁repres	-3470
▁education	-3471
▁environment	-3472
robe	-3473
▁Sand	-3474
▁Ra	-3475
▁tar	-3476
▁dance	-3477
▁created	-3478
mond	-3479
▁neg	-3480
▁poin	-3481
▁wond	-3482
▁Calif	-3483
▁Island	-3484
▁classic	-3485
▁Shar	-3486
▁Smith	-3487
▁bal	-3488
▁neck	-3489
▁subsequ	-3490
ka	-3491
raft	-3492
inese	-3493
▁insists	-3494
▁creature	-3495
▁surround	-3496
▁Tony	-3497
▁level	-3498
▁saved	-3499
▁wearing	-3500
▁struggles	-3501
kins	-3502
ston	-3503
▁200	-3504
▁enroll	-3505
▁criminal	-3506
usion	-3507
▁prove	-3508
asingly	-3509
▁prostit	-3510
iamond	-3511
▁charm	-3512
▁certain	-3513
▁officers	-3514
▁understanding	-3515
ona	-3516
▁injured	-3517
▁mountain	-3518
oly	-3519
ealous	-3520
▁Roman	-3521
▁agree	-3522
isc	-3523
▁desire	-3524
▁Simon	-3525
▁million	-3526
umes	-3527
▁yach	-3528
▁Michel	-3529
▁refined	-3530
lan	-3531
min	-3532
▁Go	-3533
aken	-3534
▁Lucy	-3535
▁intric	-3536
▁striking	-3537
▁photograph	-3538
▁exact	-3539
▁weapons	-3540
▁fictional	-3541
▁Gab	-3542
▁key	-3543
▁acad	-3544
▁wakes	-3545
▁mystery	-3546
odes	-3547
rick	-3548
▁ring	-3549
▁revealing	-3550
▁Sch	-3551
▁eat	-3552
▁Cent	-3553
▁thinking	-3554
▁followed	-3555
bing	-3556
▁Holly	-3557
▁Russian	-3558
▁assistant	-3559
fts	-3560
▁Rh	-3561
▁date	-3562
▁Chinese	-3563
▁California	-3564
▁experiment	-3565
▁increasingly	-3566
▁don	-3567
▁lived	-3568
▁medical	-3569
▁disappear	-3570
▁Stephen	-3571
▁influence	-3572
anch	-3573
onel	-3574
▁#	-3575
ify	-3576
▁bott	-3577
▁memories	-3578
▁Nat	-3579
▁Back	-3580
idents	-3581
▁trial	-3582
enty	-3583
▁failed	-3584
▁Ir	-3585
▁Kar	-3586
▁Some	-3587
▁Dark	-3588
▁sell	-3589
▁thous	-3590
▁arrang	-3591
▁Bud	-3592
▁mir	-3593
pected	-3594
▁Europe	-3595
▁highly	-3596
▁Hol	-3597
▁nob	-3598
▁doll	-3599
▁floor	-3600
▁Marg	-3601
▁leaders	-3602
▁words	-3603
duction	-3604
▁accompl	-3605
▁especially	-3606
▁Naz	-3607
▁sche	-3608
▁flash	-3609
▁maintain	-3610
val	-3611
icted	-3612
▁rival	-3613
▁wardrobe	-3614
▁graduation	-3615
over	-3616
▁computer	-3617
▁sword	-3618
▁Louis	-3619
▁agents	-3620
▁notices	-3621
▁watching	-3622
▁Grand	-3623
▁attended	-3624
▁combined	-3625
▁promises	-3626
elt	-3627
▁Lar	-3628
▁occup	-3629
▁bene	-3630
▁caused	-3631
▁mob	-3632
eared	-3633
spect	-3634
▁Star	-3635
▁tour	-3636
▁survive	-3637
▁ur	-3638
▁evening	-3639
order	-3640
▁speak	-3641
▁Little	-3642
oes	-3643
hold	-3644
▁Sov	-3645
▁simply	-3646
▁Sol	-3647
▁magical	-3648
▁Rod	-3649
assed	-3650
▁plays	-3651
▁questions	-3652
▁Bal	-3653
▁owned	-3654
▁suspicious	-3655
uests	-3656
▁repe	-3657
▁sure	-3658
▁Kevin	-3659
face	-3660
▁purp	-3661
▁catches	-3662
▁Eve	-3663
▁Ham	-3664
inger	-3665
▁orph	-3666
▁Brand	-3667
▁intelligence	-3668
pse	-3669
▁cul	-3670
▁magn	-3671
▁jealous	-3672
▁birthday	-3673
▁lack	-3674
▁romantic	-3675
oud	-3676
acing	-3677
▁Camp	-3678
▁falling	-3679
▁previously	-3680
▁Det	-3681
▁fat	-3682
oard	-3683
▁Leon	-3684
▁intens	-3685
▁reader	-3686
ushed	-3687
▁Duke	-3688
▁innov	-3689
▁Empire	-3690
▁mental	-3691
kes	-3692
▁hous	-3693
▁task	-3694
▁giant	-3695
▁rescued	-3696
eter	-3697
▁slowly	-3698
stal	-3699
▁Brad	-3700
▁Rock	-3701
▁guests	-3702
▁completely	-3703
gar	-3704
▁dig	-3705
▁pal	-3706
▁pan	-3707
▁marries	-3708
▁interior	-3709
▁attempting	-3710
hus	-3711
iri	-3712
▁mad	-3713
▁laun	-3714
▁crash	-3715
▁match	-3716
▁trail	-3717
▁sophist	-3718
▁interview	-3719
▁sophistication	-3720
sters	-3721
▁These	-3722
▁sharing	-3723
cend	-3724
▁Ver	-3725
▁aid	-3726
▁jud	-3727
▁pet	-3728
▁program	-3729
illeg	-3730
▁cost	-3731
▁narrative	-3732
▁confesses	-3733
lear	-3734
▁Barb	-3735
▁Greg	-3736
▁exam	-3737
▁exped	-3738
ems	-3739
umps	-3740
iques	-3741
▁convinced	-3742
▁restaurant	-3743
▁bi	-3744
▁My	-3745
▁Cast	-3746
▁recru	-3747
▁seeks	-3748
▁matter	-3749
▁places	-3750
▁calling	-3751
▁proud	-3752
▁complex	-3753
eds	-3754
▁wall	-3755
▁either	-3756
ani	-3757
▁Amy	-3758
▁Les	-3759
ction	-3760
▁chief	-3761
▁newsp	-3762
mate	-3763
▁non	-3764
ublic	-3765
▁include	-3766
▁imprison	-3767
enant	-3768
▁served	-3769
▁reaches	-3770
uries	-3771
▁prog	-3772
▁seeking	-3773
▁fascinated	-3774
eps	-3775
▁Jam	-3776
▁lot	-3777
agers	-3778
annah	-3779
▁deliver	-3780
▁trapped	-3781
▁customer	-3782
▁vehicles	-3783
▁privileged	-3784
▁quiet	-3785
read	-3786
▁trap	-3787
▁secrets	-3788
▁condition	-3789
▁Big	-3790
▁crit	-3791
▁names	-3792
▁introduced	-3793
mates	-3794
▁Sant	-3795
▁safety	-3796
▁letters	-3797
▁problem	-3798
▁property	-3799
▁shooting	-3800
▁Tik	-3801
▁ask	-3802
▁tail	-3803
▁Short	-3804
▁bodies	-3805
uty	-3806
▁energy	-3807
▁conflict	-3808
▁families	-3809
▁countless	-3810
▁organization	-3811
zy	-3812
oom	-3813
eman	-3814
agram	-3815
inate	-3816
▁Bern	-3817
▁Ryan	-3818
undred	-3819
▁dragon	-3820
▁grandmother	-3821
▁lies	-3822
▁Kelly	-3823
▁weapon	-3824
▁efforts	-3825
▁network	-3826
irt	-3827
▁wine	-3828
▁earned	-3829
▁happens	-3830
▁official	-3831
ata	-3832
▁Ruth	-3833
▁soldier	-3834
▁iss	-3835
othes	-3836
▁illeg	-3837
▁saves	-3838
▁massive	-3839
iate	-3840
oper	-3841
itude	-3842
▁cold	-3843
anthrop	-3844
▁inspir	-3845
▁capital	-3846
▁victims	-3847
▁President	-3848
▁unconscious	-3849
▁194	-3850
▁warri	-3851
▁artist	-3852
▁talking	-3853
▁mult	-3854
▁Brian	-3855
▁brain	-3856
▁writer	-3857
▁existence	-3858
▁purchased	-3859
▁Tem	-3860
ender	-3861
▁lose	-3862
▁male	-3863
▁hired	-3864
▁normal	-3865
▁Instead	-3866
▁appearance	-3867
▁sight	-3868
▁Rep	-3869
world	-3870
▁bath	-3871
▁Jessica	-3872
▁coast	-3873
▁stage	-3874
md	-3875
prof	-3876
▁conversation	-3877
owd	-3878
▁altern	-3879
▁Liz	-3880
▁tow	-3881
ressive	-3882
Tok	-3883
▁seek	-3884
ension	-3885
▁earth	-3886
▁polic	-3887
▁Da	-3888
▁losing	-3889
▁chapter	-3890
▁humanity	-3891
▁stra	-3892
▁journal	-3893
▁incident	-3894
▁unexpected	-3895
▁fine	-3896
▁allowing	-3897
uclear	-3898
▁Tor	-3899
iated	-3900
▁Sher	-3901
▁slave	-3902
▁conclud	-3903
angu	-3904
issa	-3905
▁gar	-3906
mdash	-3907
▁pred	-3908
▁Julie	-3909
▁cabin	-3910
▁kept	-3911
▁mater	-3912
▁gas	-3913
cohol	-3914
war	-3915
▁Fre	-3916
▁embr	-3917
▁active	-3918
▁fair	-3919
▁your	-3920
▁raised	-3921
ayl	-3922
▁Haw	-3923
▁corn	-3924
▁enthus	-3925
▁fallen	-3926
pet	-3927
inks	-3928
rate	-3929
▁Over	-3930
▁museum	-3931
▁suggest	-3932
▁Dave	-3933
▁meant	-3934
▁legacy	-3935
▁funeral	-3936
can	-3937
rap	-3938
ieut	-3939
▁Son	-3940
erous	-3941
▁eight	-3942
▁holds	-3943
▁TikTok	-3944
▁murderer	-3945
ners	-3946
▁196	-3947
▁parts	-3948
▁pulls	-3949
▁wellness	-3950
ta	-3951
▁cal	-3952
▁san	-3953
inked	-3954
prene	-3955
▁Stan	-3956
reprene	-3957
▁behavior	-3958
gie	-3959
▁Fe	-3960
iled	-3961
▁Not	-3962
inent	-3963
▁Mont	-3964
▁navig	-3965
▁Philip	-3966
▁release	-3967
▁introduces	-3968
iece	-3969
ival	-3970
othy	-3971
▁vast	-3972
▁general	-3973
▁provide	-3974
▁199	-3975
▁Tri	-3976
▁wins	-3977
▁driver	-3978
▁fal	-3979
▁tried	-3980
▁contem	-3981
▁states	-3982
▁desperate	-3983
ocr	-3984
aked	-3985
ecca	-3986
▁telev	-3987
za	-3988
ila	-3989
▁lege	-3990
▁vision	-3991
▁Mir	-3992
▁gain	-3993
▁hear	-3994
▁Pro	-3995
epend	-3996
▁awak	-3997
▁drove	-3998
▁towns	-3999
▁comple	-4000
▁deeply	-4001
▁toward	-4002
▁writes	-4003
▁la	-4004
▁Bab	-4005
▁gift	-4006
▁sound	-4007
▁feeling	-4008
▁enrolled	-4009
▁creatures	-4010
eed	-4011
▁Uni	-4012
light	-4013
▁honed	-4014
▁Te	-4015
▁blind	-4016
▁entreprene	-4017
▁ocean	-4018
▁setting	-4019
▁started	-4020
▁esc	-4021
peror	-4022
▁Part	-4023
▁cred	-4024
▁admir	-4025
▁nuclear	-4026
ls	-4027
▁rap	-4028
under	-4029
▁Wall	-4030
▁guards	-4031
▁visiting	-4032
elia	-4033
▁orphan	-4034
▁Instagram	-4035
▁Es	-4036
rible	-4037
▁landscap	-4038
▁survivors	-4039
▁successfully	-4040
▁park	-4041
▁drugs	-4042
▁excell	-4043
▁alcohol	-4044
▁financial	-4045
rol	-4046
▁Dou	-4047
▁Jenny	-4048
anted	-4049
▁hall	-4050
▁cater	-4051
▁warns	-4052
▁effect	-4053
▁fights	-4054
▁lawyer	-4055
▁believing	-4056
▁connected	-4057
▁Throughout	-4058
▁completing	-4059
aly	-4060
▁exh	-4061
▁hat	-4062
▁Bond	-4063
ocking	-4064
▁asked	-4065
rab	-4066
▁Nich	-4067
▁grace	-4068
▁widow	-4069
▁Jonathan	-4070
ca	-4071
onic	-4072
▁fond	-4073
▁corrupt	-4074
eder	-4075
iction	-4076
▁remember	-4077
itage	-4078
riven	-4079
▁arts	-4080
▁drown	-4081
▁advice	-4082
ervation	-4083
▁hundred	-4084
ga	-4085
itc	-4086
▁ty	-4087
▁Ant	-4088
▁cow	-4089
▁doub	-4090
▁player	-4091
▁worked	-4092
▁Bec	-4093
▁resol	-4094
profile	-4095
ois	-4096
▁What	-4097
▁talks	-4098
▁trick	-4099
▁aboard	-4100
▁glimpses	-4101
iger	-4102
▁obt	-4103
▁Under	-4104
uis	-4105
char	-4106
uman	-4107
▁Law	-4108
▁Ron	-4109
named	-4110
ounts	-4111
▁Green	-4112
▁Sup	-4113
▁academ	-4114
▁kingdom	-4115
▁staying	-4116
▁destruction	-4117
iar	-4118
ola	-4119
▁cant	-4120
▁assoc	-4121
▁strang	-4122
▁17	-4123
uded	-4124
▁cas	-4125
▁Mount	-4126
▁ready	-4127
▁seven	-4128
▁freedom	-4129
▁decision	-4130
▁dedicated	-4131
▁constantly	-4132
kin	-4133
aded	-4134
▁hol	-4135
ample	-4136
▁heir	-4137
▁Jacob	-4138
▁Karen	-4139
▁reflection	-4140
ease	-4141
▁Reg	-4142
ether	-4143
▁knife	-4144
BI	-4145
▁af	-4146
▁East	-4147
▁gave	-4148
▁sick	-4149
▁faith	-4150
▁African	-4151
▁Matthew	-4152
▁sisters	-4153
▁rub	-4154
▁learned	-4155
▁numerous	-4156
vol	-4157
▁ic	-4158
▁quar	-4159
ability	-4160
▁Doctor	-4161
▁camera	-4162
▁resist	-4163
who	-4164
▁Prof	-4165
▁bird	-4166
▁shortly	-4167
▁timeless	-4168
bre	-4169
play	-4170
▁ice	-4171
▁sen	-4172
arian	-4173
▁Beth	-4174
▁Both	-4175
▁shel	-4176
▁tale	-4177
▁obser	-4178
▁version	-4179
arks	-4180
▁roots	-4181
▁searching	-4182
born	-4183
umed	-4184
▁Wes	-4185
▁hostage	-4186
ios	-4187
och	-4188
rin	-4189
reng	-4190
▁Unf	-4191
▁pir	-4192
▁ris	-4193
▁sad	-4194
aware	-4195
▁bear	-4196
▁aware	-4197
▁operation	-4198
▁6	-4199
▁Ken	-4200
▁Rick	-4201
▁witch	-4202
▁content	-4203
ieutenant	-4204
wen	-4205
ecess	-4206
▁Indian	-4207
▁elderly	-4208
▁opening	-4209
▁Tre	-4210
▁sons	-4211
▁common	-4212
▁flight	-4213
▁hoping	-4214
aughters	-4215
▁changed	-4216
▁uncover	-4217
▁troub	-4218
▁parties	-4219
▁science	-4220
isf	-4221
▁If	-4222
▁Land	-4223
▁kids	-4224
▁Bobby	-4225
▁potential	-4226
▁:	-4227
uan	-4228
▁Eddie	-4229
▁crafts	-4230
▁Ur	-4231
riel	-4232
uous	-4233
erior	-4234
▁reck	-4235
▁Julia	-4236
▁clean	-4237
▁drink	-4238
▁occur	-4239
▁staff	-4240
▁197	-4241
▁Kir	-4242
▁hen	-4243
▁isol	-4244
▁humble	-4245
▁intensified	-4246
▁philanthrop	-4247
.,	-4248
▁Nor	-4249
▁impl	-4250
yearold	-4251
▁passes	-4252
▁holding	-4253
▁religious	-4254
hi	-4255
uls	-4256
vey	-4257
stone	-4258
▁bare	-4259
▁afflu	-4260
▁bound	-4261
itiz	-4262
▁Gal	-4263
▁Sat	-4264
▁moving	-4265
▁thrown	-4266
▁clothes	-4267
▁arms	-4268
▁Jones	-4269
ida	-4270
▁Alan	-4271
▁fund	-4272
▁Robin	-4273
▁meaning	-4274
▁surprise	-4275
▁witnesses	-4276
iat	-4277
iced	-4278
imate	-4279
orter	-4280
▁inhabit	-4281
▁wand	-4282
▁langu	-4283
▁Soviet	-4284
▁diamond	-4285
▁accompan	-4286
▁valuable	-4287
▁challenges	-4288
▁mid	-4289
▁pilot	-4290
▁Society	-4291
▁explain	-4292
▁figures	-4293
▁Unfortunately	-4294
outs	-4295
▁FBI	-4296
▁fan	-4297
▁flour	-4298
▁write	-4299
itation	-4300
▁charism	-4301
cts	-4302
olas	-4303
▁crowd	-4304
▁manager	-4305
▁television	-4306
ourt	-4307
othing	-4308
▁India	-4309
▁passions	-4310
▁Cat	-4311
▁Fer	-4312
▁Ven	-4313
ching	-4314
▁epis	-4315
▁deaths	-4316
▁walking	-4317
▁treasure	-4318
▁cave	-4319
▁fears	-4320
▁impro	-4321
▁steals	-4322
incip	-4323
▁Anth	-4324
▁harm	-4325
▁Lauren	-4326
▁innocent	-4327
▁discovery	-4328
▁determination	-4329
▁sor	-4330
▁spy	-4331
▁Gold	-4332
▁empt	-4333
▁fant	-4334
▁least	-4335
▁elegant	-4336
▁pursuit	-4337
▁develops	-4338
▁Dun	-4339
conom	-4340
▁Dick	-4341
▁above	-4342
manship	-4343
▁robber	-4344
leep	-4345
ville	-4346
▁ancest	-4347
▁streng	-4348
▁mothers	-4349
▁teenage	-4350
▁7	-4351
iates	-4352
▁zomb	-4353
▁played	-4354
▁complic	-4355
▁president	-4356
▁represent	-4357
oys	-4358
ube	-4359
▁devast	-4360
▁proves	-4361
▁princess	-4362
lad	-4363
▁Linda	-4364
▁yacht	-4365
▁expand	-4366
▁involve	-4367
▁newspaper	-4368
▁countryside	-4369
▁cook	-4370
▁Three	-4371
▁10	-4372
▁Est	-4373
▁Old	-4374
annel	-4375
▁heal	-4376
▁quite	-4377
▁includes	-4378
▁violence	-4379
▁profession	-4380
▁underground	-4381
iens	-4382
▁Fel	-4383
craft	-4384
▁retrieve	-4385
▁generations	-4386
mes	-4387
win	-4388
ruce	-4389
rified	-4390
▁peers	-4391
▁showing	-4392
▁destroys	-4393
▁Cap	-4394
lings	-4395
▁Isab	-4396
▁mort	-4397
▁Father	-4398
ucky	-4399
▁source	-4400
▁Italian	-4401
icul	-4402
pired	-4403
▁forever	-4404
▁spell	-4405
▁hustle	-4406
▁received	-4407
▁thoughts	-4408
ship	-4409
▁Tod	-4410
▁Book	-4411
▁charge	-4412
▁described	-4413
aph	-4414
▁Kh	-4415
▁da	-4416
▁Den	-4417
▁Police	-4418
▁School	-4419
▁forgot	-4420
▁points	-4421
▁Because	-4422
▁suffering	-4423
▁interested	-4424
▁tracks	-4425
▁University	-4426
mail	-4427
eller	-4428
▁dress	-4429
▁escaped	-4430
▁9	-4431
edy	-4432
▁Ve	-4433
ider	-4434
isher	-4435
coming	-4436
▁legend	-4437
▁target	-4438
▁reading	-4439
▁affluent	-4440
asons	-4441
▁Gord	-4442
▁via	-4443
▁Wood	-4444
▁lets	-4445
▁guilt	-4446
▁asking	-4447
▁bustle	-4448
▁frustr	-4449
▁Colonel	-4450
▁Rebecca	-4451
▁flashback	-4452
▁picturesque	-4453
▁neighborhood	-4454
class	-4455
ologist	-4456
▁Joshua	-4457
▁Virgin	-4458
▁locked	-4459
▁promise	-4460
▁confidence	-4461
▁maintained	-4462
uary	-4463
▁Mexico	-4464
▁suffers	-4465
▁turning	-4466
▁complemented	-4467
▁Cle	-4468
ician	-4469
▁prince	-4470
▁Washing	-4471
boy	-4472
▁Dom	-4473
▁low	-4474
rived	-4475
▁hunt	-4476
▁Terry	-4477
▁study	-4478
▁terms	-4479
▁shocked	-4480
usc	-4481
▁Tob	-4482
▁ess	-4483
aylor	-4484
▁fast	-4485
▁Morgan	-4486
▁Princess	-4487
▁material	-4488
▁particip	-4489
abor	-4490
righ	-4491
ivers	-4492
▁Soph	-4493
rupted	-4494
▁Marie	-4495
▁intent	-4496
▁planned	-4497
▁daughters	-4498
▁indulging	-4499
▁intricate	-4500
▁craftsmanship	-4501
▁vent	-4502
▁Tommy	-4503
▁autom	-4504
▁Having	-4505
▁device	-4506
▁econom	-4507
▁extrem	-4508
usted	-4509
▁First	-4510
▁expect	-4511
▁Harr	-4512
▁results	-4513
▁signific	-4514
▁connection	-4515
▁disappears	-4516
kn	-4517
down	-4518
▁Comp	-4519
▁Vinc	-4520
▁danc	-4521
▁glob	-4522
ration	-4523
ulated	-4524
▁romance	-4525
▁wish	-4526
▁colon	-4527
▁Dragon	-4528
▁placed	-4529
▁beloved	-4530
▁universe	-4531
▁bag	-4532
▁shes	-4533
▁driven	-4534
▁invited	-4535
▁subject	-4536
▁visited	-4537
▁carrying	-4538
▁destroying	-4539
▁preserving	-4540
▁reluctantly	-4541
▁Com	-4542
▁assault	-4543
eding	-4544
emies	-4545
▁aunt	-4546
▁batt	-4547
▁drag	-4548
▁passed	-4549
▁expedition	-4550
cent	-4551
▁Boy	-4552
▁Tam	-4553
▁Sean	-4554
▁Africa	-4555
▁flying	-4556
▁refuge	-4557
▁picture	-4558
▁Washington	-4559
▁ban	-4560
▁independ	-4561
▁huge	-4562
▁regard	-4563
▁Hor	-4564
▁enl	-4565
▁haun	-4566
▁opul	-4567
▁swim	-4568
▁Bruce	-4569
▁trade	-4570
▁scream	-4571
▁Michelle	-4572
▁befriends	-4573
▁Ot	-4574
▁Far	-4575
▁hits	-4576
▁Shortly	-4577
▁realises	-4578
away	-4579
rett	-4580
▁Bet	-4581
▁China	-4582
▁newly	-4583
▁Walter	-4584
▁shut	-4585
▁intern	-4586
▁rescues	-4587
▁Republic	-4588
urse	-4589
▁lav	-4590
▁overhe	-4591
▁philos	-4592
▁historical	-4593
▁198	-4594
▁worth	-4595
▁regular	-4596
▁established	-4597
hem	-4598
▁Ca	-4599
▁Set	-4600
▁won	-4601
iling	-4602
▁glass	-4603
▁heard	-4604
▁magaz	-4605
▁ships	-4606
▁Patrick	-4607
▁repeated	-4608
izard	-4609
▁sequ	-4610
▁snow	-4611
▁corpse	-4612
▁twenty	-4613
▁willing	-4614
add	-4615
erts	-4616
▁Fal	-4617
ravel	-4618
▁Chic	-4619
▁remote	-4620
▁monster	-4621
ils	-4622
▁weak	-4623
▁raise	-4624
▁object	-4625
▁divorce	-4626
IA	-4627
▁citiz	-4628
▁hides	-4629
▁Master	-4630
▁studies	-4631
ev	-4632
osen	-4633
▁Out	-4634
atory	-4635
▁desp	-4636
▁pool	-4637
▁upset	-4638
▁Stephan	-4639
▁purpose	-4640
▁surface	-4641
▁excellence	-4642
▁revolution	-4643
heart	-4644
atives	-4645
▁Uncle	-4646
▁youth	-4647
▁drinking	-4648
▁imprisoned	-4649
ader	-4650
iest	-4651
iley	-4652
otte	-4653
rect	-4654
▁Ire	-4655
pping	-4656
▁surre	-4657
▁mention	-4658
▁prisoner	-4659
▁accompany	-4660
▁scientist	-4661
▁approaches	-4662
agues	-4663
▁furn	-4664
action	-4665
▁deadly	-4666
▁basement	-4667
ogue	-4668
▁wasn	-4669
▁enemies	-4670
▁servant	-4671
▁breaking	-4672
▁resulting	-4673
ja	-4674
car	-4675
for	-4676
▁Nik	-4677
uxury	-4678
▁Hans	-4679
▁achieve	-4680
uf	-4681
▁Hal	-4682
▁Vlad	-4683
▁happen	-4684
▁showcased	-4685
▁Os	-4686
erem	-4687
▁confir	-4688
▁prepares	-4689
ez	-4690
sey	-4691
▁Larry	-4692
▁simple	-4693
▁factory	-4694
▁Margaret	-4695
▁assigned	-4696
▁eas	-4697
ording	-4698
▁helped	-4699
itious	-4700
▁compl	-4701
▁recent	-4702
▁bedroom	-4703
▁proposes	-4704
▁stealing	-4705
ugh	-4706
keep	-4707
▁Jed	-4708
▁hyp	-4709
▁evol	-4710
▁landed	-4711
▁contract	-4712
▁Francisco	-4713
▁performance	-4714
asts	-4715
essor	-4716
▁unus	-4717
▁video	-4718
rawling	-4719
▁apolog	-4720
▁abilities	-4721
▁hors	-4722
▁needed	-4723
▁unaware	-4724
▁clientele	-4725
cast	-4726
▁Nav	-4727
▁ver	-4728
icious	-4729
▁royal	-4730
▁spaces	-4731
▁heritage	-4732
ns	-4733
wor	-4734
odge	-4735
▁dece	-4736
▁extra	-4737
▁approach	-4738
▁consider	-4739
▁attracted	-4740
--	-4741
▁8	-4742
▁wel	-4743
▁Sing	-4744
▁Trav	-4745
▁didn	-4746
▁authorities	-4747
▁Ob	-4748
asha	-4749
▁195	-4750
▁Alf	-4751
▁odd	-4752
▁Moon	-4753
▁moon	-4754
▁Carter	-4755
▁impact	-4756
▁forward	-4757
▁carefully	-4758
aign	-4759
▁Sen	-4760
▁push	-4761
▁buried	-4762
▁blackmail	-4763
▁background	-4764
1,	-4765
zed	-4766
▁Tar	-4767
▁diss	-4768
▁empty	-4769
▁picks	-4770
▁center	-4771
▁Anthony	-4772
▁princip	-4773
▁distract	-4774
▁possession	-4775
▁opportunities	-4776
19	-4777
▁sch	-4778
▁Call	-4779
▁meth	-4780
▁fleet	-4781
▁membership	-4782
bro	-4783
ixt	-4784
rik	-4785
irty	-4786
▁Foll	-4787
▁stays	-4788
▁Amanda	-4789
▁engaged	-4790
ba	-4791
▁Cath	-4792
▁bull	-4793
▁fulf	-4794
▁Anton	-4795
▁descend	-4796
▁excelled	-4797
▁mountains	-4798
▁persuades	-4799
more	-4800
olic	-4801
found	-4802
▁Wend	-4803
▁coff	-4804
▁site	-4805
embers	-4806
ission	-4807
▁Molly	-4808
▁Roger	-4809
▁Stone	-4810
▁tribe	-4811
▁15	-4812
▁Day	-4813
▁Jay	-4814
lying	-4815
▁Scot	-4816
▁lake	-4817
▁cerem	-4818
▁belief	-4819
▁unwind	-4820
▁Germany	-4821
▁spending	-4822
gypt	-4823
lers	-4824
▁unh	-4825
eline	-4826
▁Every	-4827
▁counter	-4828
ela	-4829
▁Bra	-4830
▁Gra	-4831
▁swe	-4832
ennis	-4833
▁animal	-4834
▁channel	-4835
reen	-4836
▁Ele	-4837
steps	-4838
▁ming	-4839
▁Taylor	-4840
▁circum	-4841
▁example	-4842
mosp	-4843
▁Dep	-4844
hetic	-4845
▁Nicole	-4846
▁intends	-4847
▁shelter	-4848
▁claiming	-4849
▁conscious	-4850
▁traditional	-4851
▁jet	-4852
▁spl	-4853
encer	-4854
▁Death	-4855
▁Nancy	-4856
▁located	-4857
▁announces	-4858
key	-4859
onym	-4860
▁hig	-4861
claim	-4862
▁warm	-4863
▁Italy	-4864
▁remind	-4865
▁worlds	-4866
▁sprawling	-4867
vy	-4868
▁Ass	-4869
▁infilt	-4870
▁prompt	-4871
▁conspir	-4872
path	-4873
▁Mort	-4874
▁sole	-4875
▁conqu	-4876
▁Claire	-4877
▁atmosp	-4878
▁Austral	-4879
▁amassed	-4880
▁involving	-4881
2,	-4882
▁prior	-4883
inating	-4884
▁beaches	-4885
▁Victoria	-4886
▁studying	-4887
▁inhabitants	-4888
aos	-4889
▁ut	-4890
oles	-4891
▁Aud	-4892
▁rise	-4893
▁Maggie	-4894
▁sports	-4895
▁winter	-4896
▁respond	-4897
ura	-4898
▁latter	-4899
▁document	-4900
▁sleeping	-4901
▁individual	-4902
▁Ul	-4903
▁flat	-4904
itable	-4905
▁Sally	-4906
▁section	-4907
col	-4908
icop	-4909
▁rule	-4910
▁strike	-4911
▁bringing	-4912
▁vampires	-4913
▁footsteps	-4914
▁Dam	-4915
▁Lew	-4916
▁Lor	-4917
▁Ted	-4918
▁Arch	-4919
▁conce	-4920
▁image	-4921
▁table	-4922
▁ensured	-4923
▁contains	-4924
▁activities	-4925
▁discovering	-4926
oster	-4927
▁Marl	-4928
▁Sara	-4929
▁brands	-4930
lyn	-4931
▁Jesse	-4932
▁barely	-4933
▁crimes	-4934
▁argument	-4935
▁household	-4936
gs	-4937
kind	-4938
▁bra	-4939
▁touch	-4940
▁palace	-4941
▁language	-4942
▁vacation	-4943
▁establish	-4944
▁investigating	-4945
what	-4946
▁Bon	-4947
▁Sum	-4948
▁More	-4949
▁maid	-4950
▁Egypt	-4951
▁guide	-4952
▁consequ	-4953
▁campaign	-4954
▁presents	-4955
▁stranger	-4956
▁Following	-4957
▁Cra	-4958
▁Tex	-4959
▁ord	-4960
▁sab	-4961
▁Andre	-4962
▁Jamie	-4963
spector	-4964
▁Albert	-4965
▁hearing	-4966
▁prisoners	-4967
▁knocks	-4968
nes	-4969
▁Mas	-4970
▁Bell	-4971
▁Rand	-4972
▁roll	-4973
▁ranks	-4974
▁suppl	-4975
▁Twitter	-4976
▁inspiration	-4977
phs	-4978
▁Hun	-4979
▁Jes	-4980
▁rape	-4981
▁bridge	-4982
▁request	-4983
▁accepted	-4984
reek	-4985
vest	-4986
▁ven	-4987
eland	-4988
▁Professor	-4989
gic	-4990
ilty	-4991
▁gal	-4992
ste	-4993
▁Us	-4994
iller	-4995
ogether	-4996
▁forcing	-4997
▁charisma	-4998
▁reunited	-4999
▁emotional	-5000
▁cy	-5001
geon	-5002
▁Aunt	-5003
engers	-5004
▁Union	-5005
▁chases	-5006
▁double	-5007
▁resour	-5008
▁proceeds	-5009
▁extremely	-5010
▁frequently	-5011
pher	-5012
▁lady	-5013
▁lavish	-5014
▁reject	-5015
▁Chicago	-5016
▁director	-5017
▁CIA	-5018
▁Leo	-5019
▁Rom	-5020
worth	-5021
▁Vick	-5022
▁cuts	-5023
▁squad	-5024
▁dismiss	-5025
sp	-5026
▁Ral	-5027
▁Real	-5028
▁resort	-5029
▁arriving	-5030
▁Catherine	-5031
▁explosion	-5032
▁Chief	-5033
▁Stephanie	-5034
porary	-5035
▁ordered	-5036
▁separate	-5037
▁Tur	-5038
▁Flor	-5039
▁somet	-5040
▁Luxury	-5041
▁published	-5042
▁restoration	-5043
da	-5044
ato	-5045
esh	-5046
▁saving	-5047
▁workers	-5048
▁demanding	-5049
▁enthusias	-5050
▁expertise	-5051
▁193	-5052
▁Air	-5053
▁bond	-5054
▁felt	-5055
▁labor	-5056
▁Linked	-5057
▁chosen	-5058
▁novels	-5059
▁wounds	-5060
▁atmosphere	-5061
raid	-5062
▁stone	-5063
▁arrange	-5064
▁happily	-5065
▁LinkedIn	-5066
▁reckoned	-5067
▁connections	-5068
ji	-5069
▁mix	-5070
▁Annie	-5071
▁Steven	-5072
▁helicop	-5073
ieces	-5074
▁golf	-5075
▁sust	-5076
▁Diana	-5077
▁River	-5078
▁cruel	-5079
▁twins	-5080
▁cultural	-5081
▁strength	-5082
▁professor	-5083
▁Gen	-5084
▁prec	-5085
▁closer	-5086
▁Emperor	-5087
▁stopped	-5088
roc	-5089
▁Oz	-5090
▁Syl	-5091
▁fired	-5092
▁worse	-5093
▁scenes	-5094
▁abandon	-5095
▁receive	-5096
▁invasion	-5097
▁relationships	-5098
zo	-5099
▁Pri	-5100
▁ren	-5101
uccess	-5102
▁flies	-5103
▁asleep	-5104
▁garden	-5105
▁region	-5106
ria	-5107
mann	-5108
▁Nap	-5109
▁Ton	-5110
▁mas	-5111
▁libr	-5112
ighter	-5113
▁Court	-5114
▁Ellen	-5115
▁border	-5116
▁consult	-5117
▁rac	-5118
▁Marsh	-5119
▁drops	-5120
▁teach	-5121
ossible	-5122
▁Gordon	-5123
▁throne	-5124
▁escaping	-5125
▁expected	-5126
▁hur	-5127
▁Beck	-5128
▁dogs	-5129
▁duel	-5130
▁necess	-5131
▁conclus	-5132
met	-5133
▁rit	-5134
▁raid	-5135
▁Ashley	-5136
▁collaps	-5137
▁Dis	-5138
▁Gil	-5139
▁Hill	-5140
▁Hannah	-5141
▁guilty	-5142
▁clothing	-5143
▁navigate	-5144
▁development	-5145
ika	-5146
ipl	-5147
▁Bh	-5148
ifts	-5149
▁Jun	-5150
▁Way	-5151
▁Khan	-5152
▁fake	-5153
▁exhib	-5154
▁lovers	-5155
▁method	-5156
▁thanks	-5157
▁videos	-5158
▁dim	-5159
▁tot	-5160
anced	-5161
▁Hard	-5162
▁stars	-5163
▁Virginia	-5164
▁Inspector	-5165
ss	-5166
▁("	-5167
▁pup	-5168
▁rum	-5169
▁Lily	-5170
▁focus	-5171
▁adopted	-5172
▁pursued	-5173
▁gradually	-5174
▁prostitute	-5175
▁unl	-5176
▁gall	-5177
charge	-5178
▁anger	-5179
▁manip	-5180
▁smugg	-5181
▁Vincent	-5182
▁circumst	-5183
▁standing	-5184
▁considered	-5185
▁scientists	-5186
▁subsequently	-5187
▁id	-5188
▁Kay	-5189
▁Rud	-5190
echan	-5191
ivity	-5192
▁nest	-5193
ointed	-5194
▁hench	-5195
▁chapters	-5196
▁features	-5197
▁painting	-5198
▁Ts	-5199
▁lay	-5200
ashed	-5201
▁Seth	-5202
▁queen	-5203
▁native	-5204
▁scheme	-5205
▁Alexander	-5206
▁passionate	-5207
ables	-5208
▁fans	-5209
▁Grace	-5210
▁Since	-5211
▁check	-5212
▁equip	-5213
▁nurse	-5214
▁instit	-5215
▁answers	-5216
▁assassin	-5217
▁facility	-5218
▁disappeared	-5219
eer	-5220
adise	-5221
alled	-5222
▁Here	-5223
▁bust	-5224
▁adult	-5225
▁cliff	-5226
▁arrived	-5227
olk	-5228
▁Jr	-5229
ffic	-5230
ilst	-5231
andra	-5232
inity	-5233
▁troops	-5234
▁TV	-5235
iable	-5236
ado	-5237
▁spa	-5238
ifies	-5239
▁Even	-5240
▁badly	-5241
ih	-5242
agn	-5243
nam	-5244
▁Ba	-5245
▁Rad	-5246
▁acts	-5247
▁poet	-5248
▁Travis	-5249
▁cutting	-5250
▁entrepreneurs	-5251
zen	-5252
▁Ax	-5253
ales	-5254
▁tom	-5255
▁Nazi	-5256
▁coup	-5257
▁species	-5258
▁Nicholas	-5259
▁surviving	-5260
do	-5261
reck	-5262
▁Log	-5263
▁oil	-5264
andal	-5265
▁Mars	-5266
▁ones	-5267
▁Marcus	-5268
▁Valley	-5269
▁defend	-5270
▁sending	-5271
▁surprised	-5272
▁population	-5273
otes	-5274
▁Julian	-5275
▁beaten	-5276
▁taught	-5277
▁enchant	-5278
board	-5279
stairs	-5280
▁grown	-5281
▁shape	-5282
▁steps	-5283
▁pressure	-5284
▁Ac	-5285
▁Pin	-5286
▁trav	-5287
▁daily	-5288
▁grabs	-5289
▁paper	-5290
▁dressed	-5291
▁recognizing	-5292
#3	-5293
▁16	-5294
▁Pan	-5295
▁opt	-5296
▁Viet	-5297
antage	-5298
▁forms	-5299
▁hires	-5300
▁aliens	-5301
▁reconc	-5302
cen	-5303
ols	-5304
ante	-5305
iane	-5306
unch	-5307
▁card	-5308
▁deals	-5309
▁jumps	-5310
▁relax	-5311
▁disease	-5312
▁projects	-5313
▁confronted	-5314
eted	-5315
rier	-5316
▁paid	-5317
▁lines	-5318
▁reads	-5319
▁solve	-5320
▁declares	-5321
▁surrounding	-5322
▁ast	-5323
anish	-5324
▁brutal	-5325
▁boarding	-5326
▁companion	-5327
▁philosoph	-5328
nda	-5329
rael	-5330
astic	-5331
▁Each	-5332
▁Jesus	-5333
▁Serge	-5334
▁colleagues	-5335
▁management	-5336
acks	-5337
body	-5338
inals	-5339
▁guns	-5340
people	-5341
uments	-5342
▁grave	-5343
▁ensues	-5344
▁sneaks	-5345
▁awakens	-5346
▁robbery	-5347
▁concerns	-5348
▁survives	-5349
ala	-5350
▁Sud	-5351
▁wer	-5352
▁Hell	-5353
▁Only	-5354
▁none	-5355
▁tick	-5356
▁pride	-5357
▁keeping	-5358
▁singing	-5359
▁controll	-5360
▁provides	-5361
▁survived	-5362
▁execution	-5363
▁realizing	-5364
▁disappearance	-5365
▁Sy	-5366
essa	-5367
omed	-5368
▁lon	-5369
power	-5370
▁Cind	-5371
▁Good	-5372
▁Kyle	-5373
▁trib	-5374
▁Along	-5375
▁relig	-5376
▁Donald	-5377
▁waters	-5378
▁constant	-5379
▁fondness	-5380
▁somewhat	-5381
▁involvement	-5382
enc	-5383
▁Eth	-5384
▁typ	-5385
▁nick	-5386
▁Miles	-5387
▁false	-5388
▁horses	-5389
▁rebell	-5390
▁shares	-5391
▁failure	-5392
▁hunting	-5393
▁ceremony	-5394
▁separated	-5395
▁eth	-5396
▁fix	-5397
entle	-5398
▁Priv	-5399
▁Sever	-5400
▁faces	-5401
▁mechan	-5402
▁trends	-5403
▁custody	-5404
▁encourag	-5405
▁intended	-5406
▁terrible	-5407
aze	-5408
▁Fin	-5409
▁Marth	-5410
▁motor	-5411
▁colony	-5412
▁thousands	-5413
▁treatment	-5414
ams	-5415
edge	-5416
▁Other	-5417
▁notes	-5418
outhern	-5419
▁passengers	-5420
▁maintaining	-5421
phy	-5422
▁Mick	-5423
▁artif	-5424
▁Church	-5425
▁season	-5426
▁Britain	-5427
▁reluctant	-5428
▁Squ	-5429
▁alter	-5430
▁lying	-5431
▁illness	-5432
▁inherit	-5433
▁sacrifice	-5434
▁recognizes	-5435
▁Its	-5436
▁Ren	-5437
▁Ret	-5438
▁lie	-5439
▁ahead	-5440
▁fully	-5441
▁Jewish	-5442
▁involves	-5443
gen	-5444
▁laugh	-5445
▁football	-5446
ko	-5447
▁Jord	-5448
▁mart	-5449
▁stal	-5450
▁Phill	-5451
▁adopt	-5452
righten	-5453
▁easily	-5454
▁riding	-5455
▁stands	-5456
▁briefly	-5457
▁enjoying	-5458
▁Charlotte	-5459
▁afterwards	-5460
iro	-5461
roy	-5462
ferred	-5463
▁Howard	-5464
▁airport	-5465
▁unusual	-5466
▁concludes	-5467
▁innovative	-5468
iple	-5469
▁Ast	-5470
▁Aug	-5471
▁Rub	-5472
▁Vol	-5473
isted	-5474
▁hole	-5475
▁larg	-5476
alleled	-5477
▁Nathan	-5478
▁Second	-5479
▁notice	-5480
▁rushes	-5481
▁distant	-5482
▁hurt	-5483
istine	-5484
▁stabs	-5485
▁citizens	-5486
▁collector	-5487
▁Lieutenant	-5488
ipe	-5489
▁Barry	-5490
▁punish	-5491
▁passing	-5492
duce	-5493
itty	-5494
ties	-5495
▁Pen	-5496
▁stumb	-5497
▁combat	-5498
▁speech	-5499
▁Dem	-5500
▁Conf	-5501
▁Fire	-5502
▁Joan	-5503
▁Long	-5504
▁frag	-5505
▁sheriff	-5506
▁psychiat	-5507
▁civilization	-5508
▁Ka	-5509
▁du	-5510
rial	-5511
▁cand	-5512
▁ideas	-5513
▁Darren	-5514
▁balance	-5515
▁fishing	-5516
▁managed	-5517
▁succeeds	-5518
▁intention	-5519
▁unsuccess	-5520
arp	-5521
mon	-5522
hand	-5523
▁gay	-5524
urban	-5525
▁armed	-5526
▁Spanish	-5527
▁rejects	-5528
▁confrontation	-5529
stein	-5530
▁Cont	-5531
▁Port	-5532
▁champ	-5533
▁sport	-5534
▁Miller	-5535
▁furious	-5536
▁therefore	-5537
▁conclusion	-5538
ails	-5539
▁nep	-5540
▁sin	-5541
▁Also	-5542
▁cart	-5543
▁ensure	-5544
▁immers	-5545
▁settle	-5546
▁chooses	-5547
▁possibly	-5548
ima	-5549
yard	-5550
▁Arm	-5551
▁Guy	-5552
ravag	-5553
▁Norm	-5554
▁Major	-5555
▁Young	-5556
▁answer	-5557
▁fiance	-5558
▁insane	-5559
▁Detective	-5560
▁villagers	-5561
▁captivating	-5562
haps	-5563
▁Hay	-5564
▁Shel	-5565
▁Const	-5566
▁judge	-5567
▁Private	-5568
▁prepare	-5569
▁extravag	-5570
▁recharge	-5571
▁Christine	-5572
▁Bor	-5573
enger	-5574
atural	-5575
▁Ralph	-5576
▁beats	-5577
▁rules	-5578
▁tricks	-5579
▁heavily	-5580
▁demonstr	-5581
▁pristine	-5582
paralleled	-5583
3,	-5584
aunt	-5585
unte	-5586
▁Row	-5587
▁bes	-5588
▁crush	-5589
▁groom	-5590
▁victory	-5591
▁warning	-5592
▁unparalleled	-5593
▁12	-5594
aire	-5595
hest	-5596
olph	-5597
▁der	-5598
▁bill	-5599
▁tunn	-5600
ellect	-5601
▁Anita	-5602
▁Castle	-5603
▁acting	-5604
▁nephew	-5605
▁providing	-5606
isy	-5607
appy	-5608
▁Att	-5609
ronic	-5610
▁roof	-5611
▁virt	-5612
▁wear	-5613
▁forget	-5614
▁invent	-5615
▁commits	-5616
▁illegal	-5617
▁executed	-5618
.)	-5619
yo	-5620
▁ecc	-5621
ctors	-5622
▁cure	-5623
▁dism	-5624
▁mine	-5625
▁sort	-5626
▁strate	-5627
▁actress	-5628
▁systems	-5629
▁positive	-5630
▁socially	-5631
▁remembers	-5632
▁impossible	-5633
▁Bert	-5634
itchen	-5635
▁chaos	-5636
ections	-5637
▁August	-5638
▁shadow	-5639
▁central	-5640
▁crashes	-5641
inct	-5642
▁Viv	-5643
▁cris	-5644
▁twin	-5645
uality	-5646
▁diary	-5647
▁heavy	-5648
▁round	-5649
▁nation	-5650
▁Another	-5651
▁newfound	-5652
▁engagement	-5653
▁accompanied	-5654
▁Lo	-5655
igan	-5656
okes	-5657
scar	-5658
▁Atl	-5659
▁Sel	-5660
▁Holl	-5661
▁sear	-5662
▁legal	-5663
▁shock	-5664
▁meticul	-5665
▁starting	-5666
oms	-5667
iner	-5668
▁Jedi	-5669
▁Wild	-5670
▁skin	-5671
entric	-5672
▁Swiss	-5673
▁finish	-5674
▁burning	-5675
▁descript	-5676
▁advantage	-5677
ras	-5678
▁Li	-5679
orney	-5680
▁Cole	-5681
▁pros	-5682
▁clues	-5683
▁minor	-5684
▁groups	-5685
▁effects	-5686
▁challenge	-5687
▁egg	-5688
woman	-5689
▁Fore	-5690
▁Gene	-5691
▁Thor	-5692
▁begs	-5693
▁mask	-5694
▁serve	-5695
▁landscape	-5696
▁promising	-5697
▁companions	-5698
oir	-5699
▁Ak	-5700
iday	-5701
rict	-5702
▁Ali	-5703
▁Carm	-5704
▁Kath	-5705
▁blue	-5706
▁Using	-5707
▁alleg	-5708
▁demand	-5709
▁slaves	-5710
▁Melissa	-5711
▁accused	-5712
▁Together	-5713
▁inspired	-5714
▁movement	-5715
gun	-5716
oto	-5717
▁wa	-5718
look	-5719
▁Dec	-5720
▁Daff	-5721
▁Barbara	-5722
▁treated	-5723
▁talented	-5724
▁teenager	-5725
▁helicopter	-5726
Ch	-5727
ano	-5728
opp	-5729
cles	-5730
antha	-5731
▁Megan	-5732
▁Royal	-5733
▁north	-5734
▁carries	-5735
▁Catholic	-5736
▁residents	-5737
▁containing	-5738
▁Ty	-5739
ador	-5740
▁Jill	-5741
▁Blake	-5742
▁demons	-5743
▁seduct	-5744
▁contacts	-5745
▁presented	-5746
ef	-5747
reet	-5748
▁Bri	-5749
▁Ned	-5750
▁text	-5751
▁Valent	-5752
▁horror	-5753
▁loving	-5754
▁Jackson	-5755
▁reports	-5756
inic	-5757
wise	-5758
▁sib	-5759
▁tax	-5760
▁outs	-5761
▁rend	-5762
▁wolf	-5763
ifying	-5764
▁green	-5765
▁sanct	-5766
▁allies	-5767
▁satisf	-5768
usive	-5769
▁Emma	-5770
▁Stev	-5771
▁Clark	-5772
▁route	-5773
▁moments	-5774
▁instruct	-5775
▁magnetic	-5776
▁perspect	-5777
▁Hollywood	-5778
▁sometimes	-5779
▁investment	-5780
asm	-5781
how	-5782
ito	-5783
▁Fox	-5784
▁overw	-5785
▁volunte	-5786
▁intellect	-5787
▁threatening	-5788
▁feed	-5789
▁oppos	-5790
▁afraid	-5791
▁theater	-5792
▁repeatedly	-5793
hr	-5794
pat	-5795
yler	-5796
▁Res	-5797
▁bit	-5798
▁Blue	-5799
▁Cons	-5800
isting	-5801
▁Krist	-5802
▁catered	-5803
▁display	-5804
▁hanging	-5805
▁mistress	-5806
▁obsessed	-5807
▁practice	-5808
▁assassination	-5809
▁circumstances	-5810
reg	-5811
▁Av	-5812
▁Buck	-5813
▁gamb	-5814
▁rout	-5815
orious	-5816
▁Sophie	-5817
▁dealer	-5818
▁speaks	-5819
▁invested	-5820
olds	-5821
▁below	-5822
▁fires	-5823
▁Walker	-5824
▁focuses	-5825
▁greatest	-5826
▁preparing	-5827
▁sentenced	-5828
aled	-5829
▁Oliv	-5830
▁Imper	-5831
▁throw	-5832
onymous	-5833
▁Martha	-5834
▁convent	-5835
▁granted	-5836
▁reasons	-5837
▁sitting	-5838
▁strikes	-5839
▁elements	-5840
▁eccentric	-5841
▁interrupted	-5842
udd	-5843
wal	-5844
▁App	-5845
▁Bat	-5846
asted	-5847
otion	-5848
rence	-5849
▁cash	-5850
▁prob	-5851
▁virus	-5852
▁Cassie	-5853
▁mercen	-5854
▁extensive	-5855
▁accessories	-5856
osc	-5857
▁duty	-5858
▁coach	-5859
▁Samantha	-5860
▁Americans	-5861
▁resources	-5862
▁Hit	-5863
▁Pac	-5864
▁Sin	-5865
▁obl	-5866
uated	-5867
▁Many	-5868
▁indeed	-5869
▁manner	-5870
▁frighten	-5871
▁isolated	-5872
▁construction	-5873
iy	-5874
berg	-5875
▁Sur	-5876
▁nurs	-5877
▁rail	-5878
▁trop	-5879
▁doubt	-5880
▁revel	-5881
▁Israel	-5882
▁Johnson	-5883
▁initial	-5884
▁friendly	-5885
▁philanthropist	-5886
imp	-5887
▁Cad	-5888
actic	-5889
▁drop	-5890
▁tape	-5891
▁draws	-5892
▁timep	-5893
▁owners	-5894
▁select	-5895
▁supern	-5896
▁contest	-5897
elve	-5898
resh	-5899
uffy	-5900
▁lad	-5901
▁Lion	-5902
▁anti	-5903
▁lush	-5904
angers	-5905
▁sabot	-5906
▁torture	-5907
lie	-5908
hatt	-5909
▁Dex	-5910
▁Mus	-5911
▁Pete	-5912
attered	-5913
▁bright	-5914
▁intrig	-5915
▁serial	-5916
▁apprent	-5917
▁exactly	-5918
▁religion	-5919
▁commander	-5920
iah	-5921
▁--	-5922
ught	-5923
▁Lyn	-5924
▁Drac	-5925
▁Lewis	-5926
▁Night	-5927
▁gains	-5928
▁thief	-5929
mission	-5930
▁poring	-5931
▁accuses	-5932
▁curated	-5933
▁superior	-5934
▁attempted	-5935
▁terrorist	-5936
▁responsibility	-5937
bit	-5938
▁rej	-5939
icked	-5940
▁Gary	-5941
▁edge	-5942
▁carried	-5943
▁occasion	-5944
▁considers	-5945
▁prominent	-5946
▁fab	-5947
▁Andy	-5948
▁Carr	-5949
▁Four	-5950
▁Zach	-5951
▁goal	-5952
▁Force	-5953
▁paint	-5954
▁veter	-5955
▁issues	-5956
▁interrog	-5957
club	-5958
fast	-5959
reme	-5960
▁Corn	-5961
▁Hong	-5962
▁agre	-5963
urance	-5964
▁upper	-5965
▁pursues	-5966
▁disguise	-5967
▁originally	-5968
rad	-5969
▁Men	-5970
▁Seb	-5971
amber	-5972
▁photos	-5973
▁charges	-5974
▁Eva	-5975
▁Ric	-5976
▁Suz	-5977
▁sem	-5978
▁Coun	-5979
▁avid	-5980
▁honor	-5981
▁spots	-5982
▁Wilson	-5983
▁kitchen	-5984
▁partners	-5985
▁suspicion	-5986
▁impressive	-5987
uted	-5988
▁...	-5989
▁Dawn	-5990
▁rage	-5991
▁Super	-5992
▁actual	-5993
▁crystal	-5994
▁lessons	-5995
▁designed	-5996
▁multiple	-5997
▁recovers	-5998
▁designers	-5999
bid	-6000
▁Chand	-6001
▁value	-6002
▁venge	-6003
▁Dennis	-6004
▁obvious	-6005
▁selling	-6006
▁teaches	-6007
▁ambition	-6008
▁bustling	-6009
▁informed	-6010
▁assistance	-6011
tim	-6012
zie	-6013
▁Cre	-6014
▁Doc	-6015
▁Chap	-6016
▁cuis	-6017
▁fier	-6018
▁traum	-6019
▁bottle	-6020
▁devoted	-6021
▁penchant	-6022
Th	-6023
mir	-6024
▁fool	-6025
▁jung	-6026
▁Mason	-6027
▁avail	-6028
▁raped	-6029
▁Jeremy	-6030
▁mirror	-6031
▁Manhatt	-6032
▁defeated	-6033
hens	-6034
isha	-6035
▁legs	-6036
▁righ	-6037
▁Daffy	-6038
working	-6039
▁corpor	-6040
▁gentle	-6041
▁houses	-6042
▁putting	-6043
▁winning	-6044
▁criminals	-6045
▁Dean	-6046
▁cann	-6047
▁trio	-6048
▁Jordan	-6049
▁Silver	-6050
▁emerges	-6051
▁justice	-6052
▁warrior	-6053
▁acquaint	-6054
▁arranges	-6055
▁offering	-6056
▁reporter	-6057
▁14	-6058
bell	-6059
▁Lake	-6060
▁rain	-6061
erning	-6062
▁brill	-6063
▁assumes	-6064
▁creates	-6065
▁nightclub	-6066
▁discerning	-6067
▁journalist	-6068
iko	-6069
apers	-6070
▁Tiff	-6071
iments	-6072
▁Romeo	-6073
▁races	-6074
▁trips	-6075
▁senior	-6076
▁Dorothy	-6077
▁portray	-6078
▁Manhattan	-6079
▁concerned	-6080
▁consciousness	-6081
drop	-6082
▁lap	-6083
▁sky	-6084
leton	-6085
▁schol	-6086
▁choose	-6087
▁circle	-6088
▁ritual	-6089
▁defeats	-6090
▁overcome	-6091
fe	-6092
erc	-6093
gers	-6094
▁pul	-6095
▁Neil	-6096
▁rose	-6097
keeper	-6098
orthern	-6099
▁climax	-6100
▁damage	-6101
▁struct	-6102
▁emotion	-6103
▁significant	-6104
▁Bu	-6105
▁Dut	-6106
▁Tan	-6107
▁Pear	-6108
▁Oscar	-6109
▁month	-6110
▁sides	-6111
▁Oliver	-6112
▁Russell	-6113
▁ensuing	-6114
▁foreign	-6115
▁pastime	-6116
▁showcase	-6117
uzz	-6118
acle	-6119
gett	-6120
ints	-6121
▁Ale	-6122
▁Tak	-6123
▁fuel	-6124
▁chair	-6125
▁Secret	-6126
▁merely	-6127
▁Jeffrey	-6128
▁beneath	-6129
▁conduct	-6130
▁supplies	-6131
▁tropical	-6132
▁reconcile	-6133
▁competition	-6134
star	-6135
▁Time	-6136
▁elim	-6137
▁secl	-6138
▁broad	-6139
▁tower	-6140
▁Mother	-6141
▁fiction	-6142
▁bathroom	-6143
▁protection	-6144
azz	-6145
▁bom	-6146
▁buys	-6147
▁fish	-6148
▁Georg	-6149
▁Irish	-6150
▁homes	-6151
▁south	-6152
▁Kimber	-6153
▁amount	-6154
▁larger	-6155
")	-6156
ees	-6157
▁Som	-6158
▁Tok	-6159
▁pit	-6160
▁Anim	-6161
▁Hist	-6162
▁feet	-6163
▁unit	-6164
▁Craig	-6165
▁Daisy	-6166
▁choices	-6167
▁infected	-6168
lim	-6169
enna	-6170
foot	-6171
▁Fur	-6172
▁Pam	-6173
elson	-6174
opean	-6175
which	-6176
▁curse	-6177
▁medic	-6178
▁persuade	-6179
▁restored	-6180
ero	-6181
▁Kam	-6182
▁Curt	-6183
▁Fair	-6184
▁ruth	-6185
▁Baron	-6186
▁Logan	-6187
▁battles	-6188
▁cuisine	-6189
▁distance	-6190
▁centuries	-6191
▁struggling	-6192
▁academically	-6193
gery	-6194
gged	-6195
uces	-6196
▁Arab	-6197
▁elev	-6198
▁Diane	-6199
▁Griff	-6200
▁models	-6201
▁eagerly	-6202
▁sanctuary	-6203
▁conditions	-6204
▁scientific	-6205
itan	-6206
▁aim	-6207
▁hab	-6208
▁Pier	-6209
▁mouth	-6210
▁wheel	-6211
▁occurs	-6212
▁Leonard	-6213
▁perhaps	-6214
rim	-6215
oker	-6216
quar	-6217
▁Cry	-6218
▁lord	-6219
▁Wendy	-6220
▁chest	-6221
▁pages	-6222
▁territ	-6223
▁encourages	-6224
▁Cir	-6225
▁Hub	-6226
icken	-6227
▁Horn	-6228
▁shap	-6229
▁decor	-6230
▁Freddy	-6231
▁reward	-6232
▁Tiffany	-6233
▁overhears	-6234
▁shoulders	-6235
osh	-6236
see	-6237
▁Tra	-6238
ulate	-6239
▁Bart	-6240
▁likes	-6241
▁negot	-6242
▁werew	-6243
▁Berlin	-6244
▁looked	-6245
▁quality	-6246
resp	-6247
▁Sad	-6248
▁gem	-6249
▁Conn	-6250
▁Dere	-6251
▁Gray	-6252
▁copy	-6253
▁dwar	-6254
▁luck	-6255
▁Texas	-6256
▁humil	-6257
▁instr	-6258
rifying	-6259
▁kisses	-6260
▁address	-6261
▁Kimberly	-6262
ishop	-6263
oston	-6264
▁blow	-6265
▁Lucas	-6266
▁kidnap	-6267
▁showed	-6268
▁wonder	-6269
▁included	-6270
▁progress	-6271
tle	-6272
▁Lam	-6273
▁Karl	-6274
▁Most	-6275
▁ranch	-6276
▁dating	-6277
▁temple	-6278
▁worker	-6279
▁deceased	-6280
▁survival	-6281
mo	-6282
ira	-6283
▁13	-6284
dest	-6285
▁voy	-6286
ateful	-6287
▁Harold	-6288
▁lights	-6289
▁wanting	-6290
▁betrayed	-6291
▁creations	-6292
▁disguised	-6293
▁necessary	-6294
vis	-6295
▁Ko	-6296
case	-6297
▁Apr	-6298
▁Hum	-6299
▁map	-6300
point	-6301
ponse	-6302
▁Navy	-6303
▁Greek	-6304
▁films	-6305
▁rides	-6306
▁bitter	-6307
▁likely	-6308
▁propos	-6309
▁advances	-6310
▁secretary	-6311
▁accomplish	-6312
va	-6313
arsh	-6314
ribe	-6315
▁Inf	-6316
olves	-6317
▁Bent	-6318
▁YouT	-6319
▁myth	-6320
▁flood	-6321
▁Shadow	-6322
▁remark	-6323
▁screen	-6324
▁evident	-6325
▁patient	-6326
▁siblings	-6327
▁vacations	-6328
▁resistance	-6329
▁intelligent	-6330
▁professionals	-6331
ati	-6332
una	-6333
icts	-6334
rell	-6335
▁Ivan	-6336
▁Shaw	-6337
▁coin	-6338
▁page	-6339
▁rural	-6340
▁theme	-6341
▁argues	-6342
▁circus	-6343
▁Raymond	-6344
▁doctors	-6345
▁pirates	-6346
▁straight	-6347
▁teaching	-6348
▁throwing	-6349
▁ancestors	-6350
▁perspective	-6351
ye	-6352
▁Acc	-6353
▁Jen	-6354
▁Mah	-6355
▁Sab	-6356
owned	-6357
▁Cher	-6358
▁Kenn	-6359
▁seam	-6360
master	-6361
▁lonely	-6362
▁Frances	-6363
▁martial	-6364
▁sustain	-6365
▁response	-6366
▁flourished	-6367
erie	-6368
▁Ross	-6369
▁jump	-6370
urning	-6371
▁Dexter	-6372
▁Russia	-6373
▁therap	-6374
▁deliber	-6375
▁minutes	-6376
▁aircraft	-6377
▁supposedly	-6378
▁transformed	-6379
roat	-6380
▁Vik	-6381
▁joy	-6382
▁rif	-6383
oland	-6384
▁April	-6385
▁ended	-6386
▁ruins	-6387
▁speed	-6388
▁walls	-6389
▁chased	-6390
▁secure	-6391
▁haunted	-6392
▁backdrop	-6393
▁sexually	-6394
▁residence	-6395
5,	-6396
but	-6397
gas	-6398
enth	-6399
road	-6400
ucts	-6401
▁fif	-6402
inist	-6403
uther	-6404
water	-6405
▁dram	-6406
▁Boston	-6407
▁immort	-6408
▁refuse	-6409
▁theory	-6410
▁entertain	-6411
don	-6412
book	-6413
inda	-6414
▁Lil	-6415
▁Sid	-6416
eling	-6417
fight	-6418
ourne	-6419
▁Clay	-6420
▁Guard	-6421
▁Marian	-6422
▁crisis	-6423
▁escort	-6424
▁Bernard	-6425
▁attends	-6426
▁captive	-6427
▁players	-6428
▁national	-6429
▁ultimate	-6430
▁Christina	-6431
▁consequences	-6432
oku	-6433
icia	-6434
▁Dra	-6435
▁Fle	-6436
▁Kit	-6437
▁vows	-6438
ington	-6439
▁games	-6440
▁drunken	-6441
▁episode	-6442
▁possessed	-6443
▁seriously	-6444
▁kidnapping	-6445
0,	-6446
fl	-6447
girl	-6448
rich	-6449
▁Sav	-6450
iring	-6451
▁Sylv	-6452
▁debt	-6453
idance	-6454
▁noble	-6455
▁YouTube	-6456
▁readers	-6457
▁meanwhile	-6458
▁collecting	-6459
aron	-6460
▁Las	-6461
▁Ten	-6462
▁robot	-6463
▁signs	-6464
▁dancing	-6465
▁library	-6466
▁threatened	-6467
icing	-6468
▁Maur	-6469
▁Grant	-6470
▁Marco	-6471
▁solid	-6472
▁League	-6473
▁abduct	-6474
▁cancer	-6475
▁transl	-6476
▁defense	-6477
▁Imperial	-6478
▁destined	-6479
▁Wy	-6480
▁Joy	-6481
orned	-6482
umber	-6483
▁genu	-6484
▁vess	-6485
▁explo	-6486
▁frees	-6487
▁sneak	-6488
ography	-6489
▁critic	-6490
▁Wallace	-6491
▁divided	-6492
▁neither	-6493
▁objects	-6494
▁retired	-6495
▁European	-6496
▁Scotland	-6497
▁mistaken	-6498
▁supernatural	-6499
aya	-6500
oria	-6501
▁Mid	-6502
▁ski	-6503
opper	-6504
▁cats	-6505
▁tank	-6506
umably	-6507
▁Donna	-6508
▁Storm	-6509
▁abuse	-6510
▁perman	-6511
▁courage	-6512
▁grounds	-6513
▁weekend	-6514
▁frustrated	-6515
▁leadership	-6516
auc	-6517
oop	-6518
ache	-6519
fire	-6520
▁Cross	-6521
▁serves	-6522
ographer	-6523
▁Kingdom	-6524
▁capable	-6525
▁Williams	-6526
▁directly	-6527
▁overwhel	-6528
▁patients	-6529
arre	-6530
pson	-6531
▁nor	-6532
iture	-6533
▁Derek	-6534
▁Polly	-6535
▁embod	-6536
▁trigg	-6537
▁burned	-6538
▁eating	-6539
quarters	-6540
▁Florida	-6541
▁marrying	-6542
▁searches	-6543
▁enthusiasts	-6544
▁Ari	-6545
▁Ern	-6546
▁asp	-6547
▁flo	-6548
▁Kong	-6549
▁clan	-6550
▁pian	-6551
▁grief	-6552
▁subst	-6553
▁Sandra	-6554
▁matters	-6555
▁Katherine	-6556
▁neighbors	-6557
▁seductive	-6558
hess	-6559
▁Cas	-6560
▁bab	-6561
▁ran	-6562
▁risk	-6563
▁scar	-6564
raught	-6565
▁Tyler	-6566
▁diver	-6567
▁split	-6568
▁Hitler	-6569
▁Intern	-6570
▁bullet	-6571
▁approached	-6572
▁subsequent	-6573
▁experienced	-6574
iper	-6575
wing	-6576
▁Kal	-6577
grily	-6578
▁dont	-6579
ottage	-6580
▁miles	-6581
▁wrote	-6582
artment	-6583
▁Battle	-6584
▁Jackie	-6585
▁mostly	-6586
▁wizard	-6587
▁angrily	-6588
▁replies	-6589
▁Caroline	-6590
▁happiness	-6591
',	-6592
erk	-6593
mit	-6594
▁fo	-6595
oking	-6596
▁Ethan	-6597
▁begun	-6598
estrian	-6599
▁Louise	-6600
▁dealing	-6601
▁fitness	-6602
▁guidance	-6603
▁stronger	-6604
umn	-6605
▁21	-6606
wart	-6607
eries	-6608
▁Kent	-6609
▁Love	-6610
ranged	-6611
▁guest	-6612
▁minds	-6613
▁beings	-6614
▁locate	-6615
enthouse	-6616
▁earning	-6617
▁serving	-6618
▁paradise	-6619
▁severely	-6620
▁primarily	-6621
▁attraction	-6622
▁explaining	-6623
uts	-6624
▁Ap	-6625
edly	-6626
▁Ban	-6627
▁Sak	-6628
iplom	-6629
▁Case	-6630
▁Floren	-6631
▁cities	-6632
▁studio	-6633
▁desires	-6634
▁explores	-6635
▁ambitious	-6636
▁interests	-6637
7,	-6638
iot	-6639
▁Whe	-6640
guard	-6641
phone	-6642
▁Tess	-6643
▁pays	-6644
▁Tracy	-6645
▁bests	-6646
▁Patric	-6647
▁implic	-6648
▁infant	-6649
▁remove	-6650
▁strand	-6651
▁Heather	-6652
▁advanced	-6653
▁ensuring	-6654
▁thousand	-6655
▁Om	-6656
mark	-6657
▁Cab	-6658
▁Hon	-6659
▁Nob	-6660
▁hob	-6661
▁Girl	-6662
▁Cliff	-6663
▁actor	-6664
▁sales	-6665
▁stuck	-6666
▁afford	-6667
▁knocked	-6668
▁mistake	-6669
▁entirely	-6670
▁opulence	-6671
▁politics	-6672
▁ruthless	-6673
▁youngest	-6674
▁nin	-6675
aders	-6676
aming	-6677
▁Earl	-6678
▁Snow	-6679
▁code	-6680
▁aspir	-6681
▁benef	-6682
▁blame	-6683
▁withd	-6684
▁agency	-6685
▁Western	-6686
▁zombies	-6687
▁captures	-6688
'.	-6689
ban	-6690
anner	-6691
▁Erik	-6692
ificial	-6693
▁Sebast	-6694
▁delight	-6695
▁edition	-6696
▁finance	-6697
▁meantime	-6698
▁services	-6699
▁Realizing	-6700
▁otherwise	-6701
▁physically	-6702
▁timepieces	-6703
▁complicated	-6704
▁unexpectedly	-6705
▁ec	-6706
alie	-6707
▁Bas	-6708
▁Hank	-6709
▁anal	-6710
▁user	-6711
▁fresh	-6712
▁closes	-6713
▁silver	-6714
▁brutally	-6715
▁insights	-6716
▁tortured	-6717
▁troubled	-6718
▁warriors	-6719
▁collapses	-6720
▁expresses	-6721
▁receiving	-6722
▁assignment	-6723
▁attractive	-6724
▁11	-6725
▁Il	-6726
▁hell	-6727
▁tied	-6728
▁wake	-6729
▁caret	-6730
▁shoes	-6731
▁wreck	-6732
▁traged	-6733
▁communicate	-6734
▁extravagant	-6735
tar	-6736
▁Sa	-6737
etta	-6738
asant	-6739
▁Whit	-6740
▁gods	-6741
▁sand	-6742
▁rapid	-6743
▁goodby	-6744
▁sorcer	-6745
▁Vietnam	-6746
▁Afterwards	-6747
▁literature	-6748
pro	-6749
ulf	-6750
force	-6751
▁Fitz	-6752
▁Kore	-6753
asures	-6754
ermans	-6755
▁Adams	-6756
▁Light	-6757
▁State	-6758
▁Times	-6759
▁neckl	-6760
▁niece	-6761
▁launch	-6762
▁obtain	-6763
▁alternate	-6764
▁production	-6765
▁international	-6766
4,	-6767
say	-6768
ethe	-6769
pers	-6770
sely	-6771
town	-6772
▁bow	-6773
▁ing	-6774
▁von	-6775
ector	-6776
ellow	-6777
lands	-6778
▁Juan	-6779
▁disg	-6780
▁rein	-6781
▁Tiger	-6782
▁trait	-6783
▁Commun	-6784
▁Justin	-6785
▁serene	-6786
▁skilled	-6787
▁Danielle	-6788
▁attorney	-6789
▁explodes	-6790
▁henchmen	-6791
▁pretends	-6792
▁secluded	-6793
▁specific	-6794
▁suffered	-6795
▁estranged	-6796
▁encouraged	-6797
▁terrorists	-6798
▁Fa	-6799
▁See	-6800
▁Barn	-6801
▁rabb	-6802
▁hates	-6803
▁kidnaps	-6804
▁injuries	-6805
▁undercover	-6806
&#3	-6807
▁Az	-6808
▁Syd	-6809
▁rans	-6810
▁Keith	-6811
ception	-6812
▁Parker	-6813
▁drinks	-6814
▁explan	-6815
▁Central	-6816
▁records	-6817
▁alcoholic	-6818
9,	-6819
▁Ky	-6820
▁Od	-6821
uate	-6822
urbs	-6823
▁Lat	-6824
denly	-6825
▁evac	-6826
irloom	-6827
▁Saint	-6828
▁abort	-6829
▁motel	-6830
▁Holmes	-6831
▁fantasy	-6832
▁vicious	-6833
▁electric	-6834
▁stumbles	-6835
▁instantly	-6836
owe	-6837
▁McG	-6838
▁Benj	-6839
▁Drag	-6840
▁resur	-6841
▁unfor	-6842
▁Leslie	-6843
▁jungle	-6844
▁photographs	-6845
▁mysteriously	-6846
▁Kr	-6847
rise	-6848
▁Bay	-6849
▁inex	-6850
▁Percy	-6851
▁drawing	-6852
▁attacking	-6853
oli	-6854
▁Lu	-6855
▁Gro	-6856
▁nerv	-6857
▁Colin	-6858
▁alike	-6859
▁artic	-6860
▁items	-6861
▁antique	-6862
▁covered	-6863
▁responds	-6864
▁respected	-6865
chio	-6866
fall	-6867
usty	-6868
▁Fro	-6869
▁dad	-6870
estic	-6871
▁leng	-6872
▁pock	-6873
rities	-6874
▁Stark	-6875
▁ideal	-6876
▁immig	-6877
▁loose	-6878
▁heroes	-6879
▁picked	-6880
▁retire	-6881
▁singer	-6882
▁whilst	-6883
▁restore	-6884
▁shopping	-6885
▁affection	-6886
▁Vi	-6887
oves	-6888
▁Lin	-6889
oting	-6890
▁Ford	-6891
astern	-6892
▁Wolfe	-6893
▁motiv	-6894
▁conver	-6895
▁fourth	-6896
▁dreaming	-6897
▁conspiracy	-6898
cut	-6899
▁Ta	-6900
▁Zo	-6901
▁Wind	-6902
▁celeb	-6903
▁Brenda	-6904
▁ghosts	-6905
▁halluc	-6906
▁embrace	-6907
▁inspect	-6908
▁landing	-6909
▁worried	-6910
▁Lawrence	-6911
aka	-6912
run	-6913
eddy	-6914
esar	-6915
ikes	-6916
etown	-6917
▁Coll	-6918
▁isnt	-6919
ilogue	-6920
▁Betty	-6921
▁incor	-6922
▁resign	-6923
▁safely	-6924
▁twelve	-6925
▁passage	-6926
▁extraord	-6927
▁Australia	-6928
▁celebrities	-6929
▁Ivy	-6930
▁Sky	-6931
▁Wat	-6932
hered	-6933
racts	-6934
▁Finn	-6935
▁Scar	-6936
▁easy	-6937
▁prem	-6938
▁skyl	-6939
▁mingle	-6940
▁refers	-6941
▁temper	-6942
▁Sheriff	-6943
▁absence	-6944
▁nestled	-6945
▁arranged	-6946
▁confused	-6947
▁construct	-6948
▁mentioned	-6949
amm	-6950
▁30	-6951
▁Brun	-6952
▁nine	-6953
▁sits	-6954
ulates	-6955
▁Sharpe	-6956
▁iconic	-6957
▁Stevens	-6958
▁colleague	-6959
▁headquarters	-6960
agu	-6961
▁25	-6962
▁Han	-6963
▁Pic	-6964
▁Sea	-6965
rants	-6966
▁Cord	-6967
▁iron	-6968
▁ties	-6969
izarre	-6970
▁photo	-6971
▁Peters	-6972
▁handsome	-6973
▁promised	-6974
▁equipment	-6975
▁Bun	-6976
▁McL	-6977
lects	-6978
▁Gret	-6979
ipping	-6980
ielding	-6981
▁Hunter	-6982
▁Council	-6983
▁Mexican	-6984
▁dollars	-6985
▁talents	-6986
▁Suddenly	-6987
▁necklace	-6988
▁brilliant	-6989
▁techniques	-6990
▁contemporary	-6991
▁Ze	-6992
▁ge	-6993
amin	-6994
erve	-6995
know	-6996
▁fed	-6997
going	-6998
▁inad	-6999
▁Clara	-7000
▁Pinoc	-7001
▁price	-7002
▁prophe	-7003
▁voyage	-7004
▁gardens	-7005
▁grateful	-7006
▁medicine	-7007
▁recovering	-7008
6,	-7009
zz	-7010
awa	-7011
bie	-7012
sen	-7013
▁Di	-7014
icip	-7015
iser	-7016
▁Rip	-7017
▁shy	-7018
▁Chan	-7019
▁pist	-7020
encing	-7021
▁Winter	-7022
▁paralle	-7023
▁primary	-7024
▁heirloom	-7025
cks	-7026
gal	-7027
▁Ah	-7028
▁Cyn	-7029
▁Die	-7030
▁cov	-7031
▁torn	-7032
▁divor	-7033
▁naked	-7034
▁bought	-7035
▁detect	-7036
▁sevent	-7037
▁illustr	-7038
▁sentence	-7039
▁Cel	-7040
▁Mak	-7041
▁agg	-7042
▁isn	-7043
▁Dead	-7044
▁aest	-7045
▁hill	-7046
▁Blood	-7047
▁Sandy	-7048
▁Tower	-7049
▁arist	-7050
▁fairy	-7051
▁fatal	-7052
▁manor	-7053
▁theft	-7054
▁villa	-7055
▁seduce	-7056
▁Gabriel	-7057
▁groomed	-7058
▁Florence	-7059
▁darkness	-7060
▁furniture	-7061
▁inherited	-7062
ece	-7063
ibb	-7064
Clan	-7065
oyle	-7066
inson	-7067
never	-7068
▁auct	-7069
ifteen	-7070
▁total	-7071
aborate	-7072
▁embarr	-7073
▁bizarre	-7074
▁somehow	-7075
▁revolves	-7076
▁recognize	-7077
omen	-7078
▁Yet	-7079
▁tut	-7080
maker	-7081
▁Gall	-7082
▁Mosc	-7083
▁vine	-7084
▁await	-7085
▁frame	-7086
▁metal	-7087
▁winem	-7088
▁spread	-7089
▁related	-7090
▁wonders	-7091
ibilities	-7092
▁celebrate	-7093
▁punishment	-7094
▁Cy	-7095
▁Sue	-7096
▁Spec	-7097
▁outf	-7098
erness	-7099
▁clubs	-7100
▁deton	-7101
▁stole	-7102
▁strict	-7103
▁frequent	-7104
▁inadvert	-7105
axy	-7106
orp	-7107
with	-7108
▁Grey	-7109
Americ	-7110
▁Years	-7111
▁faced	-7112
▁plants	-7113
▁Several	-7114
▁boasted	-7115
▁holiday	-7116
▁tragedy	-7117
▁National	-7118
▁delivers	-7119
▁magazines	-7120
▁presumably	-7121
▁wealthiest	-7122
▁desperately	-7123
osex	-7124
ripp	-7125
▁cig	-7126
▁era	-7127
ester	-7128
▁Amber	-7129
▁Veron	-7130
▁Govern	-7131
▁consum	-7132
▁denies	-7133
▁editor	-7134
▁hunter	-7135
▁opened	-7136
▁supply	-7137
▁cottage	-7138
▁hometown	-7139
▁insurance	-7140
▁penthouse	-7141
▁performing	-7142
▁Na	-7143
burg	-7144
usal	-7145
▁mal	-7146
▁Mass	-7147
▁Well	-7148
▁react	-7149
▁wines	-7150
▁unless	-7151
▁Timothy	-7152
▁creation	-7153
▁rebellion	-7154
▁exceptional	-7155
aro	-7156
gue	-7157
tra	-7158
amic	-7159
▁Nar	-7160
▁guy	-7161
asket	-7162
▁Kathy	-7163
▁adapt	-7164
▁urges	-7165
▁Moscow	-7166
▁incred	-7167
entially	-7168
▁departs	-7169
▁limited	-7170
▁aristocr	-7171
▁happening	-7172
▁legendary	-7173
II	-7174
loe	-7175
ums	-7176
riet	-7177
▁Bos	-7178
ested	-7179
▁Hend	-7180
▁rush	-7181
estern	-7182
▁Katie	-7183
▁Roland	-7184
▁bottom	-7185
▁covers	-7186
▁honest	-7187
▁Garrett	-7188
▁decades	-7189
▁spirits	-7190
▁veteran	-7191
▁engaging	-7192
▁featured	-7193
▁mentally	-7194
▁ordinary	-7195
▁replaced	-7196
▁caretaker	-7197
▁impressed	-7198
▁devastated	-7199
oh	-7200
▁Bow	-7201
▁Bry	-7202
▁Dol	-7203
▁Gus	-7204
▁Int	-7205
▁Kum	-7206
▁Dire	-7207
▁Goku	-7208
erence	-7209
▁Enter	-7210
▁ambush	-7211
▁Germans	-7212
▁adorned	-7213
▁disturb	-7214
▁unnamed	-7215
▁Pinocchio	-7216
ucks	-7217
▁192	-7218
aying	-7219
▁Joey	-7220
atever	-7221
isions	-7222
▁Civil	-7223
▁irres	-7224
▁mouse	-7225
▁sharp	-7226
▁Stella	-7227
▁mentor	-7228
▁spring	-7229
▁Company	-7230
▁according	-7231
▁socialite	-7232
▁territory	-7233
▁imagination	-7234
mare	-7235
▁100	-7236
▁caf	-7237
etime	-7238
▁Fort	-7239
▁Serv	-7240
▁Todd	-7241
▁pushes	-7242
▁centers	-7243
▁damaged	-7244
▁favored	-7245
▁masterp	-7246
▁Sergeant	-7247
▁disaster	-7248
uki	-7249
afia	-7250
▁dyn	-7251
agger	-7252
orphs	-7253
▁Rain	-7254
▁barn	-7255
▁bold	-7256
▁chem	-7257
▁cases	-7258
▁poise	-7259
▁scout	-7260
▁Archie	-7261
▁entered	-7262
▁greater	-7263
▁torment	-7264
▁requests	-7265
▁suspected	-7266
▁unforgett	-7267
▁recognized	-7268
bek	-7269
▁Su	-7270
boat	-7271
lets	-7272
orky	-7273
▁Sub	-7274
armed	-7275
itute	-7276
▁June	-7277
▁Admir	-7278
▁burst	-7279
▁color	-7280
▁Malcol	-7281
▁garage	-7282
▁express	-7283
▁surgery	-7284
▁unhappy	-7285
▁mentions	-7286
▁survivor	-7287
▁neighbour	-7288
▁policeman	-7289
▁unforgettable	-7290
An	-7291
▁50	-7292
ayer	-7293
rays	-7294
▁Dur	-7295
▁Gard	-7296
▁Life	-7297
▁fled	-7298
▁size	-7299
bidden	-7300
▁stick	-7301
▁stock	-7302
▁thugs	-7303
▁diplom	-7304
▁Stanley	-7305
▁entering	-7306
▁speaking	-7307
▁suspicions	-7308
▁independent	-7309
bsp	-7310
anqu	-7311
nbsp	-7312
▁Ian	-7313
▁Six	-7314
▁Urs	-7315
▁coc	-7316
▁pig	-7317
anche	-7318
▁exha	-7319
▁whis	-7320
▁Claud	-7321
▁Davis	-7322
▁Still	-7323
▁annoy	-7324
▁burns	-7325
▁today	-7326
▁usual	-7327
▁ruined	-7328
▁solace	-7329
▁abusive	-7330
▁correct	-7331
▁intense	-7332
▁sailing	-7333
▁skyline	-7334
▁suburbs	-7335
▁prepared	-7336
▁releases	-7337
▁officials	-7338
acc	-7339
aga	-7340
iami	-7341
oken	-7342
▁Met	-7343
▁Child	-7344
▁bears	-7345
▁diner	-7346
▁theat	-7347
▁Street	-7348
▁aspects	-7349
▁clearly	-7350
▁focused	-7351
▁antiques	-7352
▁husbands	-7353
jo	-7354
net	-7355
ilda	-7356
osis	-7357
seen	-7358
▁191	-7359
▁Dal	-7360
▁Mod	-7361
▁une	-7362
iolet	-7363
▁Free	-7364
▁Hugh	-7365
▁Pers	-7366
▁lock	-7367
ensions	-7368
▁allure	-7369
▁Ireland	-7370
▁goodbye	-7371
▁alliance	-7372
▁required	-7373
▁depressed	-7374
▁regularly	-7375
bal	-7376
▁Gw	-7377
thia	-7378
front	-7379
▁Town	-7380
▁Marty	-7381
▁Alfred	-7382
▁Isabel	-7383
▁Olivia	-7384
▁candid	-7385
▁infect	-7386
▁prized	-7387
▁rebels	-7388
▁Gilbert	-7389
▁artists	-7390
▁contain	-7391
▁interven	-7392
▁purchase	-7393
▁alongside	-7394
▁nightlife	-7395
▁vengeance	-7396
dess	-7397
just	-7398
owed	-7399
▁Str	-7400
▁Stu	-7401
▁lib	-7402
▁syn	-7403
▁Hart	-7404
▁Nina	-7405
▁Pink	-7406
▁Vamp	-7407
▁cruc	-7408
▁Aaron	-7409
▁Rocky	-7410
▁Tokyo	-7411
▁locks	-7412
▁panic	-7413
▁Madame	-7414
▁struck	-7415
▁digital	-7416
▁reminds	-7417
▁admiration	-7418
▁developing	-7419
▁infiltrate	-7420
▁protecting	-7421
▁investigates	-7422
▁transportation	-7423
agg	-7424
ota	-7425
▁ow	-7426
avan	-7427
lord	-7428
▁Cob	-7429
▁Cur	-7430
▁Els	-7431
▁Mia	-7432
acked	-7433
▁Ring	-7434
▁curs	-7435
▁Murphy	-7436
▁Unable	-7437
▁Willie	-7438
▁bloody	-7439
▁advance	-7440
▁beating	-7441
▁credits	-7442
▁trained	-7443
▁irresist	-7444
▁innocence	-7445
▁obsession	-7446
▁transported	-7447
▁extraordinary	-7448
▁inadvertently	-7449
inx	-7450
obi	-7451
anor	-7452
irts	-7453
rant	-7454
ylum	-7455
▁tent	-7456
▁inner	-7457
▁opera	-7458
▁realm	-7459
▁rising	-7460
▁slight	-7461
▁Admiral	-7462
▁comment	-7463
▁spiritual	-7464
▁equestrian	-7465
▁occupation	-7466
▁$	-7467
glas	-7468
▁calm	-7469
▁Miami	-7470
▁massac	-7471
▁portra	-7472
▁rights	-7473
▁advises	-7474
▁affairs	-7475
▁nervous	-7476
▁scandal	-7477
▁adventur	-7478
▁graceful	-7479
▁monsters	-7480
▁somewhere	-7481
▁wilderness	-7482
bar	-7483
init	-7484
rons	-7485
▁Haz	-7486
oving	-7487
▁pref	-7488
▁Kitty	-7489
▁Pearl	-7490
▁sweet	-7491
▁facing	-7492
▁removed	-7493
▁Patricia	-7494
▁upstairs	-7495
▁whatever	-7496
gent	-7497
▁Act	-7498
▁End	-7499
▁tur	-7500
▁Maya	-7501
▁Among	-7502
▁rooms	-7503
▁Duncan	-7504
▁manusc	-7505
▁automob	-7506
▁chamber	-7507
▁largely	-7508
▁betrayal	-7509
▁culinary	-7510
▁epilogue	-7511
▁familiar	-7512
▁murdering	-7513
cat	-7514
lock	-7515
rina	-7516
▁prev	-7517
atched	-7518
inates	-7519
ranean	-7520
▁Santa	-7521
▁cards	-7522
atively	-7523
▁People	-7524
▁dining	-7525
▁footage	-7526
▁charming	-7527
▁servants	-7528
▁showcasing	-7529
▁travelling	-7530
cel	-7531
osm	-7532
▁Ly	-7533
lege	-7534
rates	-7535
▁sess	-7536
▁touc	-7537
iating	-7538
▁argue	-7539
▁block	-7540
▁Things	-7541
▁tempor	-7542
▁Malcolm	-7543
▁genuine	-7544
▁healthy	-7545
▁Campbell	-7546
▁employee	-7547
▁identify	-7548
▁probably	-7549
▁treacher	-7550
izz	-7551
ova	-7552
▁Fab	-7553
▁Hug	-7554
▁Wor	-7555
▁Beat	-7556
▁Card	-7557
▁laws	-7558
▁sket	-7559
▁Brook	-7560
▁Dutch	-7561
▁enorm	-7562
▁roads	-7563
▁acknow	-7564
▁pulled	-7565
American	-7566
▁refused	-7567
▁engineer	-7568
▁literary	-7569
▁poisoned	-7570
▁Sebastian	-7571
▁breakfast	-7572
▁biological	-7573
▁customized	-7574
▁enchanting	-7575
▁experiments	-7576
▁Mu	-7577
rust	-7578
▁Arn	-7579
▁Kid	-7580
▁Poo	-7581
▁Pot	-7582
▁anx	-7583
▁bat	-7584
acker	-7585
akers	-7586
gency	-7587
arship	-7588
▁Kings	-7589
▁Never	-7590
▁broke	-7591
▁inval	-7592
▁shore	-7593
▁waits	-7594
▁Ernest	-7595
▁global	-7596
▁throat	-7597
▁enraged	-7598
▁fleeing	-7599
▁visions	-7600
▁performs	-7601
▁determine	-7602
▁relatives	-7603
▁witnessed	-7604
▁environmental	-7605
uns	-7606
▁Op	-7607
eler	-7608
▁fro	-7609
▁Next	-7610
▁soft	-7611
▁birds	-7612
▁advert	-7613
▁tranqu	-7614
daughter	-7615
▁concent	-7616
▁failing	-7617
▁pursuing	-7618
▁recounts	-7619
▁principal	-7620
▁description	-7621
8,	-7622
▁III	-7623
▁Kaz	-7624
acies	-7625
adows	-7626
▁Abby	-7627
▁Nora	-7628
▁Tina	-7629
▁succ	-7630
inding	-7631
▁Ghost	-7632
▁lower	-7633
▁overth	-7634
▁ransom	-7635
▁submar	-7636
▁concert	-7637
▁hostile	-7638
▁methods	-7639
▁achieved	-7640
▁consists	-7641
▁regarding	-7642
nel	-7643
itar	-7644
▁Gor	-7645
▁Hom	-7646
▁Pre	-7647
▁hij	-7648
▁shr	-7649
▁Mack	-7650
▁March	-7651
▁chain	-7652
▁globe	-7653
▁rifle	-7654
iveness	-7655
▁Harris	-7656
▁closed	-7657
▁cooper	-7658
▁plague	-7659
▁equally	-7660
▁pattern	-7661
▁wanders	-7662
▁declines	-7663
▁flashbacks	-7664
ete	-7665
▁Ut	-7666
emen	-7667
hell	-7668
idal	-7669
neys	-7670
▁Dix	-7671
annon	-7672
riage	-7673
▁Rita	-7674
acking	-7675
anging	-7676
umping	-7677
▁Chloe	-7678
▁Thorn	-7679
▁honey	-7680
▁lodge	-7681
▁occas	-7682
▁Theres	-7683
▁behavi	-7684
▁foster	-7685
▁admired	-7686
▁familys	-7687
▁numbers	-7688
▁profile	-7689
▁baseball	-7690
▁economic	-7691
▁irresistible	-7692
hend	-7693
olis	-7694
▁Dog	-7695
▁Lib	-7696
▁Murd	-7697
▁opin	-7698
▁Mitch	-7699
▁retal	-7700
▁slips	-7701
▁teams	-7702
▁enjoys	-7703
▁psychic	-7704
▁stabbed	-7705
▁artificial	-7706
▁department	-7707
iac	-7708
avia	-7709
▁Bol	-7710
▁Kane	-7711
▁Spir	-7712
▁Trev	-7713
▁moral	-7714
▁smart	-7715
▁Judith	-7716
▁Sydney	-7717
▁Frankie	-7718
▁extreme	-7719
▁referred	-7720
▁Animorphs	-7721
▁discussing	-7722
▁introduction	-7723
esa	-7724
oby	-7725
mers	-7726
olls	-7727
▁Var	-7728
▁gor	-7729
iders	-7730
rated	-7731
ulous	-7732
▁subd	-7733
▁Loren	-7734
▁spite	-7735
▁tears	-7736
itimate	-7737
▁Gerald	-7738
volution	-7739
▁Dracula	-7740
▁Pacific	-7741
▁entrance	-7742
▁gambling	-7743
▁realized	-7744
▁commission	-7745
▁depression	-7746
▁Du	-7747
apse	-7748
uven	-7749
▁Ark	-7750
▁Nan	-7751
▁Pig	-7752
acles	-7753
▁Acad	-7754
▁Mall	-7755
▁hour	-7756
▁spin	-7757
▁Britt	-7758
▁Spain	-7759
▁aging	-7760
▁Barney	-7761
▁Douglas	-7762
▁Special	-7763
▁Spencer	-7764
▁Vanessa	-7765
▁closing	-7766
▁hundreds	-7767
▁apprentice	-7768
▁operations	-7769
pent	-7770
▁Vel	-7771
aling	-7772
incol	-7773
inter	-7774
▁sixt	-7775
icient	-7776
itated	-7777
▁doors	-7778
▁Caesar	-7779
▁Juliet	-7780
▁higher	-7781
▁seemed	-7782
▁tragic	-7783
▁weight	-7784
▁fifteen	-7785
▁loyalty	-7786
▁realise	-7787
▁stating	-7788
▁Anderson	-7789
▁attitude	-7790
▁contrast	-7791
▁sinister	-7792
▁discusses	-7793
▁pretending	-7794
▁possibility	-7795
egr	-7796
lee	-7797
ses	-7798
▁Kl	-7799
agan	-7800
lett	-7801
uced	-7802
uild	-7803
▁Meg	-7804
ieves	-7805
uties	-7806
▁jobs	-7807
▁obst	-7808
▁puzz	-7809
▁rats	-7810
▁tire	-7811
▁rebel	-7812
▁trees	-7813
▁Monica	-7814
▁asylum	-7815
▁embark	-7816
▁listen	-7817
▁Cynthia	-7818
▁Miranda	-7819
ification	-7820
▁historic	-7821
▁minister	-7822
▁rejected	-7823
▁werewolf	-7824
eem	-7825
eur	-7826
▁Pa	-7827
▁Agn	-7828
oured	-7829
verty	-7830
▁Erin	-7831
▁amaz	-7832
▁blog	-7833
abouts	-7834
▁Paula	-7835
▁Alicia	-7836
▁culmin	-7837
▁dismay	-7838
▁golden	-7839
▁pretty	-7840
▁impress	-7841
▁poverty	-7842
▁peaceful	-7843
▁continuing	-7844
▁photographer	-7845
eron	-7846
arson	-7847
▁Penn	-7848
broken	-7849
▁climb	-7850
▁urban	-7851
▁astron	-7852
▁Collect	-7853
▁documents	-7854
▁spaceship	-7855
▁surrender	-7856
ggy	-7857
▁Chen	-7858
▁conn	-7859
▁hook	-7860
▁styl	-7861
▁Chuck	-7862
▁Penny	-7863
▁range	-7864
▁Marina	-7865
▁deeper	-7866
▁Phillip	-7867
▁enlists	-7868
▁screams	-7869
▁Minister	-7870
▁proposal	-7871
▁boundaries	-7872
▁classmates	-7873
▁collectors	-7874
▁difference	-7875
▁generation	-7876
fs	-7877
▁Daw	-7878
▁Hot	-7879
▁Rex	-7880
▁Roc	-7881
borah	-7882
▁Ruby	-7883
▁seat	-7884
▁Bella	-7885
▁Felix	-7886
▁Satan	-7887
▁forth	-7888
▁harsh	-7889
beknown	-7890
▁hatred	-7891
▁online	-7892
▁pistol	-7893
atically	-7894
▁dragons	-7895
▁genetic	-7896
▁magazine	-7897
▁prophecy	-7898
▁tracking	-7899
▁direction	-7900
▁exploration	-7901
▁inheritance	-7902
▁meticulously	-7903
azar	-7904
hlet	-7905
▁Oct	-7906
▁ash	-7907
▁awa	-7908
▁Cody	-7909
▁Flet	-7910
▁Tara	-7911
▁core	-7912
▁myst	-7913
ternal	-7914
▁Theod	-7915
▁bored	-7916
▁gifts	-7917
▁intim	-7918
▁skill	-7919
▁Lincol	-7920
▁heading	-7921
▁studied	-7922
▁confusion	-7923
▁currently	-7924
▁transforms	-7925
▁whereabouts	-7926
▁deliberately	-7927
leys	-7928
math	-7929
clear	-7930
kward	-7931
▁laid	-7932
▁owns	-7933
▁Connie	-7934
▁farmer	-7935
▁reform	-7936
▁gangster	-7937
▁threaten	-7938
▁confession	-7939
sm	-7940
tic	-7941
adel	-7942
▁Sor	-7943
istan	-7944
▁gate	-7945
▁Elena	-7946
▁oppon	-7947
underst	-7948
▁Carlos	-7949
▁Joanna	-7950
▁banker	-7951
▁favour	-7952
▁injury	-7953
▁inspire	-7954
▁Alliance	-7955
▁homeless	-7956
▁troubles	-7957
▁marketing	-7958
▁wandering	-7959
▁approaching	-7960
4;	-7961
his	-7962
▁Eug	-7963
▁Gav	-7964
▁Pap	-7965
arded	-7966
▁Chel	-7967
▁Oper	-7968
▁Sull	-7969
▁slip	-7970
▁tall	-7971
embles	-7972
▁Bruno	-7973
▁Jacqu	-7974
▁Vegas	-7975
▁wrest	-7976
cluding	-7977
▁Golden	-7978
▁Violet	-7979
▁headed	-7980
▁senses	-7981
▁tunnel	-7982
▁hideout	-7983
▁homosex	-7984
▁detectives	-7985
▁progresses	-7986
▁acquaintance	-7987
▁conservation	-7988
▁hy	-7989
iona	-7990
wife	-7991
▁Dee	-7992
▁Dub	-7993
ifted	-7994
urbed	-7995
▁Merr	-7996
▁Ward	-7997
▁bout	-7998
▁Dream	-7999
▁Irene	-8000
▁spare	-8001
▁tests	-8002
theless	-8003
▁severe	-8004
▁Deborah	-8005
▁Eleanor	-8006
▁Lindsay	-8007
▁awkward	-8008
▁product	-8009
▁tension	-8010
▁featuring	-8011
▁recovered	-8012
▁apologizes	-8013
▁possessions	-8014
▁Zh	-8015
idel	-8016
iege	-8017
▁Div	-8018
▁Ferr	-8019
▁Gill	-8020
▁Stew	-8021
▁spre	-8022
▁tomb	-8023
itches	-8024
▁Singh	-8025
▁Teddy	-8026
▁didnt	-8027
▁proof	-8028
▁reign	-8029
▁corner	-8030
▁integr	-8031
▁length	-8032
▁repair	-8033
▁Fashion	-8034
▁unravel	-8035
▁reaching	-8036
▁swimming	-8037
▁horrified	-8038
▁permission	-8039
bel	-8040
icy	-8041
wick	-8042
▁Due	-8043
▁fame	-8044
▁west	-8045
▁Agent	-8046
▁Buffy	-8047
▁bless	-8048
ighters	-8049
▁galaxy	-8050
▁vessel	-8051
▁Brother	-8052
▁College	-8053
▁anticip	-8054
▁chronic	-8055
▁fulfill	-8056
▁improve	-8057
▁Benjamin	-8058
▁ambushed	-8059
▁striving	-8060
▁traveled	-8061
▁wildlife	-8062
▁capturing	-8063
▁literally	-8064
▁remarkable	-8065
▁temporarily	-8066
▁unsuccessful	-8067
▁psychological	-8068
▁accomplishments	-8069
▁Ho	-8070
▁cro	-8071
▁mel	-8072
nings	-8073
▁Dest	-8074
▁carn	-8075
▁tend	-8076
▁Cindy	-8077
▁Heart	-8078
▁bride	-8079
▁clerk	-8080
▁gover	-8081
▁ruler	-8082
▁shark	-8083
idnight	-8084
▁potion	-8085
▁rapidly	-8086
▁usually	-8087
▁sporting	-8088
pper	-8089
▁Bad	-8090
▁Bug	-8091
▁Lud	-8092
▁Who	-8093
▁bor	-8094
ookie	-8095
erring	-8096
itates	-8097
▁Guild	-8098
▁Judge	-8099
▁rough	-8100
▁worst	-8101
▁rocket	-8102
▁virgin	-8103
▁closest	-8104
▁recording	-8105
▁intentions	-8106
hy	-8107
kh	-8108
ianc	-8109
▁Hop	-8110
▁dub	-8111
ighth	-8112
opard	-8113
▁Mist	-8114
▁Thus	-8115
▁Turn	-8116
▁coma	-8117
▁wont	-8118
assion	-8119
▁angel	-8120
▁plots	-8121
▁Summer	-8122
▁patrol	-8123
▁suffer	-8124
▁Zachary	-8125
▁concept	-8126
▁dealers	-8127
▁Confeder	-8128
▁changing	-8129
▁millions	-8130
▁Commander	-8131
▁passenger	-8132
▁unwilling	-8133
▁influencer	-8134
▁sensuality	-8135
▁townspeople	-8136
AR	-8137
cul	-8138
ooth	-8139
▁Rat	-8140
▁gri	-8141
inlaw	-8142
night	-8143
▁Cong	-8144
▁Dale	-8145
▁Judy	-8146
▁fest	-8147
▁unst	-8148
▁Flash	-8149
▁Randy	-8150
▁cloud	-8151
▁ruled	-8152
▁stake	-8153
▁suits	-8154
▁Sharon	-8155
▁fortun	-8156
▁thwart	-8157
▁ticket	-8158
▁valley	-8159
▁Georgia	-8160
▁creative	-8161
▁episodes	-8162
▁prospect	-8163
▁nightmare	-8164
ht	-8165
tw	-8166
zer	-8167
▁Ja	-8168
▁Ox	-8169
▁Si	-8170
▁Ald	-8171
human	-8172
▁Deep	-8173
▁Dist	-8174
▁Home	-8175
▁Much	-8176
▁clue	-8177
assing	-8178
utions	-8179
▁issue	-8180
▁spies	-8181
▁coffin	-8182
▁thirty	-8183
▁Crystal	-8184
▁contrib	-8185
▁highest	-8186
▁Franklin	-8187
▁relative	-8188
vous	-8189
▁Der	-8190
▁Nad	-8191
▁Pur	-8192
pathy	-8193
▁Mans	-8194
▁Shan	-8195
▁rand	-8196
▁spac	-8197
▁ware	-8198
▁Quinn	-8199
▁disgr	-8200
▁Samuel	-8201
▁curious	-8202
▁implied	-8203
▁museums	-8204
▁variety	-8205
▁employer	-8206
bot	-8207
zil	-8208
▁Ha	-8209
ptic	-8210
▁Ped	-8211
osaur	-8212
▁Cart	-8213
▁epic	-8214
▁exerc	-8215
▁shell	-8216
▁Alison	-8217
▁pocket	-8218
▁killers	-8219
▁Southern	-8220
▁abandons	-8221
▁deserted	-8222
▁machines	-8223
▁managing	-8224
▁stranded	-8225
▁Returning	-8226
▁gangsters	-8227
▁et	-8228
ardo	-8229
atty	-8230
ivan	-8231
▁Cec	-8232
▁Lyd	-8233
▁Obi	-8234
▁Inter	-8235
▁blows	-8236
▁piano	-8237
▁trium	-8238
▁athlet	-8239
▁random	-8240
▁Academy	-8241
▁instant	-8242
▁protest	-8243
▁shotgun	-8244
▁Veronica	-8245
▁enormous	-8246
▁teachers	-8247
▁completed	-8248
▁Department	-8249
▁effortless	-8250
2.	-8251
iph	-8252
asty	-8253
aval	-8254
ifes	-8255
ilia	-8256
udes	-8257
▁Gem	-8258
▁Tro	-8259
▁gru	-8260
chers	-8261
▁Brid	-8262
▁Evel	-8263
▁Fern	-8264
▁Sept	-8265
▁Yeer	-8266
▁mour	-8267
▁tips	-8268
▁Wayne	-8269
▁Harvey	-8270
▁Vienna	-8271
▁blames	-8272
▁expose	-8273
▁finger	-8274
▁reunite	-8275
▁magician	-8276
▁reference	-8277
▁personally	-8278
▁explanation	-8279
haw	-8280
imm	-8281
▁unp	-8282
anton	-8283
▁Iron	-8284
▁cops	-8285
▁mail	-8286
▁added	-8287
▁indic	-8288
▁reapp	-8289
▁spect	-8290
▁Canada	-8291
▁clinic	-8292
▁resent	-8293
▁classes	-8294
▁summons	-8295
▁weather	-8296
▁upcoming	-8297
▁thereafter	-8298
▁[	-8299
ami	-8300
cial	-8301
cedes	-8302
rying	-8303
▁Cale	-8304
▁Lori	-8305
▁Owen	-8306
▁Bever	-8307
▁Elite	-8308
▁Merry	-8309
▁Freder	-8310
▁safari	-8311
▁zombie	-8312
▁Brandon	-8313
▁assumed	-8314
▁engages	-8315
▁routine	-8316
▁winding	-8317
▁disappro	-8318
▁emotions	-8319
▁available	-8320
▁Ran	-8321
ommod	-8322
pires	-8323
ption	-8324
▁Cran	-8325
▁Crow	-8326
▁Like	-8327
▁Prest	-8328
▁cheer	-8329
▁invis	-8330
▁shall	-8331
respond	-8332
▁Norman	-8333
▁credit	-8334
▁prosec	-8335
aneously	-8336
▁finished	-8337
▁promptly	-8338
▁convicted	-8339
▁elaborate	-8340
▁corruption	-8341
▁properties	-8342
▁comfortable	-8343
▁intellectual	-8344
AS	-8345
aki	-8346
gets	-8347
leen	-8348
onde	-8349
wind	-8350
▁Sha	-8351
enses	-8352
▁disl	-8353
icking	-8354
ieving	-8355
▁aided	-8356
▁remin	-8357
▁resem	-8358
▁Bishop	-8359
▁anyway	-8360
▁perfum	-8361
▁traits	-8362
ifically	-8363
▁accommod	-8364
▁diamonds	-8365
▁shocking	-8366
▁solution	-8367
▁submarine	-8368
▁distraught	-8369
▁celebration	-8370
▁emotionally	-8371
HE	-8372
"),	-8373
▁Fo	-8374
rive	-8375
wide	-8376
▁Mun	-8377
itzer	-8378
▁Baby	-8379
▁Core	-8380
▁Lost	-8381
▁Nell	-8382
▁Toby	-8383
▁Toms	-8384
outure	-8385
▁Allen	-8386
▁Casey	-8387
▁Porky	-8388
▁memor	-8389
▁sheep	-8390
▁Design	-8391
▁behalf	-8392
▁coffee	-8393
▁locals	-8394
▁mathem	-8395
▁pirate	-8396
▁wooden	-8397
▁blended	-8398
▁fighter	-8399
▁musical	-8400
▁trusted	-8401
▁collapse	-8402
▁aftermath	-8403
▁departure	-8404
aux	-8405
upt	-8406
▁Lt	-8407
plic	-8408
uffs	-8409
▁Rav	-8410
anged	-8411
▁Gwen	-8412
▁Jews	-8413
▁Road	-8414
▁keys	-8415
▁cripp	-8416
▁smile	-8417
▁abrupt	-8418
▁batter	-8419
▁closely	-8420
▁opulent	-8421
▁jealousy	-8422
▁merchant	-8423
▁portrait	-8424
▁sequence	-8425
▁evolution	-8426
▁philosophy	-8427
▁occasionally	-8428
▁24	-8429
acey	-8430
emet	-8431
onda	-8432
▁Aub	-8433
▁Aut	-8434
▁Kap	-8435
avier	-8436
▁Cost	-8437
▁Zoey	-8438
▁rent	-8439
▁Venus	-8440
▁paran	-8441
▁motorcy	-8442
antically	-8443
▁buildings	-8444
▁settlement	-8445
▁winemaking	-8446
▁mercenaries	-8447
▁psychiatrist	-8448
1.	-8449
yps	-8450
ober	-8451
real	-8452
▁Kur	-8453
▁Rec	-8454
▁Burke	-8455
▁lunch	-8456
▁exuded	-8457
▁fought	-8458
▁perpet	-8459
▁Thunder	-8460
beknownst	-8461
▁aviation	-8462
▁incorpor	-8463
▁precious	-8464
▁withdraw	-8465
▁Revolution	-8466
▁controlled	-8467
▁intervenes	-8468
olo	-8469
anne	-8470
ctic	-8471
rors	-8472
▁Cru	-8473
▁McK	-8474
▁tap	-8475
gment	-8476
▁hire	-8477
▁publ	-8478
▁type	-8479
person	-8480
▁Moore	-8481
▁Gloria	-8482
▁Sylvia	-8483
▁outlaw	-8484
▁statue	-8485
▁nowhere	-8486
▁widowed	-8487
▁attached	-8488
▁confident	-8489
▁forgotten	-8490
▁manuscript	-8491
▁terrifying	-8492
▁ax	-8493
▁Cub	-8494
▁Mom	-8495
▁Five	-8496
▁Init	-8497
▁Math	-8498
▁lure	-8499
▁Nazis	-8500
▁Nikki	-8501
▁Witch	-8502
▁avenge	-8503
▁condem	-8504
▁formed	-8505
▁summon	-8506
▁article	-8507
▁activity	-8508
▁privilege	-8509
▁warehouse	-8510
vo	-8511
rot	-8512
anie	-8513
ulpt	-8514
▁Lev	-8515
▁Off	-8516
▁Run	-8517
▁cup	-8518
▁mic	-8519
ounds	-8520
place	-8521
▁Chad	-8522
▁Clan	-8523
▁Joel	-8524
▁inev	-8525
▁pill	-8526
urally	-8527
▁Buddy	-8528
▁Hills	-8529
▁reass	-8530
▁twice	-8531
assador	-8532
▁Curtis	-8533
▁robots	-8534
▁superv	-8535
▁Beverly	-8536
▁Lincoln	-8537
▁fatally	-8538
▁interact	-8539
▁reaction	-8540
▁sabotage	-8541
▁anonymous	-8542
▁artifacts	-8543
▁portrayed	-8544
▁signature	-8545
▁slaughter	-8546
▁associates	-8547
▁landscapes	-8548
rien	-8549
ylan	-8550
▁Rab	-8551
▁rat	-8552
▁Kirk	-8553
▁Mara	-8554
▁ease	-8555
▁pond	-8556
▁tear	-8557
rehend	-8558
▁goals	-8559
▁habit	-8560
▁reson	-8561
looking	-8562
▁climbs	-8563
▁fields	-8564
▁nights	-8565
▁switch	-8566
▁Antonio	-8567
▁guardian	-8568
▁broadcast	-8569
▁expensive	-8570
▁gathering	-8571
▁preferred	-8572
▁recruited	-8573
▁networking	-8574
li	-8575
ags	-8576
oft	-8577
abel	-8578
cont	-8579
oked	-8580
ords	-8581
▁Rem	-8582
▁les	-8583
▁pra	-8584
▁toy	-8585
osure	-8586
rical	-8587
▁Ever	-8588
▁Lang	-8589
▁hung	-8590
▁icon	-8591
▁poem	-8592
▁pure	-8593
▁slow	-8594
▁taun	-8595
ourmet	-8596
▁admit	-8597
▁midst	-8598
▁souls	-8599
▁Amelia	-8600
▁Brazil	-8601
▁Ronald	-8602
▁casual	-8603
▁knight	-8604
▁patron	-8605
▁posing	-8606
▁History	-8607
▁antagon	-8608
▁letting	-8609
▁contempl	-8610
▁elevator	-8611
▁recruits	-8612
▁executive	-8613
▁discussion	-8614
▁invitation	-8615
▁disappointed	-8616
Ar	-8617
ido	-8618
igg	-8619
sea	-8620
imal	-8621
▁Fam	-8622
acket	-8623
break	-8624
inder	-8625
utter	-8626
▁Tint	-8627
▁dial	-8628
▁Lucky	-8629
▁Sonny	-8630
▁audio	-8631
▁chose	-8632
▁incap	-8633
▁renew	-8634
▁rises	-8635
▁sells	-8636
▁Junior	-8637
▁poised	-8638
▁unseen	-8639
▁joining	-8640
▁administ	-8641
▁weekends	-8642
bad	-8643
icit	-8644
isor	-8645
rows	-8646
▁Vij	-8647
▁rig	-8648
innie	-8649
uster	-8650
▁Rene	-8651
▁cage	-8652
▁shed	-8653
▁Ariel	-8654
▁Candy	-8655
▁Perry	-8656
▁beast	-8657
▁exile	-8658
▁tired	-8659
▁tourn	-8660
▁Andrea	-8661
▁Laurie	-8662
▁mutual	-8663
▁sculpt	-8664
▁silent	-8665
▁stairs	-8666
▁claimed	-8667
▁Director	-8668
▁mistakes	-8669
▁summoned	-8670
▁pregnancy	-8671
▁terrified	-8672
▁conference	-8673
9;	-8674
kar	-8675
lym	-8676
umm	-8677
▁LA	-8678
aser	-8679
aved	-8680
oric	-8681
pret	-8682
yles	-8683
▁Eld	-8684
▁Dani	-8685
▁bung	-8686
▁dict	-8687
▁eggs	-8688
ologue	-8689
▁Offic	-8690
▁alarm	-8691
▁strip	-8692
▁frozen	-8693
pathetic	-8694
▁Bradley	-8695
▁Indians	-8696
▁dropped	-8697
▁neglect	-8698
▁replace	-8699
including	-8700
▁Mountain	-8701
▁cultures	-8702
▁afterward	-8703
▁behaviour	-8704
▁belonging	-8705
▁countries	-8706
▁pressures	-8707
▁telephone	-8708
▁entertainment	-8709
xy	-8710
").	-8711
▁Po	-8712
▁sy	-8713
▁gro	-8714
▁kid	-8715
oming	-8716
▁Bird	-8717
▁cock	-8718
▁feud	-8719
▁herd	-8720
▁loft	-8721
▁Party	-8722
▁comic	-8723
▁drama	-8724
▁ethic	-8725
▁excel	-8726
▁reduc	-8727
▁buying	-8728
▁mainly	-8729
▁pleads	-8730
▁review	-8731
▁solely	-8732
▁Roberts	-8733
▁natives	-8734
▁venture	-8735
▁sections	-8736
iterranean	-8737
▁authority	-8738
▁breakdown	-8739
▁locations	-8740
▁practices	-8741
▁structure	-8742
▁innovation	-8743
▁fascination	-8744
Wan	-8745
acon	-8746
ysis	-8747
▁Mul	-8748
▁Lanc	-8749
blower	-8750
▁Ultim	-8751
▁clock	-8752
▁goods	-8753
▁Calvin	-8754
▁Merlin	-8755
▁daring	-8756
▁insist	-8757
▁produce	-8758
▁reached	-8759
▁undergo	-8760
▁crossing	-8761
▁divorced	-8762
▁parallel	-8763
▁pleasure	-8764
▁promoted	-8765
▁subjects	-8766
▁whenever	-8767
▁wherever	-8768
▁assassins	-8769
▁performed	-8770
▁statement	-8771
▁Mediterranean	-8772
dale	-8773
elli	-8774
wall	-8775
writ	-8776
▁Isa	-8777
▁Pad	-8778
▁Sco	-8779
▁sla	-8780
▁appl	-8781
▁hate	-8782
▁Falco	-8783
▁Kenny	-8784
▁Ocean	-8785
▁morph	-8786
emetery	-8787
▁Ursula	-8788
▁minute	-8789
▁shield	-8790
▁Further	-8791
▁charged	-8792
▁conquer	-8793
▁delivered	-8794
▁disturbed	-8795
▁encourage	-8796
▁correspond	-8797
▁identified	-8798
▁increasing	-8799
oda	-8800
▁AI	-8801
bian	-8802
phic	-8803
ware	-8804
▁Lon	-8805
▁Lup	-8806
adian	-8807
apped	-8808
owell	-8809
umble	-8810
▁Ball	-8811
▁Lynn	-8812
▁Miri	-8813
▁heat	-8814
▁qual	-8815
▁Agnes	-8816
▁Banks	-8817
▁Drake	-8818
▁Sunny	-8819
▁skept	-8820
▁Elaine	-8821
▁Nelson	-8822
▁agreed	-8823
▁assume	-8824
▁cattle	-8825
▁decept	-8826
▁mining	-8827
▁misses	-8828
▁planets	-8829
▁publish	-8830
▁stylish	-8831
▁telepath	-8832
▁inhabited	-8833
▁,	-8834
▁Aj	-8835
▁Gh	-8836
gard	-8837
rice	-8838
▁jun	-8839
▁sew	-8840
olate	-8841
▁Fant	-8842
▁Jacks	-8843
▁funct	-8844
▁snake	-8845
▁aspect	-8846
▁fabric	-8847
▁stress	-8848
izations	-8849
▁authors	-8850
▁destiny	-8851
▁witches	-8852
▁reconcil	-8853
▁celebrity	-8854
▁creativity	-8855
▁independence	-8856
4.	-8857
bys	-8858
cho	-8859
orc	-8860
pool	-8861
▁Isl	-8862
lines	-8863
uting	-8864
▁mate	-8865
▁pupp	-8866
▁Carla	-8867
▁alert	-8868
▁tales	-8869
▁storms	-8870
▁abortion	-8871
▁aspiring	-8872
▁knocking	-8873
▁dismisses	-8874
▁employees	-8875
▁gentleman	-8876
▁industrial	-8877
▁sacrifices	-8878
NA	-8879
ryn	-8880
▁Yu	-8881
▁Pep	-8882
igned	-8883
opath	-8884
▁1960	-8885
▁Fall	-8886
▁Prot	-8887
▁Feder	-8888
▁coinc	-8889
▁traps	-8890
▁wifes	-8891
▁Invest	-8892
▁broker	-8893
▁prepar	-8894
▁amongst	-8895
▁election	-8896
▁killings	-8897
▁occurred	-8898
▁resolves	-8899
▁customers	-8900
▁emergency	-8901
▁governess	-8902
▁organized	-8903
▁gatherings	-8904
▁plantation	-8905
eav	-8906
asis	-8907
bles	-8908
ocal	-8909
▁Len	-8910
▁Mem	-8911
matic	-8912
othel	-8913
ounty	-8914
▁amid	-8915
▁fare	-8916
▁link	-8917
▁Scamb	-8918
▁Seven	-8919
▁burgl	-8920
▁disab	-8921
▁hitch	-8922
▁Richie	-8923
▁Teresa	-8924
▁Willow	-8925
▁hypnot	-8926
▁papers	-8927
▁Gregory	-8928
▁Without	-8929
▁billion	-8930
▁despair	-8931
▁element	-8932
▁immerse	-8933
▁abducted	-8934
▁artifact	-8935
▁fortress	-8936
▁producer	-8937
▁shootout	-8938
▁thriving	-8939
▁bestselling	-8940
▁participate	-8941
▁understands	-8942
Le	-8943
PD	-8944
yll	-8945
▁Of	-8946
kers	-8947
moon	-8948
▁tea	-8949
ersey	-8950
omach	-8951
▁Mach	-8952
▁adul	-8953
▁tiny	-8954
▁wing	-8955
▁Champ	-8956
▁Diego	-8957
▁Doyle	-8958
▁fianc	-8959
▁Claude	-8960
▁Graham	-8961
▁appeal	-8962
▁paying	-8963
▁charity	-8964
▁couples	-8965
▁recruit	-8966
▁villain	-8967
▁protests	-8968
▁Victorian	-8969
▁represents	-8970
rod	-8971
▁Fr	-8972
iform	-8973
▁Bear	-8974
▁chal	-8975
▁eats	-8976
amples	-8977
ancing	-8978
▁Again	-8979
▁Power	-8980
▁solar	-8981
isation	-8982
▁crying	-8983
▁scared	-8984
▁signal	-8985
▁Knowing	-8986
▁painter	-8987
▁preserve	-8988
▁generally	-8989
▁institution	-8990
▁interesting	-8991
bow	-8992
▁Et	-8993
▁Ll	-8994
ghan	-8995
▁Kin	-8996
▁Leg	-8997
▁inqu	-8998
▁toss	-8999
icians	-9000
▁Middle	-9001
▁endeav	-9002
▁nobody	-9003
▁stream	-9004
ointment	-9005
▁Marlowe	-9006
▁belongs	-9007
▁circles	-9008
▁islands	-9009
▁bodyguard	-9010
▁forbidden	-9011
▁uncertain	-9012
▁Ultimately	-9013
▁questioning	-9014
▁expectations	-9015
▁Bea	-9016
▁fru	-9017
▁log	-9018
▁nom	-9019
▁Mitc	-9020
▁lect	-9021
▁scen	-9022
stones	-9023
▁Seeing	-9024
▁cultiv	-9025
▁sleeps	-9026
▁Cameron	-9027
▁oversee	-9028
▁According	-9029
▁frightened	-9030
▁devastating	-9031
▁engineering	-9032
put	-9033
wan	-9034
amas	-9035
udge	-9036
▁duo	-9037
ikely	-9038
press	-9039
umped	-9040
▁Bets	-9041
▁Down	-9042
▁Morg	-9043
▁ally	-9044
▁argu	-9045
▁craw	-9046
▁Rowan	-9047
▁basket	-9048
▁duties	-9049
▁marvel	-9050
▁raises	-9051
▁recomm	-9052
▁trains	-9053
▁tribes	-9054
▁Service	-9055
▁settled	-9056
▁welcome	-9057
▁Marshall	-9058
▁controls	-9059
▁imperson	-9060
▁laughter	-9061
▁majority	-9062
▁galleries	-9063
▁paintings	-9064
▁possesses	-9065
▁prompting	-9066
▁violently	-9067
▁Hornblower	-9068
▁identifies	-9069
▁infectious	-9070
▁laboratory	-9071
▁seamlessly	-9072
IS	-9073
rak	-9074
sex	-9075
aman	-9076
lesh	-9077
omic	-9078
▁Aly	-9079
▁Bul	-9080
▁Dod	-9081
▁fet	-9082
▁ric	-9083
ufact	-9084
▁Budd	-9085
▁Last	-9086
▁Sund	-9087
▁sale	-9088
▁Flint	-9089
▁Prime	-9090
▁Water	-9091
▁bombs	-9092
▁prize	-9093
▁waves	-9094
▁Mickey	-9095
▁Morris	-9096
▁cowork	-9097
▁portal	-9098
▁Natalie	-9099
▁dramatic	-9100
▁northern	-9101
▁differences	-9102
▁Ye	-9103
gest	-9104
▁Odd	-9105
▁Benn	-9106
▁Cold	-9107
izards	-9108
vation	-9109
▁Rover	-9110
▁consc	-9111
▁hobby	-9112
▁mixed	-9113
steroid	-9114
▁Jessie	-9115
▁eldest	-9116
▁themes	-9117
▁cocaine	-9118
▁council	-9119
▁missile	-9120
▁messages	-9121
▁captivate	-9122
▁invaluable	-9123
▁underworld	-9124
▁International	-9125
▁communication	-9126
ti	-9127
alo	-9128
oyd	-9129
▁Ms	-9130
▁Mik	-9131
▁lic	-9132
▁scr	-9133
▁loud	-9134
▁unle	-9135
▁Dylan	-9136
▁Mered	-9137
▁funds	-9138
▁siege	-9139
▁Evelyn	-9140
▁armies	-9141
▁commer	-9142
▁conven	-9143
▁genius	-9144
▁honors	-9145
▁treats	-9146
▁comprom	-9147
▁getaway	-9148
▁Meredith	-9149
▁meetings	-9150
▁instructs	-9151
▁notorious	-9152
▁physician	-9153
ede	-9154
gil	-9155
gus	-9156
alow	-9157
bury	-9158
quer	-9159
▁Inn	-9160
▁Pak	-9161
▁spo	-9162
amous	-9163
▁Dall	-9164
▁Jody	-9165
▁Mand	-9166
▁Ricky	-9167
▁rings	-9168
▁Oxford	-9169
▁Sheila	-9170
▁motion	-9171
▁parent	-9172
▁satell	-9173
▁chasing	-9174
▁combine	-9175
▁feature	-9176
▁greatly	-9177
▁masters	-9178
▁quietly	-9179
▁raising	-9180
▁worship	-9181
▁Everyone	-9182
▁Sullivan	-9183
▁announce	-9184
▁depicted	-9185
▁flourish	-9186
▁reported	-9187
▁respective	-9188
▁specialist	-9189
▁conversations	-9190
bon	-9191
ogy	-9192
ario	-9193
mund	-9194
ellar	-9195
rupts	-9196
ylvan	-9197
▁Otto	-9198
▁neur	-9199
▁quit	-9200
iously	-9201
▁cries	-9202
▁nickn	-9203
▁surve	-9204
▁trunk	-9205
▁Atlant	-9206
▁Circle	-9207
▁Warren	-9208
▁insult	-9209
▁beliefs	-9210
▁counsel	-9211
▁intimate	-9212
▁opposite	-9213
▁recovery	-9214
▁Institute	-9215
▁intercept	-9216
▁combination	-9217
▁entrepreneur	-9218
eda	-9219
hop	-9220
yan	-9221
zes	-9222
aney	-9223
aris	-9224
atha	-9225
hard	-9226
oven	-9227
▁Amb	-9228
▁Din	-9229
▁Rox	-9230
▁ham	-9231
enery	-9232
erial	-9233
▁Hale	-9234
▁Toni	-9235
▁comr	-9236
▁cope	-9237
▁guys	-9238
▁wave	-9239
eriors	-9240
▁Krish	-9241
▁crown	-9242
▁prime	-9243
▁Sister	-9244
▁adults	-9245
▁ladies	-9246
▁mortal	-9247
▁welcom	-9248
▁Georges	-9249
▁conserv	-9250
▁ignores	-9251
▁traffic	-9252
▁Courtney	-9253
▁appeared	-9254
▁downtime	-9255
▁finishes	-9256
▁Initially	-9257
▁teenagers	-9258
▁encountered	-9259
nic	-9260
▁Id	-9261
hire	-9262
▁Add	-9263
▁Hob	-9264
▁Ins	-9265
▁Abra	-9266
▁Barr	-9267
▁Shin	-9268
▁Wong	-9269
▁bicy	-9270
▁prin	-9271
asmine	-9272
making	-9273
▁Hamil	-9274
▁Order	-9275
▁aside	-9276
▁infat	-9277
▁mayor	-9278
▁utter	-9279
▁Corpor	-9280
▁aftern	-9281
▁kissing	-9282
▁recalls	-9283
▁Marianne	-9284
▁communic	-9285
▁superiors	-9286
▁treatments	-9287
▁instructions	-9288
ea	-9289
aints	-9290
angle	-9291
ivery	-9292
▁Hels	-9293
▁cosm	-9294
▁polo	-9295
▁ster	-9296
▁stun	-9297
▁Third	-9298
▁attic	-9299
▁eaten	-9300
▁handle	-9301
▁heroin	-9302
▁images	-9303
▁spared	-9304
▁coveted	-9305
▁extract	-9306
▁nations	-9307
▁abruptly	-9308
▁artistic	-9309
▁function	-9310
▁grandson	-9311
▁narrated	-9312
▁proclaim	-9313
▁southern	-9314
▁stopping	-9315
▁defeating	-9316
▁restoring	-9317
▁considerable	-9318
▁experimenting	-9319
10	-9320
aws	-9321
burn	-9322
tery	-9323
▁Mam	-9324
ucker	-9325
▁nose	-9326
ingers	-9327
▁Betsy	-9328
▁Ellie	-9329
▁Evans	-9330
▁fever	-9331
▁deputy	-9332
▁distracted	-9333
bra	-9334
▁Ep	-9335
▁Oh	-9336
▁Age	-9337
▁Hog	-9338
▁Kle	-9339
▁Tat	-9340
▁Vic	-9341
▁vic	-9342
uming	-9343
▁Roth	-9344
▁rope	-9345
▁Raven	-9346
▁Space	-9347
▁crazy	-9348
▁orche	-9349
▁trace	-9350
ylvania	-9351
▁builds	-9352
▁gotten	-9353
▁horrif	-9354
▁assures	-9355
▁brothel	-9356
▁therapy	-9357
▁windows	-9358
▁unlikely	-9359
▁motorcycle	-9360
▁alternative	-9361
▁exhibitions	-9362
▁permanently	-9363
ori	-9364
holm	-9365
▁Dim	-9366
▁Sey	-9367
▁Tig	-9368
angel	-9369
illas	-9370
oples	-9371
▁Jose	-9372
▁Troy	-9373
▁Vera	-9374
▁amen	-9375
▁phen	-9376
▁Coast	-9377
▁Micha	-9378
▁Vicky	-9379
▁gangs	-9380
▁relie	-9381
▁smoke	-9382
▁Inside	-9383
▁Muslim	-9384
▁sequel	-9385
▁enthusi	-9386
▁furnish	-9387
▁motives	-9388
▁resorts	-9389
▁threats	-9390
▁traitor	-9391
▁watched	-9392
▁drowning	-9393
▁manufact	-9394
▁massacre	-9395
▁narrowly	-9396
▁assassinate	-9397
▁Hy	-9398
▁ce	-9399
ayne	-9400
onia	-9401
rous	-9402
thal	-9403
▁Bus	-9404
▁Cro	-9405
▁Ish	-9406
▁Lan	-9407
▁fra	-9408
▁vul	-9409
&#39;	-9410
phant	-9411
▁Scro	-9412
▁barg	-9413
▁exit	-9414
▁taxi	-9415
iosity	-9416
▁Erica	-9417
▁Frost	-9418
▁Honor	-9419
▁arrog	-9420
▁cargo	-9421
▁Tintin	-9422
▁archae	-9423
▁cellar	-9424
▁closet	-9425
▁expans	-9426
▁partly	-9427
▁regain	-9428
▁bandits	-9429
▁healing	-9430
▁hunters	-9431
▁uniform	-9432
▁Canadian	-9433
▁suggestion	-9434
▁tournament	-9435
▁volunteers	-9436
▁intricacies	-9437
▁masterpiece	-9438
AT	-9439
anya	-9440
lymp	-9441
icial	-9442
isure	-9443
ouses	-9444
ropri	-9445
▁Orle	-9446
▁east	-9447
▁ruin	-9448
▁tact	-9449
astery	-9450
▁Devil	-9451
▁Haven	-9452
▁Kumar	-9453
▁bloss	-9454
▁liber	-9455
▁overt	-9456
▁tough	-9457
▁union	-9458
▁wears	-9459
▁abused	-9460
▁explor	-9461
▁growth	-9462
▁hanged	-9463
▁junior	-9464
▁undert	-9465
▁Chapter	-9466
▁Griffin	-9467
▁cousins	-9468
▁flowers	-9469
▁painful	-9470
▁reunion	-9471
▁stomach	-9472
▁cemetery	-9473
▁district	-9474
▁gunpoint	-9475
▁internal	-9476
▁resident	-9477
▁tailored	-9478
▁ventures	-9479
▁Valentine	-9480
▁orphanage	-9481
▁determines	-9482
▁hospitality	-9483
St	-9484
osa	-9485
erty	-9486
▁Aur	-9487
▁Cyr	-9488
▁Lex	-9489
▁tip	-9490
anned	-9491
▁Head	-9492
▁Karan	-9493
▁excit	-9494
▁perce	-9495
brother	-9496
▁Athens	-9497
▁Aubrey	-9498
▁Conrad	-9499
▁Temple	-9500
▁proved	-9501
▁regains	-9502
▁thieves	-9503
▁Mitchell	-9504
▁kindness	-9505
▁reunites	-9506
▁publisher	-9507
hu	-9508
pes	-9509
aksh	-9510
iker	-9511
▁Bah	-9512
▁Eri	-9513
▁hal	-9514
▁web	-9515
berry	-9516
▁Bean	-9517
▁cool	-9518
▁stro	-9519
▁tyco	-9520
arents	-9521
atches	-9522
▁absol	-9523
▁areas	-9524
▁patri	-9525
powered	-9526
▁Dallas	-9527
▁Pamela	-9528
▁Venice	-9529
▁framed	-9530
▁warned	-9531
▁acquired	-9532
▁declared	-9533
▁intending	-9534
▁screaming	-9535
▁Collectors	-9536
▁describing	-9537
▁lieutenant	-9538
DS	-9539
gor	-9540
ibi	-9541
oen	-9542
grim	-9543
quin	-9544
▁Ira	-9545
based	-9546
state	-9547
▁Doug	-9548
▁Lane	-9549
▁Plan	-9550
▁Wade	-9551
▁monk	-9552
▁porn	-9553
▁seas	-9554
ixture	-9555
▁Elmer	-9556
▁Sadie	-9557
▁Vijay	-9558
▁outdo	-9559
▁sings	-9560
▁Carmen	-9561
▁County	-9562
▁Heaven	-9563
▁Jersey	-9564
▁branch	-9565
▁Shannon	-9566
▁endless	-9567
▁gourmet	-9568
▁removes	-9569
▁slavery	-9570
▁graduate	-9571
▁invisible	-9572
▁misunderst	-9573
▁stepmother	-9574
▁investigator	-9575
▁protagonists	-9576
irk	-9577
jud	-9578
shot	-9579
▁Ker	-9580
child	-9581
▁Mend	-9582
▁Pars	-9583
▁coat	-9584
arring	-9585
omfort	-9586
▁Conan	-9587
▁Edgar	-9588
▁Hotel	-9589
▁Shane	-9590
▁analy	-9591
▁basic	-9592
▁milit	-9593
▁repro	-9594
▁tempt	-9595
▁rabbit	-9596
▁sailor	-9597
▁anymore	-9598
▁cigaret	-9599
▁gathers	-9600
▁install	-9601
▁trailer	-9602
▁Robinson	-9603
▁embodied	-9604
▁governor	-9605
▁slightly	-9606
▁strongly	-9607
▁uncovers	-9608
ologically	-9609
▁collected	-9610
▁poisoning	-9611
▁excitement	-9612
▁surroundings	-9613
!"	-9614
enz	-9615
ashi	-9616
hill	-9617
hips	-9618
▁Mae	-9619
▁Sax	-9620
▁ber	-9621
ansas	-9622
▁Kurt	-9623
▁Swed	-9624
▁Wats	-9625
▁envy	-9626
▁intr	-9627
▁Milan	-9628
▁absor	-9629
▁hangs	-9630
▁manif	-9631
▁wives	-9632
▁Napole	-9633
▁Pierre	-9634
▁Sookie	-9635
▁exclus	-9636
▁gifted	-9637
▁liking	-9638
▁Valerie	-9639
▁arguing	-9640
▁biggest	-9641
▁expense	-9642
▁requires	-9643
▁interviews	-9644
▁relaxation	-9645
▁revelation	-9646
▁furnishings	-9647
▁revolutionary	-9648
ali	-9649
▁Ow	-9650
ingo	-9651
izer	-9652
▁Duc	-9653
▁Inc	-9654
▁Mow	-9655
▁Glob	-9656
▁nice	-9657
▁Trans	-9658
▁asset	-9659
▁camer	-9660
▁camps	-9661
▁skull	-9662
ustomed	-9663
▁Helena	-9664
▁Lionel	-9665
▁Native	-9666
▁adored	-9667
▁clever	-9668
▁concer	-9669
▁origin	-9670
▁traces	-9671
▁volume	-9672
▁Maurice	-9673
▁Philipp	-9674
▁acquire	-9675
▁gaining	-9676
▁surgeon	-9677
▁thereby	-9678
▁bungalow	-9679
▁immortal	-9680
▁occupied	-9681
▁refusing	-9682
▁waitress	-9683
▁protected	-9684
▁retrieves	-9685
bey	-9686
▁IS	-9687
▁Dad	-9688
▁Ing	-9689
▁Brig	-9690
▁yard	-9691
mitted	-9692
▁Domin	-9693
▁Jenna	-9694
▁Wells	-9695
▁dwarf	-9696
▁glory	-9697
▁poker	-9698
acement	-9699
▁Harper	-9700
▁boards	-9701
▁motive	-9702
▁prefer	-9703
▁stones	-9704
▁Orleans	-9705
▁Michaels	-9706
▁asteroid	-9707
▁delivery	-9708
▁increase	-9709
▁transfer	-9710
▁explained	-9711
▁nicknamed	-9712
▁overthrow	-9713
▁practical	-9714
▁reconnect	-9715
▁disturbing	-9716
pit	-9717
onto	-9718
term	-9719
ulet	-9720
▁21,	-9721
arner	-9722
illes	-9723
uffed	-9724
▁Hand	-9725
▁liqu	-9726
▁Henri	-9727
▁Olymp	-9728
▁Pedro	-9729
▁quant	-9730
▁Forest	-9731
▁Ripley	-9732
▁bounty	-9733
▁incomp	-9734
▁openly	-9735
▁dresses	-9736
▁excited	-9737
▁leisure	-9738
▁silence	-9739
▁typical	-9740
▁cheating	-9741
▁confides	-9742
▁orphaned	-9743
▁curiosity	-9744
▁expecting	-9745
▁resonated	-9746
▁committing	-9747
▁impression	-9748
▁questioned	-9749
▁stepfather	-9750
▁accompanies	-9751
▁MI	-9752
▁Ok	-9753
capt	-9754
▁Chi	-9755
▁Pil	-9756
▁dre	-9757
▁row	-9758
▁Bone	-9759
▁Boys	-9760
▁Debb	-9761
▁Milo	-9762
▁Ragh	-9763
▁Turk	-9764
▁Vish	-9765
▁enig	-9766
▁mode	-9767
encies	-9768
▁crack	-9769
▁depos	-9770
▁marks	-9771
▁rapes	-9772
▁shift	-9773
▁subpl	-9774
▁twist	-9775
ameless	-9776
itating	-9777
▁Officer	-9778
▁costume	-9779
▁schemes	-9780
▁western	-9781
▁awaiting	-9782
▁critical	-9783
▁horrible	-9784
▁retreats	-9785
ultaneously	-9786
▁retirement	-9787
now	-9788
paw	-9789
▁py	-9790
iets	-9791
oral	-9792
zing	-9793
▁pin	-9794
▁upd	-9795
isser	-9796
ockey	-9797
river	-9798
▁glad	-9799
▁Caleb	-9800
▁Joyce	-9801
▁escal	-9802
▁feast	-9803
▁mutil	-9804
▁pursu	-9805
▁Knight	-9806
▁caring	-9807
▁relent	-9808
▁sounds	-9809
▁Bentley	-9810
▁coastal	-9811
▁madness	-9812
▁Isabella	-9813
▁Thompson	-9814
▁academic	-9815
▁affected	-9816
▁champion	-9817
▁employed	-9818
▁unstable	-9819
▁afternoon	-9820
▁classmate	-9821
▁exception	-9822
▁consulting	-9823
▁remembering	-9824
▁experiencing	-9825
Don	-9826
eor	-9827
tes	-9828
folk	-9829
▁Gun	-9830
▁Why	-9831
▁bot	-9832
▁kne	-9833
aired	-9834
asses	-9835
▁Craw	-9836
▁epit	-9837
irteen	-9838
▁Darcy	-9839
▁clown	-9840
▁firing	-9841
▁memoir	-9842
▁poetry	-9843
▁pushed	-9844
▁Reacher	-9845
▁opinion	-9846
▁remarks	-9847
▁resolve	-9848
▁Constant	-9849
▁Harrison	-9850
▁midnight	-9851
▁identical	-9852
▁Federation	-9853
▁heartbroken	-9854
6.	-9855
abe	-9856
cha	-9857
joy	-9858
lem	-9859
oca	-9860
▁Fed	-9861
▁gat	-9862
▁gym	-9863
ateur	-9864
istry	-9865
▁Burn	-9866
▁Hawk	-9867
▁dawn	-9868
bourne	-9869
▁Celia	-9870
▁Flora	-9871
▁chess	-9872
▁scare	-9873
▁stret	-9874
▁Sherry	-9875
▁Travel	-9876
▁cannib	-9877
▁covert	-9878
▁thrill	-9879
▁winery	-9880
▁Stewart	-9881
▁jumping	-9882
▁pretend	-9883
▁	-9884
e	-9885
t	-9886
a	-9887
i	-9888
n	-9889
o	-9890
s	-9891
r	-9892
h	-9893
l	-9894
d	-9895
c	-9896
u	-9897
m	-9898
f	-9899
g	-9900
p	-9901
y	-9902
w	-9903
b	-9904
,	-9905
v	-9906
.	-9907
k	-9908
T	-9909
S	-9910
A	-9911
M	-9912
H	-9913
C	-9914
x	-9915
B	-9916
'	-9917
D	-9918
J	-9919
L	-9920
R	-9921
W	-9922
I	-9923
P	-9924
-	-9925
G	-9926
j	-9927
E	-9928
F	-9929
z	-9930
K	-9931
N	-9932
q	-9933
"	-9934
O	-9935
V	-9936
1	-9937
U	-9938
)	-9939
(	-9940
0	-9941
Y	-9942
;	-9943
9	-9944
:	-9945
2	-9946
Z	-9947
3	-9948
5	-9949
4	-9950
8	-9951
Q	-9952
7	-9953
6	-9954
?	-9955
*	-9956
&	-9957
!	-9958
X	-9959
#	-9960
/	-9961
]	-9962
[	-9963
$	-9964
|	-9965
=	-9966
<	-9967
>	-9968
%	-9969
_	-9970
+	-9971
`	-9972
}	-9973
{	-9974
@	-9975
~	-9976
\	-9977
^	-9978
