<pad>	0
<unk>	0
<s>	0
</s>	0
<action>	0
<ai>	0
<children>	0
<comedy>	0
<crime>	0
<drama>	0
<fantasy>	0
<historical>	0
<horror>	0
<nonfiction>	0
<other>	0
<realism>	0
<romance>	0
<science_fiction>	0
<speculative>	0
<thriller>	0
<young_adult>	0
▁t	-0
he	-1
▁a	-2
in	-3
▁the	-4
er	-5
nd	-6
▁s	-7
re	-8
▁o	-9
is	-10
▁w	-11
es	-12
▁h	-13
▁b	-14
at	-15
▁f	-16
on	-17
▁to	-18
▁c	-19
en	-20
ing	-21
▁and	-22
or	-23
it	-24
ed	-25
ar	-26
an	-27
▁in	-28
▁p	-29
▁of	-30
▁he	-31
al	-32
▁d	-33
▁m	-34
ou	-35
le	-36
as	-37
om	-38
ic	-39
el	-40
il	-41
▁th	-42
▁l	-43
▁re	-44
▁is	-45
▁T	-46
ion	-47
im	-48
▁her	-49
▁g	-50
▁his	-51
▁e	-52
▁n	-53
ent	-54
ac	-55
▁S	-56
▁A	-57
▁be	-58
st	-59
ot	-60
ur	-61
ly	-62
ow	-63
ut	-64
ol	-65
ith	-66
et	-67
ri	-68
ve	-69
ad	-70
▁M	-71
am	-72
▁with	-73
▁for	-74
ir	-75
▁H	-76
▁wh	-77
▁that	-78
ter	-79
ver	-80
▁on	-81
▁C	-82
us	-83
▁st	-84
id	-85
gh	-86
her	-87
▁B	-88
ec	-89
un	-90
▁The	-91
ro	-92
ay	-93
▁as	-94
ra	-95
ill	-96
▁D	-97
ce	-98
▁an	-99
ak	-100
ul	-101
▁him	-102
▁by	-103
ts	-104
▁J	-105
if	-106
▁at	-107
▁L	-108
▁R	-109
▁al	-110
▁she	-111
ers	-112
▁W	-113
os	-114
ation	-115
ge	-116
ess	-117
ch	-118
rom	-119
▁k	-120
and	-121
▁P	-122
est	-123
ld	-124
em	-125
ous	-126
ap	-127
▁con	-128
▁I	-129
▁G	-130
ain	-131
▁was	-132
▁who	-133
▁ex	-134
▁F	-135
▁le	-136
▁from	-137
▁E	-138
up	-139
end	-140
▁v	-141
op	-142
▁it	-143
iv	-144
od	-145
▁de	-146
ie	-147
▁sh	-148
▁ch	-149
ell	-150
igh	-151
ig	-152
art	-153
▁whe	-154
ack	-155
▁but	-156
res	-157
▁has	-158
▁com	-159
ind	-160
▁se	-161
▁lo	-162
ate	-163
▁K	-164
ant	-165
ist	-166
▁ne	-167
ab	-168
▁are	-169
rou	-170
av	-171
um	-172
▁wor	-173
▁N	-174
▁their	-175
ity	-176
all	-177
ore	-178
▁int	-179
▁they	-180
qu	-181
ich	-182
ct	-183
ag	-184
th	-185
ies	-186
ard	-187
ome	-188
▁un	-189
▁He	-190
fter	-191
ry	-192
ally	-193
▁pl	-194
ive	-195
ure	-196
▁r	-197
are	-198
▁ar	-199
▁y	-200
oun	-201
▁ab	-202
ear	-203
ave	-204
ife	-205
ect	-206
▁up	-207
▁out	-208
ust	-209
▁not	-210
oc	-211
ok	-212
▁j	-213
▁su	-214
▁O	-215
▁sp	-216
ile	-217
ip	-218
▁dis	-219
▁pro	-220
ud	-221
other	-222
▁into	-223
▁man	-224
out	-225
ass	-226
ast	-227
urn	-228
▁cl	-229
▁them	-230
se	-231
▁go	-232
ort	-233
ight	-234
▁bec	-235
vel	-236
cc	-237
▁en	-238
own	-239
▁att	-240
▁bo	-241
▁which	-242
ep	-243
▁She	-244
ious	-245
one	-246
ks	-247
▁tak	-248
▁In	-249
ment	-250
ong	-251
ia	-252
wn	-253
iz	-254
ite	-255
▁Ch	-256
ather	-257
▁V	-258
ime	-259
ans	-260
▁find	-261
▁all	-262
▁had	-263
▁exp	-264
▁do	-265
▁tr	-266
our	-267
ide	-268
▁one	-269
▁ev	-270
ue	-271
age	-272
▁where	-273
sel	-274
▁kill	-275
co	-276
ost	-277
pp	-278
ice	-279
ire	-280
ff	-281
▁life	-282
ine	-283
ath	-284
ne	-285
ther	-286
▁off	-287
▁or	-288
▁ag	-289
▁res	-290
ace	-291
ory	-292
ated	-293
ould	-294
ily	-295
ick	-296
ob	-297
riend	-298
ild	-299
▁when	-300
▁after	-301
ance	-302
ame	-303
oll	-304
▁cont	-305
ves	-306
▁have	-307
ence	-308
▁des	-309
self	-310
▁St	-311
ik	-312
▁As	-313
▁tra	-314
▁"	-315
ang	-316
▁im	-317
ach	-318
▁ret	-319
▁so	-320
ond	-321
▁Th	-322
▁ad	-323
▁world	-324
ash	-325
ial	-326
hen	-327
ian	-328
▁(	-329
▁pre	-330
▁no	-331
uc	-332
▁about	-333
▁time	-334
ings	-335
▁tw	-336
ish	-337
ets	-338
ater	-339
▁other	-340
▁me	-341
▁U	-342
ins	-343
ays	-344
ub	-345
▁fam	-346
so	-347
ign	-348
▁this	-349
▁An	-350
▁Mar	-351
▁father	-352
▁sc	-353
rough	-354
▁will	-355
ib	-356
pt	-357
ens	-358
der	-359
▁ro	-360
▁pr	-361
orm	-362
old	-363
und	-364
reat	-365
og	-366
▁can	-367
▁dec	-368
▁love	-369
▁over	-370
arn	-371
act	-372
▁back	-373
▁been	-374
▁mak	-375
▁friend	-376
ions	-377
ew	-378
ents	-379
▁also	-380
ree	-381
use	-382
▁comp	-383
cover	-384
▁beg	-385
cl	-386
▁Al	-387
▁only	-388
▁kn	-389
▁qu	-390
hes	-391
ound	-392
▁then	-393
ough	-394
▁app	-395
ears	-396
mer	-397
ood	-398
▁inv	-399
▁part	-400
▁new	-401
ely	-402
ose	-403
able	-404
ful	-405
▁family	-406
ren	-407
▁fin	-408
▁tell	-409
ations	-410
ows	-411
▁two	-412
▁return	-413
ouse	-414
▁1	-415
ail	-416
▁work	-417
▁When	-418
ives	-419
▁own	-420
▁After	-421
▁br	-422
au	-423
ys	-424
iss	-425
ons	-426
round	-427
oung	-428
als	-429
ult	-430
ever	-431
▁end	-432
very	-433
▁mar	-434
een	-435
ict	-436
ru	-437
ber	-438
▁hel	-439
fore	-440
▁young	-441
ces	-442
ary	-443
ress	-444
▁bl	-445
ord	-446
▁Jo	-447
uring	-448
▁Her	-449
man	-450
▁home	-451
ical	-452
▁tri	-453
ates	-454
app	-455
oth	-456
▁fir	-457
▁es	-458
itt	-459
▁imp	-460
owing	-461
▁would	-462
▁acc	-463
▁child	-464
ters	-465
▁Y	-466
▁help	-467
▁we	-468
▁mother	-469
cap	-470
▁real	-471
riv	-472
ux	-473
ors	-474
ade	-475
▁while	-476
▁per	-477
▁They	-478
▁pass	-479
▁sec	-480
▁discover	-481
▁rem	-482
hed	-483
les	-484
aw	-485
▁some	-486
▁aw	-487
▁through	-488
▁again	-489
per	-490
ning	-491
oy	-492
▁rel	-493
ount	-494
▁und	-495
uxur	-496
ually	-497
▁us	-498
▁car	-499
ool	-500
ran	-501
owever	-502
▁himself	-503
▁sur	-504
▁being	-505
▁book	-506
augh	-507
▁ind	-508
ov	-509
▁gr	-510
▁story	-511
hip	-512
▁first	-513
▁comm	-514
▁luxur	-515
ike	-516
▁pers	-517
▁pe	-518
hn	-519
▁before	-520
▁inf	-521
▁foll	-522
apt	-523
▁cr	-524
▁call	-525
irl	-526
▁more	-527
aren	-528
▁house	-529
▁finds	-530
▁under	-531
▁get	-532
▁high	-533
▁act	-534
▁inter	-535
aving	-536
▁escap	-537
ating	-538
air	-539
its	-540
ied	-541
▁pol	-542
hile	-543
ft	-544
rand	-545
land	-546
ise	-547
▁Sh	-548
▁dest	-549
ident	-550
▁te	-551
▁wom	-552
▁tells	-553
▁ass	-554
▁conf	-555
ase	-556
▁old	-557
▁most	-558
▁there	-559
▁its	-560
oin	-561
ert	-562
▁fl	-563
▁char	-564
▁ref	-565
amp	-566
▁ser	-567
ashion	-568
ere	-569
▁ra	-570
▁plan	-571
ccess	-572
▁mem	-573
king	-574
▁It	-575
▁bus	-576
ron	-577
▁ac	-578
▁rep	-579
▁ent	-580
ition	-581
▁bel	-582
▁bet	-583
▁becom	-584
ting	-585
▁ins	-586
▁lead	-587
oss	-588
▁death	-589
▁expl	-590
▁Ar	-591
chool	-592
▁city	-593
▁fashion	-594
▁take	-595
▁down	-596
att	-597
▁takes	-598
▁loc	-599
▁success	-600
ark	-601
▁see	-602
gg	-603
amed	-604
lect	-605
▁years	-606
▁girl	-607
▁learn	-608
ness	-609
▁reve	-610
▁At	-611
ause	-612
▁det	-613
▁rec	-614
ues	-615
▁em	-616
▁col	-617
▁attem	-618
ph	-619
▁does	-620
▁fe	-621
▁am	-622
ower	-623
▁mur	-624
▁novel	-625
▁found	-626
▁travel	-627
ople	-628
▁turn	-629
ean	-630
red	-631
ret	-632
▁ri	-633
ures	-634
▁ph	-635
▁school	-636
▁soc	-637
▁night	-638
▁art	-639
▁pres	-640
▁hum	-641
arl	-642
ides	-643
rit	-644
▁person	-645
xt	-646
▁capt	-647
▁day	-648
ah	-649
▁vis	-650
▁design	-651
ten	-652
▁later	-653
▁way	-654
led	-655
▁both	-656
▁make	-657
▁were	-658
vers	-659
▁contin	-660
less	-661
▁bre	-662
▁what	-663
▁begins	-664
▁away	-665
vent	-666
▁friends	-667
ock	-668
arr	-669
▁inst	-670
oot	-671
▁His	-672
▁Cl	-673
ann	-674
▁becomes	-675
▁luxury	-676
yle	-677
ward	-678
▁perf	-679
▁every	-680
▁El	-681
eth	-682
▁sup	-683
▁now	-684
orn	-685
get	-686
▁set	-687
ody	-688
▁However	-689
▁people	-690
aves	-691
ced	-692
▁goes	-693
▁run	-694
▁fall	-695
▁care	-696
pite	-697
iving	-698
ains	-699
ual	-700
▁well	-701
yst	-702
ands	-703
ison	-704
pl	-705
▁wife	-706
ved	-707
▁co	-708
▁attack	-709
▁murder	-710
▁John	-711
▁bu	-712
▁killed	-713
ier	-714
ars	-715
my	-716
enn	-717
▁named	-718
▁Z	-719
clud	-720
ke	-721
ley	-722
ene	-723
▁tal	-724
urs	-725
iness	-726
▁gu	-727
▁woman	-728
ants	-729
▁any	-730
▁son	-731
▁belie	-732
ric	-733
aughter	-734
ince	-735
▁cons	-736
▁just	-737
▁become	-738
iet	-739
▁during	-740
let	-741
▁because	-742
ited	-743
▁paren	-744
▁Le	-745
▁town	-746
uth	-747
▁escape	-748
▁Mr	-749
ork	-750
▁made	-751
rew	-752
▁sm	-753
▁arri	-754
▁Un	-755
ble	-756
▁head	-757
▁Re	-758
▁event	-759
▁than	-760
ven	-761
roup	-762
az	-763
▁19	-764
▁passion	-765
els	-766
▁police	-767
pect	-768
▁parents	-769
▁Des	-770
iff	-771
rist	-772
ween	-773
▁often	-774
ake	-775
▁This	-776
▁another	-777
ern	-778
▁marri	-779
▁even	-780
▁war	-781
▁el	-782
▁brother	-783
▁sl	-784
▁long	-785
▁op	-786
▁between	-787
ull	-788
▁New	-789
oney	-790
▁herself	-791
▁meet	-792
▁men	-793
ient	-794
▁like	-795
arly	-796
▁next	-797
▁play	-798
▁quick	-799
▁On	-800
▁group	-801
olog	-802
uch	-803
erm	-804
ured	-805
▁if	-806
▁rest	-807
iel	-808
ined	-809
by	-810
▁each	-811
▁But	-812
ately	-813
▁business	-814
ek	-815
uses	-816
▁sk	-817
▁dead	-818
▁could	-819
▁ke	-820
ists	-821
▁soon	-822
ty	-823
▁daughter	-824
io	-825
ling	-826
▁never	-827
ane	-828
bs	-829
▁how	-830
ilm	-831
▁includ	-832
arth	-833
▁De	-834
▁place	-835
▁power	-836
▁quickly	-837
pts	-838
ained	-839
00	-840
▁gl	-841
▁against	-842
▁children	-843
▁tries	-844
ps	-845
ale	-846
ady	-847
▁invest	-848
any	-849
▁Gr	-850
ased	-851
▁three	-852
▁leave	-853
atch	-854
▁things	-855
ister	-856
▁around	-857
▁try	-858
▁realiz	-859
ina	-860
ug	-861
aut	-862
▁stud	-863
▁look	-864
ines	-865
ros	-866
den	-867
▁boy	-868
ility	-869
▁str	-870
▁sub	-871
▁fight	-872
▁And	-873
▁meets	-874
ted	-875
▁happ	-876
ities	-877
eri	-878
rag	-879
▁2	-880
▁ext	-881
▁gets	-882
▁Bl	-883
ages	-884
▁break	-885
▁mo	-886
▁Sp	-887
▁film	-888
ax	-889
ner	-890
▁returns	-891
velop	-892
▁comes	-893
alth	-894
▁leaves	-895
▁Despite	-896
▁though	-897
▁nat	-898
uck	-899
▁many	-900
▁personal	-901
▁En	-902
▁money	-903
ends	-904
ying	-905
ways	-906
▁While	-907
▁def	-908
ames	-909
ink	-910
af	-911
▁fav	-912
▁beh	-913
▁decides	-914
..	-915
ination	-916
▁charac	-917
▁having	-918
ream	-919
▁dem	-920
meric	-921
▁miss	-922
ital	-923
ible	-924
▁Fran	-925
ney	-926
▁eventually	-927
▁inc	-928
▁develop	-929
▁sever	-930
▁priv	-931
▁-	-932
▁secret	-933
▁always	-934
▁hist	-935
ued	-936
te	-937
part	-938
bers	-939
▁come	-940
▁dr	-941
▁mag	-942
arm	-943
arts	-944
▁With	-945
▁count	-946
▁seem	-947
▁trans	-948
gether	-949
▁together	-950
▁age	-951
▁body	-952
▁social	-953
▁successful	-954
▁must	-955
▁ship	-956
▁reveal	-957
anc	-958
▁Jack	-959
▁still	-960
▁discovers	-961
ided	-962
▁mon	-963
que	-964
ving	-965
▁sw	-966
▁human	-967
▁Christ	-968
▁prom	-969
ects	-970
▁est	-971
ton	-972
▁relations	-973
▁left	-974
▁med	-975
▁unt	-976
▁Americ	-977
▁attempt	-978
ared	-979
be	-980
▁enc	-981
ix	-982
▁order	-983
▁main	-984
▁room	-985
▁aff	-986
▁prot	-987
▁show	-988
while	-989
gn	-990
▁Sc	-991
▁Br	-992
lic	-993
▁Tom	-994
▁Be	-995
friend	-996
▁sle	-997
▁know	-998
▁makes	-999
ense	-1000
▁events	-1001
vin	-1002
▁One	-1003
ional	-1004
▁destro	-1005
ered	-1006
▁last	-1007
ross	-1008
▁stop	-1009
▁perfect	-1010
ches	-1011
ator	-1012
cept	-1013
▁Em	-1014
▁po	-1015
▁lives	-1016
illed	-1017
ural	-1018
▁ends	-1019
▁follow	-1020
▁ca	-1021
▁Q	-1022
uct	-1023
▁contr	-1024
▁relationship	-1025
▁keep	-1026
▁Rob	-1027
▁let	-1028
▁mod	-1029
▁sus	-1030
aster	-1031
▁sent	-1032
port	-1033
▁beaut	-1034
▁called	-1035
▁same	-1036
igious	-1037
hel	-1038
ris	-1039
▁favor	-1040
uss	-1041
yl	-1042
▁much	-1043
aj	-1044
ony	-1045
ener	-1046
leg	-1047
▁Har	-1048
▁Ang	-1049
▁Ad	-1050
▁reg	-1051
▁very	-1052
lex	-1053
▁local	-1054
nown	-1055
side	-1056
▁inform	-1057
▁until	-1058
ired	-1059
▁Dr	-1060
aur	-1061
usb	-1062
ically	-1063
ats	-1064
▁sex	-1065
▁Am	-1066
ead	-1067
▁begin	-1068
osp	-1069
▁Will	-1070
eanwhile	-1071
▁Ed	-1072
aim	-1073
ger	-1074
gan	-1075
yster	-1076
▁ey	-1077
▁lif	-1078
▁.	-1079
▁past	-1080
▁finally	-1081
▁along	-1082
▁shoot	-1083
▁Ge	-1084
▁poss	-1085
med	-1086
▁asks	-1087
▁arrives	-1088
▁investig	-1089
▁several	-1090
clus	-1091
inc	-1092
br	-1093
▁thr	-1094
▁learns	-1095
▁Meanwhile	-1096
▁husb	-1097
rest	-1098
▁diff	-1099
▁living	-1100
▁job	-1101
▁name	-1102
ank	-1103
▁Con	-1104
▁dri	-1105
ative	-1106
▁wr	-1107
▁sees	-1108
iec	-1109
▁creat	-1110
rie	-1111
▁uni	-1112
▁dist	-1113
oon	-1114
▁surv	-1115
▁favorite	-1116
ism	-1117
ication	-1118
rid	-1119
▁whom	-1120
ex	-1121
▁deep	-1122
▁purs	-1123
ently	-1124
ering	-1125
▁Is	-1126
to	-1127
▁experi	-1128
▁gives	-1129
▁career	-1130
▁need	-1131
▁prof	-1132
ially	-1133
▁true	-1134
▁Sam	-1135
▁known	-1136
▁visit	-1137
iew	-1138
ght	-1139
yn	-1140
▁gun	-1141
▁club	-1142
▁free	-1143
▁heart	-1144
oses	-1145
▁resc	-1146
▁kills	-1147
▁turns	-1148
▁cour	-1149
▁wants	-1150
▁hand	-1151
▁offic	-1152
rig	-1153
▁vill	-1154
ield	-1155
oph	-1156
▁former	-1157
arch	-1158
▁use	-1159
▁myster	-1160
ple	-1161
son	-1162
▁attempts	-1163
ished	-1164
▁Fl	-1165
ises	-1166
ott	-1167
▁reveals	-1168
cle	-1169
▁start	-1170
▁collect	-1171
▁husband	-1172
▁near	-1173
iam	-1174
ular	-1175
▁Pet	-1176
▁Pr	-1177
▁able	-1178
▁live	-1179
▁great	-1180
),	-1181
eal	-1182
▁dra	-1183
▁During	-1184
▁history	-1185
pe	-1186
▁member	-1187
▁including	-1188
ara	-1189
▁want	-1190
▁Dav	-1191
▁York	-1192
▁eng	-1193
▁To	-1194
ires	-1195
▁narr	-1196
the	-1197
ason	-1198
attle	-1199
ittle	-1200
▁however	-1201
aul	-1202
▁prov	-1203
▁put	-1204
▁island	-1205
▁apart	-1206
▁inn	-1207
▁form	-1208
ention	-1209
▁brand	-1210
rib	-1211
▁Ph	-1212
▁prest	-1213
ael	-1214
▁invol	-1215
ories	-1216
▁stay	-1217
▁taken	-1218
▁small	-1219
ges	-1220
ending	-1221
ences	-1222
▁eff	-1223
▁falls	-1224
oint	-1225
▁private	-1226
▁prestigious	-1227
).	-1228
▁cre	-1229
▁wealth	-1230
ush	-1231
▁Eng	-1232
▁ded	-1233
▁Geor	-1234
▁too	-1235
▁sister	-1236
▁read	-1237
▁class	-1238
▁land	-1239
▁Car	-1240
▁once	-1241
▁partic	-1242
iety	-1243
▁good	-1244
ject	-1245
▁build	-1246
▁behind	-1247
▁Wh	-1248
▁Mc	-1249
▁cent	-1250
▁prison	-1251
err	-1252
rees	-1253
ics	-1254
ront	-1255
▁without	-1256
▁lar	-1257
osed	-1258
ctor	-1259
nect	-1260
▁became	-1261
ards	-1262
▁adv	-1263
ai	-1264
▁jour	-1265
aking	-1266
▁cur	-1267
▁working	-1268
thing	-1269
▁fle	-1270
ots	-1271
▁unw	-1272
rop	-1273
ments	-1274
idn	-1275
ope	-1276
▁these	-1277
ck	-1278
▁lat	-1279
▁party	-1280
▁del	-1281
▁opp	-1282
▁best	-1283
▁fact	-1284
ended	-1285
lu	-1286
▁cult	-1287
▁says	-1288
▁leaving	-1289
ders	-1290
▁train	-1291
▁ob	-1292
aid	-1293
erry	-1294
▁style	-1295
ait	-1296
unt	-1297
▁following	-1298
▁Angel	-1299
ices	-1300
▁threat	-1301
▁country	-1302
na	-1303
▁allow	-1304
aring	-1305
▁dream	-1306
▁spec	-1307
▁disc	-1308
ook	-1309
▁such	-1310
not	-1311
▁fail	-1312
▁second	-1313
▁wal	-1314
ald	-1315
ole	-1316
▁realizes	-1317
▁join	-1318
though	-1319
▁team	-1320
▁dev	-1321
▁you	-1322
aces	-1323
▁mov	-1324
ortun	-1325
ospital	-1326
▁others	-1327
▁used	-1328
duc	-1329
clusive	-1330
aining	-1331
▁mor	-1332
▁members	-1333
pon	-1334
▁cor	-1335
ened	-1336
ram	-1337
▁encoun	-1338
ym	-1339
▁quest	-1340
▁Se	-1341
▁black	-1342
ests	-1343
imes	-1344
▁Earth	-1345
estyle	-1346
orts	-1347
▁Man	-1348
▁destroy	-1349
▁met	-1350
▁grand	-1351
▁che	-1352
▁gang	-1353
ny	-1354
▁Mich	-1355
▁Jul	-1356
vern	-1357
▁accident	-1358
int	-1359
ills	-1360
▁sim	-1361
han	-1362
▁few	-1363
▁adm	-1364
cy	-1365
▁lifestyle	-1366
ingly	-1367
▁Dan	-1368
▁claim	-1369
ior	-1370
▁var	-1371
ution	-1372
anger	-1373
oned	-1374
▁Bar	-1375
rounded	-1376
▁susp	-1377
▁Alex	-1378
ange	-1379
▁may	-1380
▁King	-1381
▁year	-1382
▁rece	-1383
iation	-1384
▁dep	-1385
ised	-1386
▁cle	-1387
▁win	-1388
ruct	-1389
▁starts	-1390
▁killing	-1391
▁hospital	-1392
▁pos	-1393
▁pub	-1394
form	-1395
▁going	-1396
ule	-1397
▁cou	-1398
tern	-1399
▁detail	-1400
ract	-1401
inal	-1402
▁grad	-1403
▁exc	-1404
▁dies	-1405
▁wit	-1406
ized	-1407
▁led	-1408
▁fire	-1409
▁advent	-1410
urch	-1411
ours	-1412
ird	-1413
ont	-1414
iven	-1415
▁War	-1416
▁add	-1417
▁using	-1418
▁whose	-1419
▁writ	-1420
▁scene	-1421
▁hor	-1422
▁Col	-1423
▁cho	-1424
▁David	-1425
▁search	-1426
▁luxurious	-1427
▁shows	-1428
▁profess	-1429
▁disapp	-1430
▁enj	-1431
▁fut	-1432
ele	-1433
ey	-1434
▁deal	-1435
▁par	-1436
▁lost	-1437
ged	-1438
▁differ	-1439
ms	-1440
▁som	-1441
▁days	-1442
▁fore	-1443
▁tre	-1444
▁There	-1445
▁exclusive	-1446
used	-1447
alf	-1448
▁ens	-1449
▁val	-1450
▁fur	-1451
hood	-1452
▁hid	-1453
▁feel	-1454
▁sold	-1455
ights	-1456
▁occ	-1457
vious	-1458
▁connect	-1459
aches	-1460
▁leg	-1461
▁older	-1462
wards	-1463
▁spe	-1464
omb	-1465
▁final	-1466
▁American	-1467
akes	-1468
▁cra	-1469
ilt	-1470
▁ident	-1471
▁camp	-1472
erv	-1473
ivid	-1474
▁Paul	-1475
▁desc	-1476
▁commun	-1477
▁ed	-1478
▁trying	-1479
▁since	-1480
▁refuses	-1481
ler	-1482
omp	-1483
▁indust	-1484
▁min	-1485
orld	-1486
▁due	-1487
▁Michael	-1488
olf	-1489
ute	-1490
▁revealed	-1491
iver	-1492
▁cust	-1493
▁forced	-1494
▁battle	-1495
▁test	-1496
▁seen	-1497
nt	-1498
▁hard	-1499
▁give	-1500
▁rid	-1501
acher	-1502
▁stri	-1503
."	-1504
ived	-1505
▁arrest	-1506
▁av	-1507
ager	-1508
▁four	-1509
▁marry	-1510
ury	-1511
▁upon	-1512
elf	-1513
▁eye	-1514
▁Rich	-1515
▁Brit	-1516
▁Jim	-1517
▁fig	-1518
ific	-1519
▁open	-1520
▁James	-1521
▁hot	-1522
sy	-1523
▁Gre	-1524
▁appears	-1525
▁calls	-1526
▁Lond	-1527
▁runs	-1528
▁determ	-1529
ience	-1530
▁Tr	-1531
idence	-1532
▁sol	-1533
▁sign	-1534
anding	-1535
▁move	-1536
▁George	-1537
gu	-1538
▁continued	-1539
▁finer	-1540
▁plot	-1541
▁short	-1542
▁saf	-1543
ored	-1544
▁*	-1545
▁hold	-1546
acy	-1547
▁Ste	-1548
▁Upon	-1549
▁London	-1550
▁fre	-1551
▁vict	-1552
▁making	-1553
rugg	-1554
▁Jos	-1555
▁Ger	-1556
▁women	-1557
orth	-1558
▁shot	-1559
▁mysterious	-1560
istic	-1561
▁tast	-1562
oo	-1563
uation	-1564
▁ve	-1565
▁enjoy	-1566
oring	-1567
▁Jenn	-1568
▁save	-1569
▁latest	-1570
▁cat	-1571
▁various	-1572
▁marriage	-1573
▁control	-1574
▁indul	-1575
ians	-1576
year	-1577
▁uses	-1578
▁bring	-1579
▁little	-1580
▁apartment	-1581
▁piec	-1582
lish	-1583
ites	-1584
▁resp	-1585
▁characters	-1586
▁Mart	-1587
▁num	-1588
▁future	-1589
par	-1590
▁air	-1591
▁interest	-1592
ask	-1593
▁thin	-1594
▁Frank	-1595
▁forces	-1596
▁individ	-1597
rup	-1598
aught	-1599
illy	-1600
▁rich	-1601
▁Later	-1602
▁For	-1603
ee	-1604
sh	-1605
▁married	-1606
ung	-1607
▁should	-1608
▁Mary	-1609
ief	-1610
▁force	-1611
▁gener	-1612
▁Mor	-1613
▁did	-1614
lin	-1615
yal	-1616
unning	-1617
ecc	-1618
ster	-1619
▁blood	-1620
echn	-1621
▁auth	-1622
ma	-1623
▁Ben	-1624
▁cannot	-1625
ients	-1626
rec	-1627
rif	-1628
▁estate	-1629
▁series	-1630
▁sum	-1631
iol	-1632
▁mil	-1633
▁sense	-1634
▁company	-1635
▁rev	-1636
here	-1637
▁natural	-1638
aver	-1639
▁All	-1640
▁manages	-1641
▁taking	-1642
▁point	-1643
▁watch	-1644
▁those	-1645
▁remained	-1646
unk	-1647
▁died	-1648
▁Ind	-1649
selves	-1650
▁case	-1651
▁instead	-1652
▁'	-1653
▁works	-1654
▁influ	-1655
▁face	-1656
▁leads	-1657
▁perform	-1658
▁busy	-1659
▁underst	-1660
way	-1661
▁agrees	-1662
▁Mrs	-1663
",	-1664
oid	-1665
▁colle	-1666
▁plans	-1667
rug	-1668
▁view	-1669
▁follows	-1670
▁told	-1671
cer	-1672
▁wind	-1673
▁pri	-1674
▁const	-1675
▁media	-1676
ething	-1677
▁large	-1678
▁prop	-1679
▁character	-1680
▁ant	-1681
▁developed	-1682
▁bar	-1683
aying	-1684
▁keen	-1685
▁pain	-1686
▁themselves	-1687
▁given	-1688
▁discovered	-1689
▁strugg	-1690
▁ide	-1691
range	-1692
▁industry	-1693
bor	-1694
aps	-1695
▁protect	-1696
▁seems	-1697
▁kidn	-1698
irth	-1699
icide	-1700
▁Tw	-1701
ology	-1702
▁arrive	-1703
▁convin	-1704
▁complet	-1705
▁journey	-1706
ones	-1707
▁bed	-1708
The	-1709
▁result	-1710
▁mind	-1711
▁gra	-1712
▁govern	-1713
▁City	-1714
ote	-1715
ement	-1716
▁appro	-1717
▁present	-1718
▁outside	-1719
aby	-1720
ien	-1721
▁serv	-1722
antly	-1723
▁king	-1724
▁news	-1725
▁host	-1726
▁renown	-1727
ox	-1728
▁phys	-1729
▁taste	-1730
iful	-1731
▁arch	-1732
gy	-1733
▁amb	-1734
▁sleek	-1735
edd	-1736
▁renowned	-1737
▁Cal	-1738
aun	-1739
▁Gu	-1740
▁intro	-1741
▁self	-1742
▁destination	-1743
▁sing	-1744
▁Hen	-1745
▁Charl	-1746
▁spend	-1747
ibr	-1748
▁rele	-1749
▁hours	-1750
▁presence	-1751
riving	-1752
▁Growing	-1753
▁dedication	-1754
ares	-1755
▁bro	-1756
▁village	-1757
▁mark	-1758
▁knows	-1759
▁believes	-1760
aced	-1761
▁Ab	-1762
▁Don	-1763
idd	-1764
▁eleg	-1765
▁Par	-1766
eck	-1767
▁cond	-1768
▁sn	-1769
▁author	-1770
▁ill	-1771
▁ever	-1772
▁suff	-1773
▁planet	-1774
▁techn	-1775
of	-1776
▁everyone	-1777
▁previous	-1778
▁pat	-1779
outh	-1780
▁Luc	-1781
▁Char	-1782
▁different	-1783
▁ability	-1784
using	-1785
aged	-1786
▁across	-1787
▁inside	-1788
▁drug	-1789
▁Or	-1790
cogn	-1791
▁mat	-1792
▁water	-1793
ision	-1794
▁crew	-1795
omm	-1796
▁From	-1797
▁stre	-1798
▁captiv	-1799
▁import	-1800
▁game	-1801
▁dog	-1802
▁oper	-1803
▁maint	-1804
▁custom	-1805
▁Qu	-1806
ystem	-1807
▁share	-1808
".	-1809
▁grew	-1810
▁hop	-1811
▁rob	-1812
day	-1813
pire	-1814
▁law	-1815
▁pop	-1816
▁orig	-1817
room	-1818
▁cut	-1819
▁talent	-1820
▁something	-1821
ades	-1822
olly	-1823
▁society	-1824
▁beauty	-1825
▁dire	-1826
▁viol	-1827
▁strong	-1828
sych	-1829
ances	-1830
▁allowed	-1831
▁stunning	-1832
ll	-1833
▁conc	-1834
▁among	-1835
gr	-1836
▁din	-1837
▁polit	-1838
▁escapes	-1839
▁actually	-1840
ready	-1841
ising	-1842
▁Ne	-1843
ceed	-1844
uals	-1845
pr	-1846
itted	-1847
▁cast	-1848
▁neigh	-1849
uke	-1850
▁stat	-1851
▁apprec	-1852
rent	-1853
▁birth	-1854
▁obs	-1855
▁recogn	-1856
▁beautiful	-1857
uk	-1858
ging	-1859
▁Sar	-1860
ledge	-1861
▁appear	-1862
por	-1863
▁chang	-1864
ius	-1865
▁army	-1866
ped	-1867
ray	-1868
▁Jess	-1869
▁foot	-1870
ths	-1871
▁Peter	-1872
▁Joe	-1873
ove	-1874
ude	-1875
▁fell	-1876
▁leader	-1877
▁modern	-1878
▁magic	-1879
izing	-1880
ander	-1881
icks	-1882
▁mom	-1883
ery	-1884
ries	-1885
▁spir	-1886
medi	-1887
▁far	-1888
▁defe	-1889
rought	-1890
▁organ	-1891
oul	-1892
▁anc	-1893
▁tor	-1894
▁already	-1895
▁decided	-1896
new	-1897
most	-1898
owers	-1899
▁mission	-1900
...	-1901
emy	-1902
iers	-1903
▁mot	-1904
ral	-1905
ogra	-1906
▁decide	-1907
▁suicide	-1908
wh	-1909
▁sched	-1910
era	-1911
▁came	-1912
▁continues	-1913
hic	-1914
▁hom	-1915
▁wait	-1916
▁further	-1917
ize	-1918
ha	-1919
pir	-1920
▁phot	-1921
▁track	-1922
▁explains	-1923
▁offers	-1924
▁morning	-1925
▁right	-1926
uff	-1927
▁sym	-1928
▁British	-1929
ept	-1930
▁captured	-1931
ana	-1932
hing	-1933
▁aband	-1934
ias	-1935
▁vehic	-1936
▁affair	-1937
▁within	-1938
▁inj	-1939
▁meeting	-1940
atic	-1941
▁sit	-1942
ified	-1943
▁mus	-1944
▁anim	-1945
▁wound	-1946
▁attention	-1947
▁warn	-1948
▁powerful	-1949
ett	-1950
▁Robert	-1951
▁Ke	-1952
▁door	-1953
▁Bob	-1954
▁imm	-1955
ament	-1956
▁Laur	-1957
▁comb	-1958
▁psych	-1959
▁confron	-1960
▁alone	-1961
ential	-1962
▁enough	-1963
ought	-1964
go	-1965
uel	-1966
▁God	-1967
itten	-1968
▁dark	-1969
inn	-1970
▁assist	-1971
▁hands	-1972
▁Richard	-1973
▁Mad	-1974
▁close	-1975
▁girls	-1976
ressed	-1977
ization	-1978
ica	-1979
▁entire	-1980
rench	-1981
▁travels	-1982
aff	-1983
avering	-1984
▁clients	-1985
▁system	-1986
▁describ	-1987
▁rescue	-1988
▁immedi	-1989
▁Ann	-1990
▁prep	-1991
▁Gl	-1992
umb	-1993
▁danger	-1994
asc	-1995
agon	-1996
▁breaks	-1997
▁ment	-1998
▁conv	-1999
ora	-2000
▁brought	-2001
▁unwavering	-2002
▁individuals	-2003
▁Sw	-2004
▁Val	-2005
arent	-2006
▁Lou	-2007
otic	-2008
▁cir	-2009
ishes	-2010
▁side	-2011
eless	-2012
▁Russ	-2013
▁German	-2014
▁support	-2015
▁Wal	-2016
▁half	-2017
▁ann	-2018
itary	-2019
ases	-2020
▁soph	-2021
▁Mag	-2022
▁government	-2023
▁div	-2024
▁top	-2025
iles	-2026
ularly	-2027
▁caught	-2028
osing	-2029
▁possess	-2030
▁continue	-2031
▁dro	-2032
▁Hel	-2033
rival	-2034
▁Pat	-2035
elling	-2036
▁everything	-2037
une	-2038
▁fort	-2039
▁William	-2040
▁despite	-2041
amb	-2042
▁Henry	-2043
▁shoots	-2044
▁victim	-2045
▁knowledge	-2046
▁Inst	-2047
▁unique	-2048
▁World	-2049
ift	-2050
▁full	-2051
▁Mon	-2052
▁position	-2053
▁Me	-2054
itch	-2055
ational	-2056
▁unc	-2057
▁emb	-2058
▁killer	-2059
▁Sim	-2060
▁jew	-2061
▁getting	-2062
orous	-2063
▁truth	-2064
▁recover	-2065
rief	-2066
▁schedule	-2067
▁init	-2068
ping	-2069
cious	-2070
lement	-2071
▁fr	-2072
▁wat	-2073
▁Nick	-2074
itions	-2075
▁respons	-2076
versity	-2077
▁instilled	-2078
▁proble	-2079
▁Ro	-2080
▁couple	-2081
▁La	-2082
▁commit	-2083
▁Sm	-2084
▁loyal	-2085
▁experiences	-2086
▁nothing	-2087
izes	-2088
ked	-2089
▁ep	-2090
▁hotel	-2091
▁archit	-2092
▁opportun	-2093
▁bur	-2094
▁shared	-2095
▁station	-2096
▁accept	-2097
iter	-2098
▁designs	-2099
anny	-2100
▁sugg	-2101
▁fun	-2102
▁Matt	-2103
▁early	-2104
▁reb	-2105
utation	-2106
▁Max	-2107
▁believe	-2108
▁mer	-2109
▁post	-2110
▁witness	-2111
quis	-2112
▁state	-2113
▁sleep	-2114
ably	-2115
▁cover	-2116
venge	-2117
▁mist	-2118
▁visits	-2119
▁orders	-2120
▁mis	-2121
▁course	-2122
▁word	-2123
▁Af	-2124
▁vamp	-2125
oe	-2126
▁mount	-2127
me	-2128
ective	-2129
▁mans	-2130
▁proc	-2131
urt	-2132
▁missing	-2133
▁apparent	-2134
▁rom	-2135
▁sends	-2136
▁French	-2137
▁Phil	-2138
▁late	-2139
▁figure	-2140
▁building	-2141
ajor	-2142
ella	-2143
▁sets	-2144
▁murdered	-2145
host	-2146
ploy	-2147
▁earl	-2148
▁ble	-2149
▁food	-2150
▁ter	-2151
▁earn	-2152
rian	-2153
rey	-2154
▁attract	-2155
▁information	-2156
ched	-2157
▁consid	-2158
▁architect	-2159
▁reputation	-2160
▁supp	-2161
▁trou	-2162
fully	-2163
▁began	-2164
▁port	-2165
▁crime	-2166
oman	-2167
▁Through	-2168
▁immediately	-2169
▁We	-2170
▁exec	-2171
▁introduc	-2172
▁almost	-2173
▁culture	-2174
earing	-2175
▁steal	-2176
▁officer	-2177
▁Harry	-2178
▁knew	-2179
▁unable	-2180
▁nature	-2181
▁special	-2182
▁boys	-2183
▁glam	-2184
ker	-2185
men	-2186
▁opens	-2187
▁encounter	-2188
▁bad	-2189
allen	-2190
▁cele	-2191
▁weap	-2192
▁spent	-2193
▁Step	-2194
ivil	-2195
▁England	-2196
▁cap	-2197
sequ	-2198
▁involved	-2199
▁Carl	-2200
▁Vict	-2201
▁baby	-2202
▁aud	-2203
▁impecc	-2204
▁respect	-2205
dden	-2206
▁ang	-2207
jects	-2208
▁public	-2209
▁skills	-2210
▁United	-2211
▁wealthy	-2212
▁Mark	-2213
▁pursue	-2214
▁looking	-2215
▁Lord	-2216
▁pict	-2217
▁girlfriend	-2218
ads	-2219
▁assass	-2220
▁owner	-2221
ita	-2222
ids	-2223
▁front	-2224
▁appreciation	-2225
▁mass	-2226
▁tem	-2227
▁burn	-2228
▁prog	-2229
▁alive	-2230
▁3	-2231
▁equ	-2232
iddle	-2233
ively	-2234
▁mess	-2235
▁sudden	-2236
duct	-2237
▁tele	-2238
▁master	-2239
▁earlier	-2240
▁ult	-2241
▁telling	-2242
▁gre	-2243
▁letter	-2244
▁took	-2245
▁feels	-2246
ese	-2247
▁rad	-2248
oor	-2249
▁attacks	-2250
▁pay	-2251
▁requ	-2252
raw	-2253
▁Sarah	-2254
▁trip	-2255
▁leading	-2256
▁step	-2257
▁X	-2258
ham	-2259
▁impeccable	-2260
▁childhood	-2261
ograph	-2262
▁Capt	-2263
▁tim	-2264
▁Mal	-2265
ertain	-2266
▁jewel	-2267
▁needs	-2268
isa	-2269
▁Event	-2270
▁space	-2271
▁process	-2272
▁stories	-2273
▁decl	-2274
▁board	-2275
▁Pl	-2276
rof	-2277
▁role	-2278
▁indulge	-2279
▁uns	-2280
▁designer	-2281
▁suspic	-2282
▁Thom	-2283
error	-2284
▁wood	-2285
roll	-2286
▁filled	-2287
acts	-2288
ragon	-2289
▁becoming	-2290
ening	-2291
▁evil	-2292
yp	-2293
▁Cor	-2294
▁military	-2295
▁months	-2296
▁Miss	-2297
▁elite	-2298
▁incre	-2299
▁scient	-2300
▁confess	-2301
▁Black	-2302
▁Although	-2303
work	-2304
▁die	-2305
urity	-2306
▁trad	-2307
▁coll	-2308
▁kidnapp	-2309
ken	-2310
▁Victor	-2311
ned	-2312
▁less	-2313
▁Eventually	-2314
▁discuss	-2315
ugs	-2316
▁English	-2317
iant	-2318
bo	-2319
ores	-2320
▁yet	-2321
▁Laura	-2322
ena	-2323
▁red	-2324
▁farm	-2325
▁Red	-2326
▁chance	-2327
▁teacher	-2328
000	-2329
▁hun	-2330
het	-2331
ifer	-2332
▁18	-2333
pped	-2334
inally	-2335
▁followers	-2336
▁Bill	-2337
▁drive	-2338
▁create	-2339
▁shop	-2340
wood	-2341
▁causes	-2342
▁hidden	-2343
▁humans	-2344
sw	-2345
aker	-2346
▁surrounded	-2347
▁clim	-2348
▁access	-2349
antic	-2350
ellig	-2351
▁doctor	-2352
▁teen	-2353
▁soldiers	-2354
▁narrator	-2355
▁Ell	-2356
cing	-2357
▁might	-2358
▁reach	-2359
▁gold	-2360
▁Mel	-2361
▁band	-2362
▁someone	-2363
▁race	-2364
ither	-2365
▁giving	-2366
back	-2367
▁field	-2368
▁pregn	-2369
▁change	-2370
▁mill	-2371
▁flee	-2372
▁Je	-2373
▁contact	-2374
dy	-2375
▁Dar	-2376
▁spirit	-2377
▁Charles	-2378
▁Ev	-2379
▁attacked	-2380
inated	-2381
▁States	-2382
▁brings	-2383
erson	-2384
▁elegance	-2385
known	-2386
▁fellow	-2387
▁Charlie	-2388
▁Fred	-2389
▁community	-2390
bed	-2391
▁Paris	-2392
▁light	-2393
house	-2394
▁treat	-2395
chie	-2396
rain	-2397
▁wedd	-2398
▁strange	-2399
▁Billy	-2400
▁Then	-2401
dom	-2402
▁five	-2403
▁mean	-2404
▁Jerry	-2405
▁rather	-2406
▁revenge	-2407
▁Club	-2408
▁claims	-2409
▁Sus	-2410
▁Adam	-2411
▁particularly	-2412
▁foc	-2413
▁drawn	-2414
▁glamorous	-2415
inations	-2416
cher	-2417
▁hero	-2418
▁collection	-2419
ground	-2420
▁Captain	-2421
▁cop	-2422
▁fly	-2423
▁perfectly	-2424
ague	-2425
▁arg	-2426
iment	-2427
▁ste	-2428
▁agent	-2429
▁sav	-2430
▁ground	-2431
▁towards	-2432
▁proper	-2433
▁although	-2434
▁gen	-2435
▁Their	-2436
▁surviv	-2437
itter	-2438
rance	-2439
anks	-2440
▁vibr	-2441
▁unf	-2442
ari	-2443
uly	-2444
▁number	-2445
▁chap	-2446
▁causing	-2447
▁talk	-2448
▁really	-2449
▁enjoyed	-2450
rav	-2451
ected	-2452
▁Im	-2453
iron	-2454
rang	-2455
▁fict	-2456
▁jewelry	-2457
cepts	-2458
▁challen	-2459
▁pieces	-2460
▁wedding	-2461
▁Que	-2462
abeth	-2463
▁press	-2464
▁committed	-2465
▁separ	-2466
▁white	-2467
▁arrested	-2468
row	-2469
▁pot	-2470
▁mach	-2471
▁Ry	-2472
▁By	-2473
▁lands	-2474
▁remains	-2475
▁encounters	-2476
bol	-2477
▁bank	-2478
▁books	-2479
aine	-2480
ming	-2481
▁accidentally	-2482
con	-2483
▁feat	-2484
▁Daniel	-2485
▁kind	-2486
▁nearby	-2487
like	-2488
father	-2489
▁vibrant	-2490
ells	-2491
▁why	-2492
▁Eliz	-2493
eng	-2494
▁situation	-2495
▁offer	-2496
▁breath	-2497
▁employ	-2498
▁professional	-2499
▁Sk	-2500
▁court	-2501
▁ultim	-2502
▁Pe	-2503
ument	-2504
▁cross	-2505
off	-2506
aper	-2507
▁exist	-2508
▁times	-2509
▁clos	-2510
▁office	-2511
▁question	-2512
▁env	-2513
uz	-2514
itting	-2515
▁moves	-2516
▁manage	-2517
str	-2518
▁big	-2519
▁rare	-2520
ocked	-2521
▁star	-2522
▁sett	-2523
▁grounded	-2524
uing	-2525
ously	-2526
▁revol	-2527
nder	-2528
▁fem	-2529
▁Mike	-2530
▁college	-2531
hew	-2532
▁saying	-2533
▁z	-2534
▁aut	-2535
▁hit	-2536
▁thinks	-2537
ump	-2538
ford	-2539
▁sexual	-2540
▁my	-2541
▁Roy	-2542
▁reflect	-2543
head	-2544
▁Jap	-2545
ection	-2546
▁transform	-2547
▁Ol	-2548
▁identity	-2549
chant	-2550
elled	-2551
ino	-2552
fer	-2553
▁activ	-2554
▁May	-2555
▁student	-2556
alls	-2557
▁ple	-2558
▁account	-2559
▁lab	-2560
▁kiss	-2561
▁ghost	-2562
▁returned	-2563
iance	-2564
▁gone	-2565
▁pull	-2566
▁wild	-2567
▁receives	-2568
▁experience	-2569
inded	-2570
▁Arth	-2571
▁helps	-2572
▁peace	-2573
▁younger	-2574
▁Pol	-2575
▁Afric	-2576
▁blend	-2577
▁Before	-2578
▁determined	-2579
▁hon	-2580
▁Soon	-2581
▁phil	-2582
▁Martin	-2583
▁elect	-2584
▁music	-2585
▁ancient	-2586
uge	-2587
fort	-2588
yond	-2589
▁hes	-2590
▁finding	-2591
ape	-2592
▁bomb	-2593
▁Bel	-2594
eral	-2595
▁Jennifer	-2596
▁evidence	-2597
ried	-2598
▁showc	-2599
▁direct	-2600
▁repl	-2601
▁Sir	-2602
after	-2603
▁loves	-2604
ocks	-2605
▁crim	-2606
▁terror	-2607
▁brief	-2608
athan	-2609
▁draw	-2610
▁phone	-2611
resses	-2612
rog	-2613
anda	-2614
▁Japan	-2615
rupt	-2616
▁Mo	-2617
▁Ray	-2618
incess	-2619
com	-2620
▁gradu	-2621
iqu	-2622
▁held	-2623
▁captivated	-2624
bert	-2625
▁Jud	-2626
▁exquis	-2627
aly	-2628
▁movie	-2629
▁better	-2630
ilar	-2631
▁finest	-2632
awn	-2633
▁Eur	-2634
▁vir	-2635
▁celebr	-2636
▁tit	-2637
▁forg	-2638
▁sens	-2639
▁record	-2640
▁beginning	-2641
▁Just	-2642
▁boat	-2643
▁reun	-2644
▁civil	-2645
▁exquisite	-2646
ips	-2647
▁growing	-2648
▁confronts	-2649
aks	-2650
▁went	-2651
▁looks	-2652
▁Jon	-2653
▁fasc	-2654
▁craft	-2655
ustle	-2656
▁Marc	-2657
▁got	-2658
▁dreams	-2659
▁status	-2660
▁resear	-2661
hab	-2662
▁Mac	-2663
▁sed	-2664
riff	-2665
▁Tim	-2666
▁moment	-2667
inary	-2668
▁acqu	-2669
ae	-2670
▁guard	-2671
▁persu	-2672
▁written	-2673
▁Jane	-2674
▁estab	-2675
▁physical	-2676
▁Cla	-2677
eph	-2678
▁adventures	-2679
▁Arthur	-2680
▁pret	-2681
▁Elizabeth	-2682
▁Ram	-2683
▁box	-2684
▁dou	-2685
▁beyond	-2686
▁Mur	-2687
ember	-2688
▁except	-2689
▁students	-2690
▁demon	-2691
▁purch	-2692
▁itself	-2693
▁happened	-2694
▁lik	-2695
lished	-2696
▁carry	-2697
▁mansion	-2698
▁Eric	-2699
▁powers	-2700
▁middle	-2701
▁means	-2702
▁accomp	-2703
andy	-2704
▁ele	-2705
▁Mic	-2706
▁symbol	-2707
▁convinces	-2708
▁rul	-2709
▁list	-2710
ruction	-2711
▁boyfriend	-2712
bl	-2713
▁running	-2714
itz	-2715
▁idea	-2716
▁extended	-2717
▁adventure	-2718
,"	-2719
▁Ash	-2720
▁attend	-2721
▁sought	-2722
▁Lind	-2723
▁fear	-2724
▁Queen	-2725
▁area	-2726
▁term	-2727
▁Scott	-2728
▁thought	-2729
ij	-2730
▁West	-2731
▁clear	-2732
mas	-2733
pre	-2734
iting	-2735
▁Anna	-2736
▁destroyed	-2737
oke	-2738
▁week	-2739
▁desper	-2740
▁commitment	-2741
ode	-2742
▁vo	-2743
ball	-2744
,000	-2745
▁eyes	-2746
▁America	-2747
▁accepts	-2748
▁hide	-2749
▁stand	-2750
▁suddenly	-2751
▁cous	-2752
▁exper	-2753
▁Mer	-2754
▁emot	-2755
▁third	-2756
uce	-2757
▁ward	-2758
taking	-2759
▁deb	-2760
▁pregnant	-2761
ium	-2762
▁Bro	-2763
▁road	-2764
▁pract	-2765
mother	-2766
▁returning	-2767
▁McC	-2768
atter	-2769
▁innate	-2770
▁testament	-2771
▁vide	-2772
▁nearly	-2773
▁Er	-2774
▁intellig	-2775
▁High	-2776
▁investigate	-2777
nal	-2778
▁Do	-2779
itive	-2780
▁Comm	-2781
▁pun	-2782
▁uncle	-2783
▁exotic	-2784
ique	-2785
▁window	-2786
▁San	-2787
▁sea	-2788
ality	-2789
right	-2790
▁political	-2791
ume	-2792
anna	-2793
▁grow	-2794
▁wrong	-2795
▁Now	-2796
▁Ros	-2797
▁educ	-2798
▁provided	-2799
▁original	-2800
ech	-2801
▁Kel	-2802
▁castle	-2803
▁longer	-2804
▁investigation	-2805
▁dying	-2806
▁suspect	-2807
▁Del	-2808
▁fac	-2809
▁choice	-2810
▁stab	-2811
olen	-2812
▁vac	-2813
▁&	-2814
▁pur	-2815
▁squ	-2816
▁adop	-2817
▁avoid	-2818
▁net	-2819
▁That	-2820
▁arm	-2821
▁truly	-2822
▁cry	-2823
▁pair	-2824
▁pick	-2825
▁brothers	-2826
lo	-2827
urb	-2828
▁ago	-2829
asure	-2830
▁Jeff	-2831
▁major	-2832
▁coming	-2833
▁Once	-2834
▁dinner	-2835
▁else	-2836
▁compan	-2837
▁informs	-2838
▁Ber	-2839
gin	-2840
▁confront	-2841
▁reluct	-2842
line	-2843
▁Thomas	-2844
▁enter	-2845
▁base	-2846
ashing	-2847
▁anything	-2848
▁architecture	-2849
iding	-2850
▁circ	-2851
▁seeing	-2852
ological	-2853
▁5	-2854
▁II	-2855
▁wanted	-2856
▁murders	-2857
▁Lisa	-2858
minded	-2859
aven	-2860
▁Johnny	-2861
▁doing	-2862
▁recon	-2863
▁throughout	-2864
stit	-2865
ilities	-2866
▁breathtaking	-2867
ille	-2868
▁possible	-2869
▁suc	-2870
▁assign	-2871
▁abandoned	-2872
ugg	-2873
asing	-2874
▁coun	-2875
▁plat	-2876
▁lover	-2877
▁gained	-2878
▁line	-2879
▁built	-2880
▁protagon	-2881
▁prevent	-2882
yd	-2883
oved	-2884
▁learning	-2885
▁based	-2886
▁vehicle	-2887
owly	-2888
▁bas	-2889
▁responsible	-2890
achel	-2891
▁command	-2892
▁feelings	-2893
▁fighting	-2894
▁technology	-2895
▁di	-2896
ancy	-2897
inging	-2898
▁opportunity	-2899
▁Kim	-2900
▁hang	-2901
▁famil	-2902
▁turned	-2903
▁particular	-2904
uit	-2905
ustr	-2906
▁drunk	-2907
▁doesnt	-2908
▁stolen	-2909
▁enters	-2910
▁Ag	-2911
▁pen	-2912
▁vol	-2913
▁Van	-2914
▁summ	-2915
▁our	-2916
▁sail	-2917
ults	-2918
ishing	-2919
▁20	-2920
ring	-2921
▁offered	-2922
▁Jan	-2923
▁sun	-2924
▁whole	-2925
▁Co	-2926
▁Jac	-2927
▁sac	-2928
opher	-2929
▁boss	-2930
▁emer	-2931
pris	-2932
▁sil	-2933
▁answ	-2934
▁Los	-2935
▁histor	-2936
▁realize	-2937
▁wid	-2938
▁Cass	-2939
▁Ex	-2940
▁concern	-2941
▁convers	-2942
ript	-2943
▁exch	-2944
▁partner	-2945
▁buy	-2946
▁traveling	-2947
set	-2948
▁security	-2949
ault	-2950
▁mut	-2951
▁thus	-2952
▁Chris	-2953
▁Per	-2954
aries	-2955
▁store	-2956
oins	-2957
▁Reb	-2958
▁South	-2959
▁storm	-2960
▁4	-2961
hol	-2962
▁sal	-2963
▁happy	-2964
etic	-2965
▁god	-2966
inking	-2967
▁walks	-2968
ya	-2969
ze	-2970
nie	-2971
▁capture	-2972
▁seemingly	-2973
ridge	-2974
▁female	-2975
▁horse	-2976
▁US	-2977
ency	-2978
ators	-2979
▁succeed	-2980
▁Maria	-2981
die	-2982
miss	-2983
▁Sec	-2984
▁alien	-2985
sc	-2986
▁Lady	-2987
▁hope	-2988
▁born	-2989
▁six	-2990
▁hiding	-2991
▁popular	-2992
▁university	-2993
▁animals	-2994
rem	-2995
▁Bo	-2996
▁Wil	-2997
▁privile	-2998
▁Jason	-2999
▁Josh	-3000
▁Danny	-3001
▁playing	-3002
▁neighbor	-3003
▁health	-3004
pec	-3005
rel	-3006
▁Mill	-3007
▁Nic	-3008
▁threatens	-3009
▁destinations	-3010
airs	-3011
▁creating	-3012
▁Ser	-3013
▁rock	-3014
▁soul	-3015
▁street	-3016
aint	-3017
▁loses	-3018
▁Edward	-3019
▁cam	-3020
itor	-3021
▁Aust	-3022
▁compet	-3023
▁effort	-3024
▁Angeles	-3025
▁Dev	-3026
▁Kat	-3027
▁trust	-3028
▁Pres	-3029
▁dam	-3030
▁Ma	-3031
▁den	-3032
▁imag	-3033
▁Franc	-3034
▁changes	-3035
▁planning	-3036
ama	-3037
▁watches	-3038
▁allows	-3039
▁cab	-3040
yr	-3041
ula	-3042
uter	-3043
▁abs	-3044
▁research	-3045
▁ful	-3046
ature	-3047
▁encou	-3048
▁forest	-3049
▁deg	-3050
▁desert	-3051
che	-3052
enced	-3053
▁heads	-3054
▁remaining	-3055
▁ru	-3056
▁innoc	-3057
▁drives	-3058
eks	-3059
▁Joseph	-3060
nds	-3061
ushes	-3062
iny	-3063
irst	-3064
▁pil	-3065
▁tort	-3066
ki	-3067
▁sne	-3068
▁ways	-3069
▁Mil	-3070
▁bul	-3071
▁Rome	-3072
▁safe	-3073
▁friendship	-3074
▁Kn	-3075
▁expert	-3076
▁Prince	-3077
▁demands	-3078
ror	-3079
asion	-3080
▁behav	-3081
▁freed	-3082
ached	-3083
▁Cr	-3084
aith	-3085
iana	-3086
▁piece	-3087
▁Min	-3088
▁Jake	-3089
▁anyone	-3090
▁onto	-3091
▁achie	-3092
▁truck	-3093
▁initially	-3094
▁Sn	-3095
anth	-3096
icult	-3097
▁walk	-3098
▁action	-3099
▁Bur	-3100
▁joins	-3101
▁think	-3102
▁century	-3103
▁apparently	-3104
▁businessman	-3105
▁Sal	-3106
▁gather	-3107
▁unknown	-3108
▁retrie	-3109
gl	-3110
▁flees	-3111
unn	-3112
▁ap	-3113
exic	-3114
▁beat	-3115
▁Laure	-3116
▁writing	-3117
▁path	-3118
▁Rachel	-3119
▁engine	-3120
▁jail	-3121
▁secretly	-3122
▁Sl	-3123
raged	-3124
▁hair	-3125
illing	-3126
▁plane	-3127
▁Rose	-3128
▁famous	-3129
▁describes	-3130
vert	-3131
▁model	-3132
▁importance	-3133
▁interv	-3134
▁waiting	-3135
bb	-3136
▁Sil	-3137
lict	-3138
intage	-3139
▁poison	-3140
▁Carol	-3141
▁cousin	-3142
▁convince	-3143
asy	-3144
well	-3145
▁announ	-3146
▁ball	-3147
▁summer	-3148
▁enemy	-3149
▁Jer	-3150
▁North	-3151
▁whether	-3152
▁nav	-3153
▁Jean	-3154
▁France	-3155
cil	-3156
▁suggests	-3157
rets	-3158
▁Mexic	-3159
▁detective	-3160
ibly	-3161
utes	-3162
▁cru	-3163
▁priest	-3164
▁Alice	-3165
▁Raj	-3166
ashes	-3167
▁dangerous	-3168
ua	-3169
where	-3170
▁fortune	-3171
▁Gar	-3172
▁firm	-3173
oration	-3174
▁audience	-3175
time	-3176
isticated	-3177
▁transport	-3178
ops	-3179
▁Count	-3180
▁weeks	-3181
prise	-3182
▁preser	-3183
▁recently	-3184
▁disgu	-3185
▁hopes	-3186
▁pack	-3187
▁cause	-3188
▁reason	-3189
▁Rog	-3190
▁brut	-3191
we	-3192
▁Bre	-3193
▁Christmas	-3194
▁sophisticated	-3195
adow	-3196
cean	-3197
orce	-3198
▁values	-3199
▁Christian	-3200
ini	-3201
▁restaur	-3202
iod	-3203
▁project	-3204
hern	-3205
▁rou	-3206
▁liter	-3207
▁remain	-3208
▁throws	-3209
▁complete	-3210
▁location	-3211
verse	-3212
▁gard	-3213
▁current	-3214
▁problems	-3215
▁Hall	-3216
▁exchange	-3217
▁attending	-3218
mar	-3219
ada	-3220
yer	-3221
ading	-3222
▁Bugs	-3223
▁inhab	-3224
▁similar	-3225
▁done	-3226
▁send	-3227
▁Gener	-3228
▁beach	-3229
▁pictures	-3230
▁Lee	-3231
▁lim	-3232
▁heav	-3233
▁catch	-3234
▁exposed	-3235
law	-3236
▁client	-3237
▁vampire	-3238
▁befriend	-3239
▁market	-3240
▁neighb	-3241
▁Francis	-3242
▁vers	-3243
▁river	-3244
▁sacrif	-3245
▁released	-3246
▁How	-3247
▁Soc	-3248
▁supposed	-3249
▁doesn	-3250
▁surpris	-3251
▁Christopher	-3252
▁trouble	-3253
▁complement	-3254
▁Cam	-3255
▁plant	-3256
▁platform	-3257
ago	-3258
▁er	-3259
▁You	-3260
▁defeat	-3261
▁explos	-3262
▁exploring	-3263
▁ten	-3264
lessly	-3265
▁church	-3266
▁Angela	-3267
aching	-3268
▁wounded	-3269
alle	-3270
▁disp	-3271
▁difficult	-3272
In	-3273
ride	-3274
▁fit	-3275
ormal	-3276
ette	-3277
▁inher	-3278
▁depart	-3279
aret	-3280
▁cars	-3281
▁views	-3282
▁report	-3283
▁struggle	-3284
▁understand	-3285
▁super	-3286
▁No	-3287
▁Army	-3288
▁Jew	-3289
▁sat	-3290
▁van	-3291
▁grows	-3292
▁thing	-3293
▁period	-3294
▁arrival	-3295
▁influential	-3296
oted	-3297
▁streets	-3298
▁dom	-3299
▁vintage	-3300
▁protagonist	-3301
de	-3302
▁Great	-3303
▁ign	-3304
▁Park	-3305
▁loss	-3306
▁broken	-3307
▁ultimately	-3308
▁Che	-3309
▁Luke	-3310
la	-3311
ipp	-3312
enny	-3313
▁Dor	-3314
▁Helen	-3315
▁single	-3316
▁addition	-3317
dd	-3318
▁Pal	-3319
▁cell	-3320
▁poor	-3321
▁upbr	-3322
▁fathers	-3323
▁obsess	-3324
▁machine	-3325
▁puts	-3326
ibility	-3327
ulation	-3328
▁driving	-3329
ortunately	-3330
▁tradition	-3331
icate	-3332
▁tree	-3333
▁fails	-3334
▁empire	-3335
▁upbringing	-3336
▁Jimmy	-3337
▁financ	-3338
▁training	-3339
life	-3340
▁title	-3341
▁spends	-3342
mans	-3343
aging	-3344
ety	-3345
▁Two	-3346
icated	-3347
▁chase	-3348
▁environ	-3349
▁retreat	-3350
▁Ra	-3351
▁say	-3352
arily	-3353
▁frequ	-3354
▁Andrew	-3355
ression	-3356
▁joined	-3357
oren	-3358
▁Can	-3359
▁glim	-3360
isters	-3361
▁engage	-3362
▁ride	-3363
▁memory	-3364
▁suspects	-3365
▁suit	-3366
▁Brown	-3367
▁invites	-3368
▁message	-3369
▁here	-3370
ensive	-3371
▁elder	-3372
▁details	-3373
▁ir	-3374
▁radio	-3375
▁wishes	-3376
▁schools	-3377
rage	-3378
roud	-3379
uted	-3380
field	-3381
▁degree	-3382
▁service	-3383
illa	-3384
▁White	-3385
▁keeps	-3386
▁note	-3387
▁hears	-3388
▁Ter	-3389
uable	-3390
▁voice	-3391
atherine	-3392
onscious	-3393
▁reality	-3394
athy	-3395
▁graduating	-3396
ining	-3397
▁stops	-3398
elle	-3399
ornia	-3400
▁fate	-3401
▁House	-3402
▁Steve	-3403
▁Wolf	-3404
▁prim	-3405
▁produc	-3406
▁serious	-3407
▁Vir	-3408
▁Anne	-3409
▁spot	-3410
▁refer	-3411
▁grandfather	-3412
▁explore	-3413
come	-3414
▁kidnapped	-3415
▁said	-3416
▁comfort	-3417
▁helping	-3418
▁believed	-3419
odies	-3420
▁unex	-3421
▁Calif	-3422
▁Finally	-3423
▁har	-3424
▁actions	-3425
▁saw	-3426
▁Susan	-3427
▁loved	-3428
▁ending	-3429
▁sour	-3430
▁General	-3431
▁Art	-3432
▁Island	-3433
pecially	-3434
▁captain	-3435
enes	-3436
pses	-3437
▁eager	-3438
▁woods	-3439
▁violent	-3440
ka	-3441
ergy	-3442
▁Gab	-3443
▁doc	-3444
rison	-3445
▁angry	-3446
▁knowing	-3447
▁So	-3448
raft	-3449
robe	-3450
useum	-3451
▁song	-3452
▁proceed	-3453
▁personality	-3454
▁moved	-3455
▁belong	-3456
ompl	-3457
▁bal	-3458
emb	-3459
▁Med	-3460
▁tro	-3461
▁poin	-3462
▁repres	-3463
▁Tal	-3464
▁shown	-3465
▁environment	-3466
▁200	-3467
▁Sun	-3468
▁Win	-3469
▁Kate	-3470
▁yach	-3471
inese	-3472
▁important	-3473
▁struggles	-3474
ply	-3475
▁neg	-3476
▁creature	-3477
iber	-3478
▁Mat	-3479
▁wond	-3480
▁level	-3481
▁classic	-3482
ky	-3483
bur	-3484
lan	-3485
▁prostit	-3486
▁subsequ	-3487
▁tar	-3488
▁Shar	-3489
▁neck	-3490
▁Emily	-3491
▁Though	-3492
▁admits	-3493
▁refined	-3494
▁Japanese	-3495
▁striking	-3496
▁Sand	-3497
▁education	-3498
oly	-3499
kins	-3500
▁insists	-3501
▁wearing	-3502
▁Tony	-3503
▁charm	-3504
▁saved	-3505
▁created	-3506
▁Smith	-3507
▁agree	-3508
▁dance	-3509
▁enroll	-3510
▁mountain	-3511
▁surround	-3512
isc	-3513
van	-3514
▁California	-3515
usion	-3516
iamond	-3517
▁certain	-3518
▁understanding	-3519
▁mystery	-3520
▁key	-3521
▁Simon	-3522
▁officers	-3523
▁Kar	-3524
asingly	-3525
▁injured	-3526
▁fictional	-3527
ona	-3528
umes	-3529
▁prove	-3530
▁intric	-3531
aken	-3532
▁don	-3533
▁Holly	-3534
▁betray	-3535
▁criminal	-3536
inger	-3537
ealous	-3538
▁desire	-3539
▁million	-3540
▁Ir	-3541
▁weapons	-3542
odes	-3543
▁acad	-3544
▁Michel	-3545
min	-3546
▁Nat	-3547
▁date	-3548
▁wakes	-3549
▁Chinese	-3550
▁Stephen	-3551
▁followed	-3552
acing	-3553
fts	-3554
▁Go	-3555
ston	-3556
▁bott	-3557
▁photograph	-3558
▁influence	-3559
hem	-3560
▁exact	-3561
▁experiment	-3562
▁Rh	-3563
anch	-3564
▁Cent	-3565
▁Lucy	-3566
▁Roman	-3567
▁thous	-3568
▁mir	-3569
▁Back	-3570
▁sell	-3571
▁memories	-3572
▁assistant	-3573
▁Sch	-3574
▁eat	-3575
▁leaders	-3576
▁thinking	-3577
▁increasingly	-3578
enty	-3579
mond	-3580
▁Bud	-3581
▁Some	-3582
▁revealing	-3583
▁doll	-3584
idents	-3585
▁agents	-3586
▁disappear	-3587
onel	-3588
▁nob	-3589
▁failed	-3590
pected	-3591
▁lived	-3592
▁wardrobe	-3593
arry	-3594
▁trial	-3595
▁Europe	-3596
▁medical	-3597
icted	-3598
▁arrang	-3599
▁Russian	-3600
▁computer	-3601
elt	-3602
ify	-3603
rick	-3604
▁ring	-3605
duction	-3606
▁Naz	-3607
▁flash	-3608
▁rival	-3609
▁survive	-3610
▁maintain	-3611
▁ur	-3612
▁pros	-3613
▁floor	-3614
▁words	-3615
▁highly	-3616
▁watching	-3617
▁especially	-3618
val	-3619
▁Hol	-3620
▁Dark	-3621
▁tour	-3622
▁occup	-3623
order	-3624
▁sword	-3625
▁caused	-3626
hold	-3627
▁plays	-3628
▁accompl	-3629
▁attended	-3630
▁combined	-3631
▁promises	-3632
▁sure	-3633
▁Sov	-3634
assed	-3635
▁owned	-3636
▁evening	-3637
▁Louis	-3638
▁magical	-3639
face	-3640
eared	-3641
▁notices	-3642
▁graduation	-3643
oes	-3644
▁bene	-3645
▁falling	-3646
▁romantic	-3647
uests	-3648
▁Little	-3649
gar	-3650
bing	-3651
▁Brand	-3652
▁Star	-3653
▁questions	-3654
over	-3655
▁Bal	-3656
▁Sol	-3657
pse	-3658
▁mob	-3659
▁repe	-3660
▁reader	-3661
▁sophist	-3662
▁sophistication	-3663
▁Ham	-3664
▁#	-3665
▁lack	-3666
▁Grand	-3667
▁simply	-3668
▁Rod	-3669
hus	-3670
▁Camp	-3671
▁birthday	-3672
oud	-3673
▁Eve	-3674
▁fat	-3675
▁giant	-3676
▁interview	-3677
▁purp	-3678
▁speak	-3679
▁suspicious	-3680
▁intelligence	-3681
eter	-3682
▁aid	-3683
▁task	-3684
▁guests	-3685
▁slowly	-3686
▁Marg	-3687
▁innov	-3688
▁jealous	-3689
▁sharing	-3690
▁completely	-3691
▁cul	-3692
▁catches	-3693
▁interior	-3694
iri	-3695
oard	-3696
▁Barb	-3697
▁Leon	-3698
▁magn	-3699
▁orph	-3700
▁My	-3701
cend	-3702
stal	-3703
▁pan	-3704
iques	-3705
▁wine	-3706
▁intens	-3707
▁rescued	-3708
ublic	-3709
▁narrative	-3710
▁Kevin	-3711
▁program	-3712
▁attempting	-3713
umps	-3714
▁pet	-3715
ushed	-3716
▁Duke	-3717
▁seeking	-3718
▁confesses	-3719
▁mad	-3720
▁previously	-3721
▁cost	-3722
▁hous	-3723
▁These	-3724
ani	-3725
▁dig	-3726
▁jud	-3727
▁laun	-3728
▁proud	-3729
▁places	-3730
▁marries	-3731
enant	-3732
itude	-3733
eds	-3734
▁exam	-3735
▁matter	-3736
▁served	-3737
▁include	-3738
▁convinced	-3739
oom	-3740
lear	-3741
mate	-3742
▁Det	-3743
▁pal	-3744
illeg	-3745
▁trail	-3746
▁mental	-3747
▁Greg	-3748
▁tail	-3749
▁crash	-3750
▁Empire	-3751
▁bodies	-3752
▁deliver	-3753
uty	-3754
agers	-3755
▁match	-3756
▁reaches	-3757
▁privileged	-3758
ems	-3759
▁exped	-3760
▁letters	-3761
kes	-3762
▁non	-3763
▁Sant	-3764
▁either	-3765
▁problem	-3766
ata	-3767
▁bi	-3768
sters	-3769
▁Brad	-3770
▁wall	-3771
▁seeks	-3772
▁trapped	-3773
read	-3774
uries	-3775
eps	-3776
agram	-3777
▁Bern	-3778
▁newsp	-3779
▁calling	-3780
▁conflict	-3781
▁imprison	-3782
▁ask	-3783
▁complex	-3784
▁secrets	-3785
▁families	-3786
▁vehicles	-3787
▁fascinated	-3788
▁Amy	-3789
othes	-3790
▁Ruth	-3791
▁trap	-3792
▁recru	-3793
▁condition	-3794
▁introduced	-3795
▁chief	-3796
▁capital	-3797
▁countless	-3798
irt	-3799
▁Les	-3800
ction	-3801
mates	-3802
▁lies	-3803
▁property	-3804
▁shooting	-3805
oper	-3806
▁Tik	-3807
▁names	-3808
▁artist	-3809
▁earned	-3810
▁efforts	-3811
▁network	-3812
▁customer	-3813
▁lot	-3814
▁lose	-3815
▁inspir	-3816
▁restaurant	-3817
▁grandmother	-3818
▁Rep	-3819
▁Rock	-3820
undred	-3821
▁organization	-3822
eman	-3823
iate	-3824
▁Big	-3825
inate	-3826
▁crit	-3827
▁coast	-3828
▁quiet	-3829
▁Ryan	-3830
▁energy	-3831
▁Cast	-3832
▁cold	-3833
▁saves	-3834
▁brain	-3835
▁massive	-3836
▁Short	-3837
▁safety	-3838
▁weapon	-3839
▁soldier	-3840
▁stage	-3841
▁warri	-3842
anthrop	-3843
▁Instead	-3844
▁President	-3845
owd	-3846
▁194	-3847
▁iss	-3848
▁Kelly	-3849
▁polic	-3850
▁writer	-3851
▁existence	-3852
▁fine	-3853
▁earth	-3854
▁dragon	-3855
▁appearance	-3856
▁illeg	-3857
▁sight	-3858
▁victims	-3859
▁purchased	-3860
zy	-3861
annah	-3862
ressive	-3863
▁official	-3864
▁Ver	-3865
▁happens	-3866
▁bath	-3867
▁hired	-3868
md	-3869
▁cabin	-3870
▁unconscious	-3871
▁Jam	-3872
▁male	-3873
▁mult	-3874
▁allowing	-3875
▁conversation	-3876
▁seek	-3877
▁Jessica	-3878
Tok	-3879
ension	-3880
▁normal	-3881
▁humanity	-3882
▁tow	-3883
world	-3884
▁talking	-3885
▁unexpected	-3886
gie	-3887
issa	-3888
pector	-3889
rap	-3890
▁gar	-3891
cohol	-3892
▁slave	-3893
▁enthus	-3894
mdash	-3895
▁incident	-3896
za	-3897
can	-3898
▁Fre	-3899
▁altern	-3900
war	-3901
▁your	-3902
▁legacy	-3903
ayl	-3904
▁Son	-3905
iated	-3906
▁Brian	-3907
▁mater	-3908
▁chapter	-3909
▁Tor	-3910
prof	-3911
▁Tem	-3912
▁embr	-3913
uclear	-3914
▁Julie	-3915
▁active	-3916
▁museum	-3917
ender	-3918
▁Mont	-3919
▁vast	-3920
▁suggest	-3921
inks	-3922
rate	-3923
▁Uni	-3924
▁san	-3925
▁pred	-3926
▁fallen	-3927
▁losing	-3928
▁conclud	-3929
aked	-3930
▁gas	-3931
inent	-3932
inked	-3933
▁navig	-3934
▁journal	-3935
▁behavior	-3936
pet	-3937
▁Over	-3938
▁stra	-3939
▁TikTok	-3940
angu	-3941
erous	-3942
▁pulls	-3943
▁funeral	-3944
▁release	-3945
ners	-3946
othy	-3947
▁196	-3948
▁Sher	-3949
▁holds	-3950
▁raised	-3951
▁corn	-3952
▁kept	-3953
▁parts	-3954
▁contem	-3955
ocr	-3956
▁fair	-3957
▁towns	-3958
eed	-3959
▁Da	-3960
▁Liz	-3961
▁eight	-3962
▁meant	-3963
▁Ins	-3964
▁fal	-3965
▁lege	-3966
▁la	-3967
iled	-3968
▁murderer	-3969
▁199	-3970
▁Mir	-3971
▁rap	-3972
▁awak	-3973
▁gain	-3974
▁drove	-3975
▁driver	-3976
▁writes	-3977
▁general	-3978
▁Not	-3979
▁grace	-3980
▁states	-3981
▁vision	-3982
▁provide	-3983
ival	-3984
▁cal	-3985
prene	-3986
▁wins	-3987
reprene	-3988
▁introduces	-3989
▁Ital	-3990
▁cred	-3991
▁Philip	-3992
▁comple	-3993
▁Instagram	-3994
ieut	-3995
under	-3996
▁Dave	-3997
▁telev	-3998
▁tried	-3999
▁deeply	-4000
▁creatures	-4001
▁feeling	-4002
▁wellness	-4003
▁desperate	-4004
▁Te	-4005
▁Tri	-4006
▁sound	-4007
▁enrolled	-4008
iece	-4009
▁Haw	-4010
▁hen	-4011
epend	-4012
▁Nich	-4013
▁gift	-4014
light	-4015
▁setting	-4016
▁Jonathan	-4017
ta	-4018
itc	-4019
elia	-4020
▁exh	-4021
▁Part	-4022
▁admir	-4023
▁honed	-4024
▁guards	-4025
▁toward	-4026
▁connected	-4027
▁Bab	-4028
▁Dou	-4029
▁hear	-4030
▁asked	-4031
▁ocean	-4032
▁alcohol	-4033
ls	-4034
anted	-4035
▁drugs	-4036
ila	-4037
▁excell	-4038
▁entreprene	-4039
▁Stan	-4040
▁fond	-4041
▁hall	-4042
▁started	-4043
▁visiting	-4044
▁Ron	-4045
riven	-4046
▁park	-4047
▁blind	-4048
▁landscap	-4049
▁believing	-4050
▁financial	-4051
▁Es	-4052
▁orphan	-4053
▁nuclear	-4054
▁survivors	-4055
rol	-4056
ecca	-4057
peror	-4058
▁warns	-4059
▁widow	-4060
▁Throughout	-4061
▁completing	-4062
▁esc	-4063
ocking	-4064
▁assoc	-4065
▁effect	-4066
▁worked	-4067
ervation	-4068
▁successfully	-4069
itage	-4070
rible	-4071
▁lawyer	-4072
BI	-4073
▁doub	-4074
▁remember	-4075
rab	-4076
▁Fe	-4077
▁ty	-4078
▁hat	-4079
▁talks	-4080
▁fights	-4081
kin	-4082
uis	-4083
ounts	-4084
▁arts	-4085
▁player	-4086
▁glimpses	-4087
char	-4088
eder	-4089
uded	-4090
uman	-4091
▁sick	-4092
▁advice	-4093
▁strang	-4094
▁hundred	-4095
▁dedicated	-4096
rin	-4097
▁obt	-4098
▁Karen	-4099
▁Under	-4100
▁kingdom	-4101
▁version	-4102
aded	-4103
riel	-4104
▁Law	-4105
▁Reg	-4106
named	-4107
▁Bond	-4108
iction	-4109
▁trick	-4110
iar	-4111
iger	-4112
▁rub	-4113
▁Jenny	-4114
▁cater	-4115
▁resol	-4116
ola	-4117
onic	-4118
▁Ant	-4119
▁Bec	-4120
ether	-4121
▁Mount	-4122
▁corrupt	-4123
▁shortly	-4124
▁constantly	-4125
▁hol	-4126
▁Green	-4127
▁Jacob	-4128
▁aboard	-4129
▁learned	-4130
▁staying	-4131
▁reflection	-4132
asts	-4133
ease	-4134
▁Sup	-4135
▁gave	-4136
▁faith	-4137
▁seven	-4138
▁academ	-4139
▁resist	-4140
born	-4141
▁Gal	-4142
▁cow	-4143
▁Lauren	-4144
▁timeless	-4145
wen	-4146
who	-4147
▁17	-4148
▁freedom	-4149
▁Wes	-4150
▁ice	-4151
▁Wall	-4152
▁What	-4153
▁decision	-4154
▁operation	-4155
ample	-4156
▁shel	-4157
▁knife	-4158
▁roots	-4159
profile	-4160
▁African	-4161
▁numerous	-4162
hi	-4163
vol	-4164
reng	-4165
▁Tre	-4166
▁Both	-4167
▁drown	-4168
ois	-4169
▁ic	-4170
▁pir	-4171
▁Prof	-4172
▁tale	-4173
ability	-4174
▁camera	-4175
▁6	-4176
▁ris	-4177
arian	-4178
▁Eddie	-4179
▁parties	-4180
▁searching	-4181
▁destruction	-4182
▁sen	-4183
aware	-4184
▁East	-4185
▁Rick	-4186
▁aware	-4187
▁holding	-4188
umed	-4189
▁Doctor	-4190
▁common	-4191
ca	-4192
vey	-4193
▁If	-4194
▁Ur	-4195
▁clean	-4196
▁drink	-4197
▁ready	-4198
▁witch	-4199
▁clothes	-4200
▁religious	-4201
arks	-4202
▁cant	-4203
▁staff	-4204
▁opening	-4205
ios	-4206
▁bird	-4207
▁impl	-4208
▁reck	-4209
▁Robin	-4210
▁obser	-4211
▁content	-4212
▁af	-4213
▁sad	-4214
▁Land	-4215
▁197	-4216
▁FBI	-4217
▁bear	-4218
▁heir	-4219
▁hoping	-4220
▁thrown	-4221
aughters	-4222
▁:	-4223
bre	-4224
▁sons	-4225
▁flight	-4226
▁changed	-4227
▁sisters	-4228
▁valuable	-4229
ga	-4230
och	-4231
▁Unf	-4232
▁Ven	-4233
▁Beth	-4234
▁Bobby	-4235
▁afflu	-4236
olas	-4237
▁Indian	-4238
▁elderly	-4239
▁Sat	-4240
▁bound	-4241
itation	-4242
▁crafts	-4243
▁humble	-4244
▁philanthrop	-4245
▁Ken	-4246
▁India	-4247
▁Soviet	-4248
ieutenant	-4249
▁intensified	-4250
isf	-4251
uous	-4252
▁Bru	-4253
▁Nor	-4254
ecess	-4255
erior	-4256
▁Julia	-4257
▁crowd	-4258
▁passes	-4259
▁hostage	-4260
itiz	-4261
▁kids	-4262
▁Matthew	-4263
▁inhabit	-4264
▁Jones	-4265
▁occur	-4266
▁meaning	-4267
▁uncover	-4268
▁passions	-4269
▁potential	-4270
.,	-4271
uls	-4272
outs	-4273
▁moving	-4274
▁elegant	-4275
▁science	-4276
▁treasure	-4277
▁Kir	-4278
▁write	-4279
▁yacht	-4280
▁challenges	-4281
iat	-4282
ida	-4283
▁mid	-4284
▁arms	-4285
▁innocent	-4286
▁Pro	-4287
▁bare	-4288
othing	-4289
▁fears	-4290
▁flour	-4291
▁impro	-4292
▁pilot	-4293
yearold	-4294
▁princess	-4295
conom	-4296
▁Gold	-4297
▁empt	-4298
▁isol	-4299
▁steals	-4300
cts	-4301
ourt	-4302
▁wand	-4303
▁diamond	-4304
▁explain	-4305
▁witnesses	-4306
orter	-4307
▁fund	-4308
▁troub	-4309
▁walking	-4310
▁surprise	-4311
▁discovery	-4312
iced	-4313
imate	-4314
▁cave	-4315
▁streng	-4316
▁Cap	-4317
craft	-4318
stone	-4319
▁langu	-4320
▁least	-4321
▁manager	-4322
incip	-4323
ville	-4324
▁fant	-4325
▁harm	-4326
▁robber	-4327
▁accompan	-4328
▁Unfortunately	-4329
uan	-4330
▁fan	-4331
▁Book	-4332
▁ancest	-4333
▁Society	-4334
▁determination	-4335
▁Cat	-4336
▁epis	-4337
▁quite	-4338
▁deaths	-4339
▁charism	-4340
▁mothers	-4341
▁television	-4342
▁generations	-4343
▁7	-4344
oys	-4345
▁spy	-4346
▁figures	-4347
▁teenage	-4348
▁develops	-4349
▁10	-4350
ucky	-4351
▁devast	-4352
▁played	-4353
ube	-4354
▁Dun	-4355
▁Old	-4356
▁sor	-4357
iates	-4358
▁heal	-4359
▁expand	-4360
▁represent	-4361
win	-4362
ching	-4363
▁Alan	-4364
manship	-4365
▁underground	-4366
pired	-4367
▁cook	-4368
▁spell	-4369
▁involve	-4370
▁pursuit	-4371
▁destroys	-4372
leep	-4373
▁Fel	-4374
annel	-4375
▁Anth	-4376
▁complic	-4377
icul	-4378
▁source	-4379
▁includes	-4380
▁retrieve	-4381
▁president	-4382
▁Est	-4383
▁Dick	-4384
▁charge	-4385
▁proves	-4386
▁showing	-4387
▁suffering	-4388
▁mort	-4389
rified	-4390
▁Linda	-4391
▁above	-4392
▁newspaper	-4393
mail	-4394
▁forever	-4395
▁affluent	-4396
▁profession	-4397
ns	-4398
▁Fer	-4399
▁hustle	-4400
▁thoughts	-4401
▁described	-4402
edy	-4403
▁Harr	-4404
▁Father	-4405
▁legend	-4406
▁Kh	-4407
▁da	-4408
▁countryside	-4409
▁zomb	-4410
▁peers	-4411
▁University	-4412
▁9	-4413
ider	-4414
▁Tod	-4415
▁displ	-4416
▁dress	-4417
▁points	-4418
▁complemented	-4419
▁guilt	-4420
▁asking	-4421
▁Italian	-4422
▁Washing	-4423
▁Gord	-4424
▁Three	-4425
▁Having	-4426
▁Mexico	-4427
▁Because	-4428
▁indulging	-4429
iens	-4430
uary	-4431
▁low	-4432
aylor	-4433
eller	-4434
ologist	-4435
▁bustle	-4436
▁forgot	-4437
▁prince	-4438
▁reading	-4439
▁turning	-4440
▁violence	-4441
▁interested	-4442
▁picturesque	-4443
isher	-4444
usted	-4445
▁escaped	-4446
▁preserving	-4447
▁Den	-4448
▁Dom	-4449
rived	-4450
▁econom	-4451
▁received	-4452
▁Ve	-4453
lings	-4454
▁Wood	-4455
▁Bruce	-4456
lad	-4457
▁Set	-4458
▁via	-4459
class	-4460
▁Isab	-4461
▁Marie	-4462
▁School	-4463
▁Virgin	-4464
▁extrem	-4465
▁target	-4466
▁tracks	-4467
▁flashback	-4468
▁intricate	-4469
▁maintained	-4470
righ	-4471
▁ess	-4472
▁vent	-4473
▁Joshua	-4474
▁Walter	-4475
▁locked	-4476
▁invited	-4477
▁planned	-4478
▁promise	-4479
▁results	-4480
abor	-4481
▁Comp	-4482
▁Soph	-4483
▁fast	-4484
▁shes	-4485
▁Dragon	-4486
▁Morgan	-4487
▁passed	-4488
▁Colonel	-4489
▁material	-4490
▁danc	-4491
▁hunt	-4492
▁First	-4493
▁study	-4494
▁terms	-4495
▁Police	-4496
▁confidence	-4497
▁bag	-4498
▁Vinc	-4499
▁wish	-4500
coming	-4501
▁intent	-4502
▁shocked	-4503
▁suffers	-4504
▁daughters	-4505
▁Com	-4506
ician	-4507
▁glob	-4508
ration	-4509
ulated	-4510
▁colon	-4511
▁device	-4512
▁driven	-4513
▁frustr	-4514
▁signific	-4515
▁disappears	-4516
boy	-4517
▁Jed	-4518
▁expect	-4519
▁destroying	-4520
▁craftsmanship	-4521
cent	-4522
asons	-4523
▁lets	-4524
▁autom	-4525
▁refuge	-4526
▁Republic	-4527
kn	-4528
aph	-4529
▁drag	-4530
▁opul	-4531
▁assault	-4532
▁beloved	-4533
▁romance	-4534
▁Washington	-4535
▁neighborhood	-4536
▁lav	-4537
emies	-4538
▁aunt	-4539
▁batt	-4540
▁picture	-4541
▁Princess	-4542
▁particip	-4543
away	-4544
ivers	-4545
▁swim	-4546
rupted	-4547
▁scream	-4548
▁carrying	-4549
▁universe	-4550
usc	-4551
down	-4552
▁ban	-4553
▁befriends	-4554
▁connection	-4555
▁Boy	-4556
▁Sean	-4557
▁haun	-4558
▁huge	-4559
▁Ot	-4560
▁198	-4561
▁Tam	-4562
▁sche	-4563
▁flying	-4564
▁placed	-4565
▁regard	-4566
▁Rebecca	-4567
▁visited	-4568
▁subject	-4569
iley	-4570
▁Hor	-4571
▁pool	-4572
▁rescues	-4573
▁expedition	-4574
▁Os	-4575
rett	-4576
urse	-4577
▁Bet	-4578
▁overhe	-4579
▁regular	-4580
▁won	-4581
▁newly	-4582
▁raise	-4583
▁corpse	-4584
▁independ	-4585
▁historical	-4586
▁reluctantly	-4587
▁Chic	-4588
▁China	-4589
▁worth	-4590
▁surface	-4591
▁enl	-4592
▁weak	-4593
▁glass	-4594
▁twenty	-4595
▁Michelle	-4596
▁repeated	-4597
▁established	-4598
IA	-4599
add	-4600
▁Tob	-4601
▁hits	-4602
▁Tommy	-4603
▁heard	-4604
uf	-4605
▁Cle	-4606
▁Fal	-4607
▁moon	-4608
▁snow	-4609
▁philos	-4610
▁Larry	-4611
▁hides	-4612
▁Stephan	-4613
▁realises	-4614
▁revolution	-4615
osen	-4616
izard	-4617
▁shut	-4618
▁willing	-4619
▁prisoner	-4620
ev	-4621
▁Far	-4622
eding	-4623
heart	-4624
▁magaz	-4625
▁remote	-4626
▁Shortly	-4627
▁divorce	-4628
▁Out	-4629
iling	-4630
ravel	-4631
▁Uncle	-4632
▁Africa	-4633
▁monster	-4634
▁drinking	-4635
▁approaches	-4636
▁excellence	-4637
▁Ca	-4638
erts	-4639
▁citiz	-4640
▁ships	-4641
▁trade	-4642
▁upset	-4643
▁Carter	-4644
▁deadly	-4645
ugh	-4646
ogue	-4647
▁cer	-4648
▁sequ	-4649
▁object	-4650
ship	-4651
agues	-4652
atory	-4653
action	-4654
atives	-4655
▁Master	-4656
▁Patrick	-4657
▁enemies	-4658
otte	-4659
▁wasn	-4660
▁purpose	-4661
▁Ire	-4662
▁servant	-4663
▁studies	-4664
▁stealing	-4665
▁accompany	-4666
▁showcased	-4667
ez	-4668
▁Nik	-4669
itious	-4670
▁Terry	-4671
▁picks	-4672
▁surre	-4673
▁achieve	-4674
▁proposes	-4675
▁Hal	-4676
▁Tar	-4677
▁Hans	-4678
▁desp	-4679
▁Amanda	-4680
▁breaking	-4681
▁prepares	-4682
ils	-4683
▁eas	-4684
pping	-4685
uxury	-4686
▁evol	-4687
▁prec	-4688
▁happen	-4689
▁recent	-4690
▁assigned	-4691
▁resulting	-4692
ja	-4693
▁Ob	-4694
▁dece	-4695
▁hors	-4696
▁unus	-4697
▁Margaret	-4698
▁abilities	-4699
▁imprisoned	-4700
for	-4701
iest	-4702
rect	-4703
▁empty	-4704
▁youth	-4705
▁basement	-4706
▁heritage	-4707
▁carefully	-4708
▁scientist	-4709
▁Wend	-4710
rawling	-4711
▁mention	-4712
▁contract	-4713
▁performance	-4714
sey	-4715
essor	-4716
▁quar	-4717
▁confir	-4718
▁helped	-4719
▁blackmail	-4720
--	-4721
1,	-4722
ader	-4723
cast	-4724
▁Sen	-4725
▁extra	-4726
▁unaware	-4727
▁odd	-4728
▁furn	-4729
ording	-4730
▁royal	-4731
▁stays	-4732
▁membership	-4733
▁authorities	-4734
wor	-4735
▁Alf	-4736
▁Nav	-4737
▁push	-4738
icious	-4739
▁landed	-4740
▁engaged	-4741
aign	-4742
▁cas	-4743
▁ver	-4744
▁Sing	-4745
▁apolog	-4746
▁needed	-4747
▁approach	-4748
lyn	-4749
zed	-4750
▁tribe	-4751
▁Francisco	-4752
▁clientele	-4753
keep	-4754
▁wel	-4755
▁simple	-4756
▁consider	-4757
▁background	-4758
ixt	-4759
key	-4760
▁Ul	-4761
onym	-4762
▁didn	-4763
▁video	-4764
▁buried	-4765
▁center	-4766
▁princip	-4767
▁attracted	-4768
▁mountains	-4769
ela	-4770
asha	-4771
▁sch	-4772
▁cerem	-4773
▁Claire	-4774
▁unwind	-4775
▁distract	-4776
ba	-4777
irty	-4778
more	-4779
odge	-4780
▁Day	-4781
lying	-4782
▁Moon	-4783
▁Scot	-4784
▁lake	-4785
▁Every	-4786
▁compl	-4787
▁bedroom	-4788
▁15	-4789
▁195	-4790
▁coff	-4791
▁Maggie	-4792
▁animal	-4793
▁belief	-4794
▁circum	-4795
▁impact	-4796
▁8	-4797
found	-4798
▁fleet	-4799
▁excelled	-4800
▁opportunities	-4801
steps	-4802
▁Call	-4803
▁Roger	-4804
▁Stone	-4805
▁counter	-4806
▁factory	-4807
▁forward	-4808
▁claiming	-4809
▁spending	-4810
▁possession	-4811
bro	-4812
▁hyp	-4813
▁meth	-4814
▁respond	-4815
▁conscious	-4816
▁Bra	-4817
▁Foll	-4818
▁Vlad	-4819
▁diss	-4820
▁amassed	-4821
▁ut	-4822
reen	-4823
encer	-4824
hetic	-4825
▁fulf	-4826
▁ming	-4827
▁Anton	-4828
▁Taylor	-4829
▁channel	-4830
▁shelter	-4831
▁persuades	-4832
2,	-4833
▁Eri	-4834
▁hig	-4835
▁Cath	-4836
▁spaces	-4837
▁descend	-4838
▁Gra	-4839
▁unh	-4840
▁Arch	-4841
ission	-4842
▁worlds	-4843
▁Anthony	-4844
▁example	-4845
▁located	-4846
▁sprawling	-4847
▁traditional	-4848
mosp	-4849
olic	-4850
▁Lew	-4851
▁swe	-4852
eline	-4853
itable	-4854
▁Death	-4855
▁infilt	-4856
▁conspir	-4857
▁document	-4858
▁inhabitants	-4859
ura	-4860
gypt	-4861
path	-4862
▁jet	-4863
▁Marl	-4864
embers	-4865
▁image	-4866
19	-4867
oles	-4868
▁Ele	-4869
▁Trav	-4870
▁prompt	-4871
▁remind	-4872
▁beaches	-4873
▁section	-4874
▁contains	-4875
▁Tex	-4876
▁cha	-4877
▁conce	-4878
▁footsteps	-4879
▁involving	-4880
▁Dam	-4881
▁atmosp	-4882
▁consequ	-4883
vy	-4884
▁rise	-4885
▁conqu	-4886
▁bridge	-4887
▁intern	-4888
▁Austral	-4889
▁announces	-4890
▁household	-4891
▁table	-4892
inating	-4893
▁Germany	-4894
▁establish	-4895
col	-4896
lers	-4897
▁Ass	-4898
▁Ted	-4899
claim	-4900
▁flat	-4901
▁sole	-4902
▁prior	-4903
▁brands	-4904
▁knocks	-4905
▁sports	-4906
▁argument	-4907
▁bringing	-4908
▁sleeping	-4909
▁studying	-4910
▁ord	-4911
▁bull	-4912
▁Aud	-4913
▁Bon	-4914
▁bra	-4915
oster	-4916
▁Italy	-4917
▁intends	-4918
▁vampires	-4919
▁Union	-4920
▁guide	-4921
▁latter	-4922
▁reject	-4923
▁winter	-4924
▁individual	-4925
▁inspiration	-4926
icop	-4927
ilty	-4928
▁Jay	-4929
ennis	-4930
▁Andre	-4931
▁ensured	-4932
▁investigating	-4933
▁cy	-4934
reek	-4935
▁Dep	-4936
▁Lor	-4937
▁Tur	-4938
▁spl	-4939
▁More	-4940
▁rule	-4941
▁Jesse	-4942
▁touch	-4943
▁crimes	-4944
▁prisoners	-4945
▁frequently	-4946
▁discovering	-4947
▁site	-4948
▁warm	-4949
▁Victoria	-4950
▁accepted	-4951
▁Catherine	-4952
nes	-4953
kind	-4954
what	-4955
▁Rand	-4956
▁rape	-4957
▁Nicole	-4958
▁double	-4959
▁vacation	-4960
gs	-4961
▁Us	-4962
pher	-4963
▁Bell	-4964
▁Mort	-4965
▁roll	-4966
▁suppl	-4967
ogether	-4968
▁lavish	-4969
▁campaign	-4970
▁Sum	-4971
▁cuts	-4972
▁Chief	-4973
▁Jamie	-4974
▁barely	-4975
▁hearing	-4976
▁presents	-4977
▁Following	-4978
▁activities	-4979
▁CIA	-4980
eland	-4981
▁Beck	-4982
▁maid	-4983
▁ranks	-4984
▁Chicago	-4985
▁arriving	-4986
▁language	-4987
▁Professor	-4988
▁Stephanie	-4989
▁extremely	-4990
▁Rom	-4991
▁Egypt	-4992
▁emotional	-4993
▁ven	-4994
▁Albert	-4995
▁Cra	-4996
▁Ral	-4997
▁lady	-4998
▁palace	-4999
▁stranger	-5000
▁enthusias	-5001
geon	-5002
▁gal	-5003
▁Sally	-5004
▁strike	-5005
▁Twitter	-5006
▁request	-5007
gic	-5008
ste	-5009
vest	-5010
▁Pri	-5011
porary	-5012
▁resort	-5013
▁dismiss	-5014
▁restoration	-5015
phs	-5016
ieces	-5017
▁stone	-5018
▁ordered	-5019
▁cultural	-5020
▁proceeds	-5021
▁Mas	-5022
engers	-5023
▁Nancy	-5024
▁squad	-5025
▁chases	-5026
▁resour	-5027
▁forcing	-5028
▁director	-5029
ato	-5030
esh	-5031
▁Bh	-5032
worth	-5033
▁River	-5034
▁Linked	-5035
▁saving	-5036
▁Oz	-5037
▁chosen	-5038
▁LinkedIn	-5039
▁separate	-5040
▁published	-5041
da	-5042
▁somet	-5043
▁charisma	-5044
▁reckoned	-5045
▁strength	-5046
▁expertise	-5047
▁explosion	-5048
▁Leo	-5049
▁Real	-5050
▁Annie	-5051
▁Marsh	-5052
▁Molly	-5053
▁labor	-5054
▁Luxury	-5055
▁novels	-5056
▁wounds	-5057
▁connections	-5058
▁Hun	-5059
▁sab	-5060
▁Aunt	-5061
▁Flor	-5062
▁Hill	-5063
▁drops	-5064
▁flies	-5065
▁reunited	-5066
▁professor	-5067
ria	-5068
roc	-5069
▁Vick	-5070
▁dogs	-5071
▁felt	-5072
▁golf	-5073
▁hench	-5074
▁twins	-5075
▁garden	-5076
▁receive	-5077
▁atmosphere	-5078
▁relationships	-5079
▁mix	-5080
▁Sara	-5081
▁bond	-5082
▁cruel	-5083
▁escaping	-5084
▁Dis	-5085
▁Gen	-5086
ighter	-5087
▁Diana	-5088
▁exhib	-5089
▁border	-5090
▁region	-5091
▁happily	-5092
raid	-5093
▁Jes	-5094
▁pup	-5095
▁gall	-5096
▁raid	-5097
▁fired	-5098
▁guilty	-5099
▁consult	-5100
▁stopped	-5101
▁invasion	-5102
▁Air	-5103
▁Nap	-5104
▁ren	-5105
▁fake	-5106
▁Court	-5107
▁abandon	-5108
▁arrange	-5109
▁demanding	-5110
zo	-5111
▁mas	-5112
▁rac	-5113
▁Khan	-5114
uccess	-5115
▁Ellen	-5116
▁conclus	-5117
▁considered	-5118
▁193	-5119
anced	-5120
▁Gordon	-5121
▁closer	-5122
▁Emperor	-5123
ado	-5124
▁rit	-5125
▁helicop	-5126
▁clothing	-5127
mann	-5128
▁Ton	-5129
▁unl	-5130
▁navigate	-5131
▁Syl	-5132
▁sust	-5133
▁anger	-5134
▁cliff	-5135
▁focus	-5136
▁asleep	-5137
▁scenes	-5138
▁workers	-5139
▁chapters	-5140
ipl	-5141
met	-5142
ifts	-5143
iller	-5144
▁duel	-5145
▁smugg	-5146
▁worse	-5147
▁Vincent	-5148
▁collaps	-5149
▁circumst	-5150
▁features	-5151
▁Alexander	-5152
ika	-5153
ivity	-5154
▁libr	-5155
▁nest	-5156
▁manip	-5157
▁videos	-5158
▁Virginia	-5159
▁standing	-5160
▁prostitute	-5161
ss	-5162
ables	-5163
▁Hard	-5164
charge	-5165
▁teach	-5166
▁Marcus	-5167
▁Nicholas	-5168
▁development	-5169
▁dim	-5170
▁tom	-5171
ashed	-5172
inity	-5173
▁Here	-5174
▁bust	-5175
▁Since	-5176
▁queen	-5177
▁necess	-5178
▁answers	-5179
▁id	-5180
alled	-5181
echan	-5182
▁ones	-5183
▁method	-5184
▁pursued	-5185
▁expected	-5186
▁gradually	-5187
▁("	-5188
▁Rad	-5189
▁tot	-5190
▁fans	-5191
▁equip	-5192
▁nurse	-5193
▁Steven	-5194
▁native	-5195
▁thanks	-5196
▁adopted	-5197
▁facility	-5198
▁Inspector	-5199
▁subsequently	-5200
ih	-5201
zen	-5202
▁Gil	-5203
adise	-5204
▁Lily	-5205
▁Grace	-5206
▁adult	-5207
▁paper	-5208
▁stars	-5209
▁scheme	-5210
▁throne	-5211
▁arrived	-5212
▁painting	-5213
eer	-5214
▁Jun	-5215
▁Ren	-5216
▁hur	-5217
▁poet	-5218
▁disappeared	-5219
agn	-5220
olk	-5221
▁TV	-5222
▁Way	-5223
▁Serge	-5224
▁check	-5225
▁passionate	-5226
▁Ts	-5227
▁rum	-5228
▁Dian	-5229
▁lovers	-5230
car	-5231
ols	-5232
essa	-5233
ffic	-5234
▁Log	-5235
▁Even	-5236
▁grabs	-5237
▁defend	-5238
▁instit	-5239
▁Nazi	-5240
people	-5241
▁Valley	-5242
▁taught	-5243
▁enchant	-5244
▁scientists	-5245
ji	-5246
▁Ax	-5247
ales	-5248
ilst	-5249
▁opt	-5250
▁wer	-5251
andal	-5252
iable	-5253
ointed	-5254
stairs	-5255
ossible	-5256
do	-5257
nda	-5258
roy	-5259
▁Jr	-5260
▁Rud	-5261
▁Good	-5262
▁coup	-5263
▁shape	-5264
▁Hannah	-5265
▁disease	-5266
▁Seth	-5267
▁forms	-5268
▁hires	-5269
▁jumps	-5270
▁lines	-5271
▁cutting	-5272
▁assassin	-5273
▁surviving	-5274
reck	-5275
▁badly	-5276
▁daily	-5277
▁reads	-5278
ams	-5279
cen	-5280
acks	-5281
▁trib	-5282
▁grown	-5283
▁relax	-5284
▁beaten	-5285
▁troops	-5286
▁population	-5287
▁recognizing	-5288
▁Pin	-5289
▁spa	-5290
▁Cind	-5291
▁Kyle	-5292
▁Ashley	-5293
▁Darren	-5294
▁reconc	-5295
▁sneaks	-5296
▁dressed	-5297
▁species	-5298
▁entrepreneurs	-5299
▁Ast	-5300
▁oil	-5301
andra	-5302
anish	-5303
ifies	-5304
▁Long	-5305
▁card	-5306
▁none	-5307
outhern	-5308
pective	-5309
▁pressure	-5310
gen	-5311
rier	-5312
▁relig	-5313
▁fondness	-5314
▁execution	-5315
▁surprised	-5316
ala	-5317
nam	-5318
▁16	-5319
rael	-5320
▁acts	-5321
▁solve	-5322
▁steps	-5323
▁Donald	-5324
▁Nathan	-5325
▁horses	-5326
▁survived	-5327
▁surrounding	-5328
▁Ac	-5329
▁Ba	-5330
eted	-5331
unch	-5332
▁Pan	-5333
▁tick	-5334
▁deals	-5335
▁grave	-5336
▁robbery	-5337
▁sending	-5338
▁sheriff	-5339
▁controll	-5340
▁collector	-5341
▁philosoph	-5342
▁Sy	-5343
▁Fin	-5344
astic	-5345
uments	-5346
▁Marth	-5347
▁Sever	-5348
▁false	-5349
▁ensues	-5350
▁ceremony	-5351
▁declares	-5352
▁provides	-5353
▁companion	-5354
▁colleagues	-5355
#3	-5356
ko	-5357
aze	-5358
phy	-5359
otes	-5360
▁typ	-5361
▁Only	-5362
▁guns	-5363
▁paid	-5364
antage	-5365
▁Along	-5366
▁fully	-5367
▁awakens	-5368
▁failure	-5369
▁keeping	-5370
▁boarding	-5371
▁separated	-5372
▁management	-5373
▁ast	-5374
▁fix	-5375
▁lon	-5376
▁trav	-5377
▁brutal	-5378
▁waters	-5379
▁projects	-5380
▁thousands	-5381
▁involvement	-5382
omed	-5383
▁Kay	-5384
▁Squ	-5385
power	-5386
▁motor	-5387
▁pride	-5388
▁Travis	-5389
▁aliens	-5390
▁somewhat	-5391
▁passengers	-5392
▁Sud	-5393
entle	-5394
inals	-5395
▁Each	-5396
▁artif	-5397
▁faces	-5398
▁concerns	-5399
▁reluctant	-5400
body	-5401
▁rebell	-5402
▁inherit	-5403
▁singing	-5404
▁encourag	-5405
▁survives	-5406
▁confronted	-5407
▁Priv	-5408
▁Viet	-5409
▁notes	-5410
▁mechan	-5411
▁realizing	-5412
▁Norm	-5413
▁Barry	-5414
▁Other	-5415
▁Phill	-5416
▁Howard	-5417
▁shares	-5418
▁constant	-5419
▁intended	-5420
▁disappearance	-5421
arp	-5422
ante	-5423
▁eth	-5424
board	-5425
▁nick	-5426
▁terrible	-5427
▁Charlotte	-5428
▁treatment	-5429
▁ahead	-5430
▁laugh	-5431
▁lying	-5432
righten	-5433
▁Jewish	-5434
▁custody	-5435
▁unusual	-5436
▁maintaining	-5437
edge	-5438
▁Its	-5439
▁Ret	-5440
▁Jord	-5441
▁larg	-5442
▁Anita	-5443
▁Church	-5444
▁season	-5445
▁Britain	-5446
▁involves	-5447
▁Eth	-5448
▁Hell	-5449
▁Joan	-5450
▁Port	-5451
▁adopt	-5452
▁trends	-5453
▁hunting	-5454
▁sacrifice	-5455
▁civilization	-5456
iona	-5457
iple	-5458
▁lie	-5459
▁Mars	-5460
ferred	-5461
▁Jesus	-5462
▁easily	-5463
▁speech	-5464
▁distant	-5465
▁afterwards	-5466
▁recognizes	-5467
▁Dem	-5468
▁Vol	-5469
▁Conf	-5470
istine	-5471
alleled	-5472
▁notice	-5473
▁riding	-5474
▁Jackson	-5475
▁illness	-5476
▁enjoying	-5477
▁innovative	-5478
enc	-5479
▁Fire	-5480
▁Mick	-5481
▁hurt	-5482
▁alter	-5483
▁punish	-5484
ipe	-5485
▁cand	-5486
▁hole	-5487
▁outs	-5488
▁stumb	-5489
▁Second	-5490
▁answer	-5491
▁shadow	-5492
▁balance	-5493
▁passing	-5494
mon	-5495
▁du	-5496
itty	-5497
▁Cont	-5498
▁Thor	-5499
▁stal	-5500
▁combat	-5501
▁rushes	-5502
▁citizens	-5503
▁possibly	-5504
▁villagers	-5505
▁Ka	-5506
▁Pen	-5507
▁Rub	-5508
▁Spanish	-5509
▁airport	-5510
▁succeeds	-5511
ima	-5512
iner	-5513
▁sin	-5514
▁mart	-5515
▁Miles	-5516
▁colony	-5517
▁stands	-5518
▁chooses	-5519
▁rejects	-5520
▁conclusion	-5521
oto	-5522
▁nep	-5523
▁Shel	-5524
▁Ralph	-5525
▁rules	-5526
▁settle	-5527
▁tricks	-5528
▁concludes	-5529
▁unsuccess	-5530
▁Lieutenant	-5531
▁Ak	-5532
urban	-5533
▁beats	-5534
▁immers	-5535
▁intention	-5536
ails	-5537
hand	-5538
rial	-5539
yard	-5540
▁Aug	-5541
▁gay	-5542
isted	-5543
▁frag	-5544
▁sport	-5545
▁Julian	-5546
▁psychiat	-5547
▁confrontation	-5548
▁bes	-5549
▁Jedi	-5550
▁cart	-5551
▁sort	-5552
▁Krist	-5553
▁Major	-5554
▁stabs	-5555
▁Miller	-5556
▁slaves	-5557
▁managed	-5558
▁captivating	-5559
okes	-5560
ties	-5561
▁Bor	-5562
▁Guy	-5563
stein	-5564
▁Bert	-5565
▁Daff	-5566
▁mine	-5567
▁Young	-5568
▁ideas	-5569
▁fishing	-5570
▁heavily	-5571
▁pristine	-5572
▁therefore	-5573
▁Lo	-5574
▁Arm	-5575
▁Row	-5576
▁Wild	-5577
▁armed	-5578
▁groom	-5579
▁insane	-5580
paralleled	-5581
duce	-5582
hest	-5583
ravag	-5584
▁Also	-5585
ellect	-5586
▁judge	-5587
▁ensure	-5588
▁nephew	-5589
▁Private	-5590
▁furious	-5591
▁victory	-5592
▁football	-5593
▁recharge	-5594
▁unparalleled	-5595
▁12	-5596
▁Ty	-5597
haps	-5598
▁tunn	-5599
▁Megan	-5600
▁strate	-5601
▁meticul	-5602
▁executed	-5603
▁extravag	-5604
▁socially	-5605
iy	-5606
ras	-5607
aunt	-5608
ctors	-5609
▁bill	-5610
▁cure	-5611
▁crush	-5612
▁engagement	-5613
olph	-5614
▁Hay	-5615
▁cris	-5616
▁wolf	-5617
atural	-5618
▁fiance	-5619
▁briefly	-5620
▁illegal	-5621
▁providing	-5622
enger	-5623
▁begs	-5624
▁mask	-5625
▁chaos	-5626
▁diary	-5627
▁forget	-5628
▁Another	-5629
▁prepare	-5630
▁newfound	-5631
gun	-5632
eing	-5633
▁der	-5634
▁ecc	-5635
ronic	-5636
▁virt	-5637
▁wear	-5638
▁finish	-5639
▁Johnson	-5640
▁burning	-5641
▁warning	-5642
▁descript	-5643
▁positive	-5644
▁promising	-5645
3,	-5646
iro	-5647
oir	-5648
oms	-5649
unte	-5650
▁Const	-5651
▁Using	-5652
▁champ	-5653
▁clues	-5654
ections	-5655
▁Cassie	-5656
▁invent	-5657
▁Together	-5658
▁Detective	-5659
.)	-5660
rad	-5661
▁wa	-5662
▁Sel	-5663
woman	-5664
▁Holl	-5665
▁round	-5666
▁nation	-5667
▁central	-5668
▁systems	-5669
▁demonstr	-5670
inct	-5671
▁Fore	-5672
▁Gene	-5673
▁dism	-5674
▁alleg	-5675
▁acting	-5676
▁Melissa	-5677
▁talented	-5678
▁companions	-5679
igan	-5680
scar	-5681
▁roof	-5682
▁sear	-5683
▁skin	-5684
▁twin	-5685
entric	-5686
itchen	-5687
uality	-5688
▁Clark	-5689
▁Barbara	-5690
▁actress	-5691
▁contacts	-5692
▁Christine	-5693
▁challenge	-5694
▁Av	-5695
cles	-5696
wise	-5697
▁Kath	-5698
▁Romeo	-5699
▁Swiss	-5700
▁legal	-5701
▁minor	-5702
▁north	-5703
▁demand	-5704
▁groups	-5705
▁treated	-5706
▁inspired	-5707
▁residents	-5708
▁impossible	-5709
aled	-5710
uffy	-5711
▁Ali	-5712
▁Atl	-5713
▁shock	-5714
▁Castle	-5715
▁horror	-5716
▁commits	-5717
▁effects	-5718
ef	-5719
opp	-5720
look	-5721
reet	-5722
▁Dec	-5723
usive	-5724
▁Jill	-5725
orious	-5726
onymous	-5727
▁August	-5728
▁Sophie	-5729
▁demons	-5730
▁crashes	-5731
▁reports	-5732
▁movement	-5733
▁remembers	-5734
▁containing	-5735
▁Li	-5736
appy	-5737
▁Ned	-5738
▁lay	-5739
▁tax	-5740
▁Stev	-5741
▁blue	-5742
ifying	-5743
▁green	-5744
▁heavy	-5745
▁sanct	-5746
▁serve	-5747
▁dealer	-5748
▁seduct	-5749
▁moments	-5750
▁advantage	-5751
▁landscape	-5752
▁circumstances	-5753
Ch	-5754
rict	-5755
▁App	-5756
▁text	-5757
▁accused	-5758
▁Hollywood	-5759
▁extensive	-5760
inic	-5761
olds	-5762
▁Carm	-5763
▁allies	-5764
▁instruct	-5765
▁presented	-5766
▁investment	-5767
▁accompanied	-5768
ano	-5769
isy	-5770
berg	-5771
yler	-5772
▁egg	-5773
orney	-5774
▁Cons	-5775
isting	-5776
▁Royal	-5777
▁Valent	-5778
▁serial	-5779
▁carries	-5780
▁starting	-5781
▁intellect	-5782
how	-5783
pat	-5784
udd	-5785
▁rout	-5786
▁holid	-5787
▁route	-5788
▁loving	-5789
▁teenager	-5790
▁helicopter	-5791
▁Fox	-5792
▁Emma	-5793
▁rend	-5794
▁below	-5795
▁fires	-5796
▁overw	-5797
▁Martha	-5798
▁satisf	-5799
▁focuses	-5800
▁Catholic	-5801
▁practice	-5802
▁sometimes	-5803
▁repeatedly	-5804
▁threatening	-5805
ito	-5806
▁Res	-5807
▁drop	-5808
▁feed	-5809
▁convent	-5810
▁granted	-5811
▁hanging	-5812
▁magnetic	-5813
pects	-5814
yo	-5815
▁Bri	-5816
▁Pam	-5817
▁gamb	-5818
▁Blake	-5819
▁Lewis	-5820
▁speaks	-5821
▁mistress	-5822
▁sentenced	-5823
▁accessories	-5824
osc	-5825
▁Viv	-5826
▁Carr	-5827
▁Gary	-5828
▁manner	-5829
▁select	-5830
▁responsibility	-5831
hr	-5832
asm	-5833
▁bit	-5834
asted	-5835
▁Cole	-5836
▁duty	-5837
▁nurs	-5838
▁tape	-5839
▁oppos	-5840
▁Israel	-5841
▁sitting	-5842
▁strikes	-5843
▁volunte	-5844
▁interrupted	-5845
imp	-5846
▁Cad	-5847
▁Dex	-5848
▁Mus	-5849
▁sib	-5850
otion	-5851
rence	-5852
▁doubt	-5853
▁timep	-5854
▁frighten	-5855
▁invested	-5856
▁religion	-5857
▁commander	-5858
▁eccentric	-5859
▁assassination	-5860
▁philanthropist	-5861
antha	-5862
▁Coun	-5863
▁Pete	-5864
▁cash	-5865
▁trop	-5866
▁thief	-5867
▁mercen	-5868
▁catered	-5869
▁greatest	-5870
▁obsessed	-5871
▁preparing	-5872
▁terrorist	-5873
wal	-5874
▁Lion	-5875
▁prob	-5876
▁rail	-5877
▁Imper	-5878
attered	-5879
▁indeed	-5880
▁photos	-5881
▁Americans	-5882
▁resources	-5883
iah	-5884
reg	-5885
ught	-5886
▁Pac	-5887
▁Many	-5888
▁reasons	-5889
hatt	-5890
▁obl	-5891
actic	-5892
▁Night	-5893
▁revel	-5894
▁Walker	-5895
▁curated	-5896
▁torture	-5897
▁impressive	-5898
▁--	-5899
resh	-5900
▁Georg	-5901
▁draws	-5902
▁paint	-5903
▁afraid	-5904
▁execut	-5905
▁poring	-5906
▁accuses	-5907
▁attempted	-5908
▁prominent	-5909
bid	-5910
▁rej	-5911
▁Blue	-5912
▁legs	-5913
▁lush	-5914
▁Daffy	-5915
▁throw	-5916
mission	-5917
▁Jeremy	-5918
▁owners	-5919
▁supern	-5920
▁apprent	-5921
▁friendly	-5922
▁originally	-5923
▁...	-5924
▁Lyn	-5925
urance	-5926
▁carried	-5927
▁isolated	-5928
▁designers	-5929
elve	-5930
star	-5931
▁Bat	-5932
▁fab	-5933
▁lad	-5934
▁Corn	-5935
▁agre	-5936
▁anti	-5937
▁edge	-5938
▁gains	-5939
▁issues	-5940
▁theater	-5941
▁bustling	-5942
▁occasion	-5943
▁superior	-5944
bit	-5945
▁Seb	-5946
uated	-5947
▁Hong	-5948
▁avid	-5949
▁Force	-5950
▁coach	-5951
▁bright	-5952
▁elements	-5953
▁Sur	-5954
▁sem	-5955
▁Oliv	-5956
▁Zach	-5957
▁cuis	-5958
▁jung	-5959
▁veter	-5960
▁actual	-5961
▁intrig	-5962
▁contest	-5963
▁initial	-5964
▁disguise	-5965
▁partners	-5966
▁penchant	-5967
▁recovers	-5968
▁construction	-5969
icked	-5970
▁Dere	-5971
▁Four	-5972
▁righ	-5973
▁upper	-5974
▁bottle	-5975
▁crystal	-5976
▁exactly	-5977
▁lessons	-5978
▁selling	-5979
▁multiple	-5980
▁considers	-5981
tim	-5982
▁Eva	-5983
▁Men	-5984
▁Andy	-5985
▁Buck	-5986
▁Chap	-5987
▁Dean	-5988
▁cann	-5989
▁goal	-5990
▁honor	-5991
▁virus	-5992
▁Silver	-5993
▁mirror	-5994
▁teaches	-5995
▁designed	-5996
▁assistance	-5997
ador	-5998
drop	-5999
reme	-6000
▁unit	-6001
▁avail	-6002
orthern	-6003
▁emotion	-6004
▁warrior	-6005
▁Samantha	-6006
mir	-6007
zie	-6008
▁14	-6009
elson	-6010
▁Wendy	-6011
▁races	-6012
▁venge	-6013
▁Kimber	-6014
▁choose	-6015
▁circle	-6016
▁Manhatt	-6017
▁creates	-6018
lie	-6019
isha	-6020
▁Att	-6021
▁lap	-6022
amber	-6023
▁rage	-6024
▁chair	-6025
▁raped	-6026
▁Wilson	-6027
▁putting	-6028
▁winning	-6029
▁ambition	-6030
▁defeated	-6031
▁interrog	-6032
▁suspicion	-6033
▁consciousness	-6034
club	-6035
fast	-6036
▁schol	-6037
▁spots	-6038
▁value	-6039
working	-6040
▁Harold	-6041
▁Jordan	-6042
▁gentle	-6043
▁kitchen	-6044
Th	-6045
erc	-6046
mes	-6047
osh	-6048
ayed	-6049
bell	-6050
▁sky	-6051
leton	-6052
▁fier	-6053
▁fool	-6054
▁rose	-6055
▁trio	-6056
▁Mason	-6057
▁sabot	-6058
▁trips	-6059
▁devoted	-6060
▁justice	-6061
▁infected	-6062
▁informed	-6063
▁Tak	-6064
apers	-6065
erning	-6066
▁Chand	-6067
▁brill	-6068
▁houses	-6069
▁arranges	-6070
▁Manhattan	-6071
▁criminals	-6072
▁Cre	-6073
▁Hit	-6074
▁rif	-6075
▁Lake	-6076
▁fuel	-6077
▁climax	-6078
▁struct	-6079
▁Dorothy	-6080
▁charges	-6081
▁overcome	-6082
▁showcase	-6083
▁discerning	-6084
gers	-6085
▁pul	-6086
▁Neil	-6087
▁rain	-6088
iments	-6089
▁traum	-6090
▁ritual	-6091
▁assumes	-6092
▁defeats	-6093
▁ensuing	-6094
▁obvious	-6095
▁pastime	-6096
▁offering	-6097
▁reporter	-6098
uzz	-6099
▁Bu	-6100
▁Curt	-6101
▁wheel	-6102
▁senior	-6103
▁emerges	-6104
▁supplies	-6105
▁shoulders	-6106
▁journalist	-6107
lim	-6108
▁Drac	-6109
▁Diane	-6110
▁south	-6111
▁werew	-6112
▁corpor	-6113
▁tropical	-6114
hens	-6115
uces	-6116
▁Dut	-6117
▁elim	-6118
▁Oscar	-6119
▁larger	-6120
▁beneath	-6121
▁cuisine	-6122
▁pursues	-6123
▁Kimberly	-6124
▁concerned	-6125
▁scientific	-6126
▁significant	-6127
sp	-6128
iko	-6129
foot	-6130
▁Som	-6131
▁Pear	-6132
▁lord	-6133
angers	-6134
▁month	-6135
▁Secret	-6136
▁amount	-6137
ints	-6138
▁Kam	-6139
▁pit	-6140
▁Hist	-6141
▁Time	-6142
▁Super	-6143
▁sides	-6144
▁damage	-6145
▁merely	-6146
▁choices	-6147
▁acquaint	-6148
▁nightclub	-6149
")	-6150
oker	-6151
opean	-6152
which	-6153
▁elev	-6154
▁ruth	-6155
keeper	-6156
▁Logan	-6157
▁Texas	-6158
▁curse	-6159
▁Mother	-6160
▁Oliver	-6161
▁eagerly	-6162
▁bathroom	-6163
▁sanctuary	-6164
▁protection	-6165
ira	-6166
acle	-6167
gett	-6168
▁Sin	-6169
▁Dawn	-6170
▁buys	-6171
▁secl	-6172
▁Dennis	-6173
▁persuade	-6174
ees	-6175
ero	-6176
itan	-6177
▁hab	-6178
▁mouth	-6179
▁tower	-6180
▁restored	-6181
▁reconcile	-6182
▁competition	-6183
rim	-6184
gged	-6185
▁Tan	-6186
olves	-6187
▁Bart	-6188
▁feet	-6189
▁models	-6190
▁battles	-6191
▁conduct	-6192
▁distance	-6193
▁centuries	-6194
rich	-6195
▁Cir	-6196
ponse	-6197
▁homes	-6198
▁Russell	-6199
▁fiction	-6200
▁academically	-6201
azz	-6202
gery	-6203
quar	-6204
▁Cry	-6205
▁aim	-6206
▁bom	-6207
▁Arab	-6208
▁Kenn	-6209
▁fish	-6210
▁Griff	-6211
▁Irish	-6212
▁pages	-6213
▁foreign	-6214
▁perhaps	-6215
▁overhears	-6216
▁residence	-6217
▁conditions	-6218
▁Doc	-6219
▁Suz	-6220
▁Tok	-6221
oston	-6222
ulate	-6223
▁Baron	-6224
▁Derek	-6225
▁humil	-6226
rifying	-6227
▁bitter	-6228
▁occurs	-6229
▁worker	-6230
▁Jeffrey	-6231
▁address	-6232
▁progress	-6233
▁struggling	-6234
case	-6235
▁Ric	-6236
▁Conn	-6237
▁Pier	-6238
▁Tiff	-6239
▁shap	-6240
▁Greek	-6241
▁decor	-6242
▁medic	-6243
▁circus	-6244
▁reward	-6245
▁aircraft	-6246
▁deceased	-6247
▁included	-6248
▁response	-6249
▁survival	-6250
▁Ale	-6251
▁Joy	-6252
▁dwar	-6253
▁luck	-6254
▁broad	-6255
▁chest	-6256
▁likes	-6257
▁showed	-6258
▁territ	-6259
▁wonder	-6260
▁transformed	-6261
enna	-6262
ribe	-6263
▁Fur	-6264
▁voy	-6265
▁Most	-6266
▁copy	-6267
▁Craig	-6268
▁kidnap	-6269
▁lights	-6270
▁encourages	-6271
▁Anim	-6272
▁Cher	-6273
▁Fair	-6274
▁myth	-6275
▁page	-6276
▁Lucas	-6277
▁explo	-6278
▁kisses	-6279
▁temple	-6280
▁backdrop	-6281
▁ancestors	-6282
▁resistance	-6283
inda	-6284
▁Hub	-6285
▁instr	-6286
▁Dexter	-6287
▁Shadow	-6288
▁dating	-6289
▁likely	-6290
▁looked	-6291
▁throwing	-6292
book	-6293
▁Lam	-6294
▁Vik	-6295
▁map	-6296
owned	-6297
▁negot	-6298
▁rides	-6299
▁walls	-6300
▁argues	-6301
▁remark	-6302
▁theory	-6303
▁quality	-6304
▁wanting	-6305
▁betrayed	-6306
va	-6307
but	-6308
▁Ko	-6309
dest	-6310
▁Hum	-6311
▁Mah	-6312
▁Karl	-6313
▁YouT	-6314
▁blow	-6315
▁Daisy	-6316
▁films	-6317
▁ranch	-6318
▁Berlin	-6319
▁doctors	-6320
▁consequences	-6321
icia	-6322
▁Jen	-6323
▁Sab	-6324
▁Sad	-6325
ishop	-6326
ourne	-6327
▁coin	-6328
▁debt	-6329
▁seam	-6330
▁evident	-6331
▁pirates	-6332
▁advances	-6333
▁disguised	-6334
ache	-6335
▁Apr	-6336
▁Dra	-6337
▁joy	-6338
▁Ross	-6339
master	-6340
▁Boston	-6341
▁Russia	-6342
▁crisis	-6343
▁screen	-6344
▁drunken	-6345
▁minutes	-6346
▁readers	-6347
▁sustain	-6348
▁straight	-6349
▁creations	-6350
▁accomplish	-6351
▁flourished	-6352
▁perspective	-6353
▁professionals	-6354
ati	-6355
▁13	-6356
icts	-6357
point	-6358
▁Navy	-6359
▁jump	-6360
▁flood	-6361
▁rural	-6362
▁meanwhile	-6363
▁necessary	-6364
▁secretary	-6365
enth	-6366
hess	-6367
rell	-6368
▁Tra	-6369
▁Bent	-6370
▁propos	-6371
▁haunted	-6372
▁national	-6373
▁teaching	-6374
▁entertain	-6375
▁vacations	-6376
tle	-6377
vis	-6378
resp	-6379
▁Acc	-6380
▁Ten	-6381
icken	-6382
ateful	-6383
▁Guard	-6384
▁speed	-6385
▁eating	-6386
▁lonely	-6387
▁therap	-6388
▁Bernard	-6389
▁captive	-6390
▁martial	-6391
▁ultimate	-6392
▁Christina	-6393
▁possessed	-6394
▁intelligent	-6395
una	-6396
▁Ap	-6397
▁Kit	-6398
▁fif	-6399
▁Horn	-6400
urning	-6401
▁ended	-6402
▁noble	-6403
▁signs	-6404
▁theme	-6405
▁chased	-6406
▁transl	-6407
▁attends	-6408
▁dancing	-6409
▁mistaken	-6410
▁sexually	-6411
▁leadership	-6412
fe	-6413
▁Wy	-6414
girl	-6415
▁Lil	-6416
fight	-6417
▁Clay	-6418
▁Gray	-6419
▁dram	-6420
▁vows	-6421
▁April	-6422
▁Grant	-6423
▁games	-6424
▁sneak	-6425
▁refuse	-6426
▁secure	-6427
▁Leonard	-6428
▁Tiffany	-6429
▁courage	-6430
▁collecting	-6431
▁supposedly	-6432
▁Fle	-6433
▁Inf	-6434
▁Sky	-6435
inist	-6436
idance	-6437
▁embod	-6438
▁ruins	-6439
▁Jackie	-6440
▁YouTube	-6441
▁episode	-6442
▁siblings	-6443
aron	-6444
iring	-6445
water	-6446
▁Shaw	-6447
▁betr	-6448
▁pian	-6449
▁abduct	-6450
▁escort	-6451
▁immort	-6452
▁overse	-6453
▁patient	-6454
▁players	-6455
▁seriously	-6456
oku	-6457
arsh	-6458
erie	-6459
ucts	-6460
▁Sid	-6461
▁gem	-6462
eling	-6463
ington	-6464
umably	-6465
▁solid	-6466
▁Louise	-6467
▁perman	-6468
▁neither	-6469
▁objects	-6470
▁European	-6471
▁destined	-6472
▁approached	-6473
▁kidnapping	-6474
5,	-6475
say	-6476
fire	-6477
▁Sav	-6478
▁ran	-6479
icing	-6480
▁Hank	-6481
▁genu	-6482
▁Cross	-6483
▁Donna	-6484
▁abuse	-6485
▁Battle	-6486
▁Marian	-6487
▁Kingdom	-6488
▁capable	-6489
▁threatened	-6490
▁enthusiasts	-6491
fl	-6492
don	-6493
▁Mid	-6494
▁ski	-6495
▁Kong	-6496
ography	-6497
▁League	-6498
▁deliber	-6499
▁Scotland	-6500
aya	-6501
▁21	-6502
▁Od	-6503
roat	-6504
▁Ari	-6505
eries	-6506
opper	-6507
umber	-6508
▁Sylv	-6509
raught	-6510
▁Marco	-6511
▁Storm	-6512
▁Tyler	-6513
▁frees	-6514
▁trigg	-6515
▁critic	-6516
enthouse	-6517
▁defense	-6518
▁matters	-6519
▁marrying	-6520
▁overwhel	-6521
▁attraction	-6522
0,	-6523
gas	-6524
pson	-6525
road	-6526
▁Las	-6527
▁Girl	-6528
▁vess	-6529
▁Polly	-6530
▁Raymond	-6531
▁desires	-6532
▁grounds	-6533
▁seductive	-6534
▁supernatural	-6535
arre	-6536
oria	-6537
wing	-6538
▁bab	-6539
▁grief	-6540
▁robot	-6541
▁Intern	-6542
▁burned	-6543
quarters	-6544
▁Florida	-6545
▁earning	-6546
▁Imperial	-6547
▁Williams	-6548
▁patients	-6549
▁subsequent	-6550
▁experienced	-6551
▁flo	-6552
▁nor	-6553
orned	-6554
▁Ivan	-6555
ottage	-6556
▁dealing	-6557
▁divided	-6558
▁library	-6559
▁retired	-6560
▁weekend	-6561
▁paradise	-6562
▁searches	-6563
▁neighbors	-6564
mo	-6565
iot	-6566
▁Nob	-6567
▁Love	-6568
▁Maur	-6569
▁cats	-6570
▁clan	-6571
▁risk	-6572
▁scar	-6573
▁Ethan	-6574
▁miles	-6575
▁Patric	-6576
▁beings	-6577
▁bullet	-6578
▁cities	-6579
▁Caroline	-6580
▁tortured	-6581
▁explaining	-6582
',	-6583
▁Lat	-6584
oland	-6585
phone	-6586
▁diver	-6587
▁wrote	-6588
▁remove	-6589
▁studio	-6590
▁directly	-6591
▁guidance	-6592
▁ambitious	-6593
▁interests	-6594
oop	-6595
iper	-6596
iplom	-6597
▁Tess	-6598
ranged	-6599
▁minds	-6600
▁sales	-6601
▁mostly	-6602
▁wizard	-6603
ographer	-6604
▁edition	-6605
▁finance	-6606
▁advanced	-6607
▁ensuring	-6608
▁henchmen	-6609
▁primarily	-6610
▁timepieces	-6611
mit	-6612
▁Il	-6613
▁Ban	-6614
▁Ern	-6615
▁hob	-6616
aders	-6617
iture	-6618
▁Kent	-6619
▁tank	-6620
ermans	-6621
irloom	-6622
▁begun	-6623
▁subst	-6624
▁afford	-6625
▁locate	-6626
▁serves	-6627
▁Western	-6628
▁mistake	-6629
▁ruthless	-6630
▁severely	-6631
▁thousand	-6632
▁otherwise	-6633
▁frustrated	-6634
auc	-6635
▁Om	-6636
▁Kal	-6637
grily	-6638
guard	-6639
oking	-6640
▁Earl	-6641
▁dont	-6642
▁user	-6643
▁Cliff	-6644
▁Keith	-6645
▁stuck	-6646
▁withd	-6647
estrian	-6648
▁angrily	-6649
▁entirely	-6650
▁opulence	-6651
▁stronger	-6652
▁happiness	-6653
erk	-6654
▁fo	-6655
mark	-6656
▁Whe	-6657
force	-6658
▁code	-6659
▁rans	-6660
▁Freddy	-6661
▁agency	-6662
▁infant	-6663
▁delight	-6664
▁portray	-6665
▁replies	-6666
▁serving	-6667
▁brutally	-6668
▁insights	-6669
▁politics	-6670
▁receiving	-6671
▁assignment	-6672
▁attractive	-6673
umn	-6674
aming	-6675
inson	-6676
▁actor	-6677
▁aspir	-6678
▁guest	-6679
▁rapid	-6680
▁Sebast	-6681
▁cancer	-6682
▁Frances	-6683
▁knocked	-6684
'.	-6685
7,	-6686
cut	-6687
▁11	-6688
▁Cab	-6689
▁McG	-6690
▁Sak	-6691
▁bow	-6692
▁nin	-6693
▁Snow	-6694
▁pays	-6695
▁sand	-6696
▁tied	-6697
▁caret	-6698
ificial	-6699
▁Justin	-6700
▁closes	-6701
▁implic	-6702
▁silver	-6703
▁traged	-6704
▁physically	-6705
▁unexpectedly	-6706
ban	-6707
▁Lu	-6708
alie	-6709
▁von	-6710
▁bests	-6711
▁shoes	-6712
▁wreck	-6713
▁strand	-6714
▁captures	-6715
▁services	-6716
▁Bas	-6717
lands	-6718
▁anal	-6719
▁disg	-6720
▁hell	-6721
▁Light	-6722
▁benef	-6723
▁fresh	-6724
▁trait	-6725
▁Floren	-6726
▁fitness	-6727
▁explores	-6728
▁meantime	-6729
▁youngest	-6730
▁collapses	-6731
▁terrorists	-6732
▁complicated	-6733
▁Fa	-6734
▁Sa	-6735
▁ec	-6736
usty	-6737
wart	-6738
▁Bay	-6739
uther	-6740
▁gods	-6741
▁leng	-6742
▁split	-6743
▁serene	-6744
▁sorcer	-6745
▁explodes	-6746
▁Realizing	-6747
▁Afterwards	-6748
sely	-6749
ector	-6750
ellow	-6751
▁Drag	-6752
▁Whit	-6753
▁rabb	-6754
▁Adams	-6755
▁Tracy	-6756
▁Parker	-6757
▁jungle	-6758
▁Gabriel	-6759
▁records	-6760
▁electric	-6761
▁pretends	-6762
▁warriors	-6763
▁expresses	-6764
▁instantly	-6765
▁international	-6766
owe	-6767
edly	-6768
pers	-6769
▁Hon	-6770
asant	-6771
▁Barn	-6772
▁Erik	-6773
▁Kore	-6774
▁rein	-6775
▁Danielle	-6776
▁responds	-6777
▁specific	-6778
▁suffered	-6779
▁Katherine	-6780
▁estranged	-6781
▁production	-6782
▁communicate	-6783
▁extravagant	-6784
4,	-6785
etta	-6786
ikes	-6787
uate	-6788
▁ing	-6789
asures	-6790
▁abort	-6791
▁blame	-6792
artment	-6793
▁Commun	-6794
▁drinks	-6795
▁obtain	-6796
▁fantasy	-6797
▁skilled	-6798
▁secluded	-6799
▁alcoholic	-6800
ulf	-6801
▁Gro	-6802
▁inex	-6803
▁hates	-6804
▁motel	-6805
▁neckl	-6806
▁niece	-6807
▁goodby	-6808
▁launch	-6809
▁Council	-6810
▁Wallace	-6811
▁injuries	-6812
▁stumbles	-6813
▁troubled	-6814
▁undercover	-6815
amm	-6816
▁Finn	-6817
▁Juan	-6818
▁nerv	-6819
▁Saint	-6820
▁Central	-6821
▁vicious	-6822
▁affection	-6823
tar	-6824
▁Az	-6825
rise	-6826
anner	-6827
▁evac	-6828
▁pock	-6829
▁Tiger	-6830
▁Hitler	-6831
▁Sandra	-6832
▁retire	-6833
▁singer	-6834
▁heirloom	-6835
▁alternate	-6836
▁literature	-6837
▁photographs	-6838
&#3	-6839
eddy	-6840
occh	-6841
urbs	-6842
▁Fro	-6843
▁Han	-6844
▁dad	-6845
▁Stark	-6846
▁Times	-6847
▁alike	-6848
▁immig	-6849
▁items	-6850
▁kidnaps	-6851
9,	-6852
town	-6853
denly	-6854
▁Ford	-6855
astern	-6856
▁drawing	-6857
▁zombies	-6858
▁respected	-6859
▁conspiracy	-6860
▁encouraged	-6861
▁Vi	-6862
fall	-6863
iser	-6864
▁Syd	-6865
estic	-6866
▁artic	-6867
▁ideal	-6868
▁extraord	-6869
▁attacking	-6870
▁mysteriously	-6871
Clan	-6872
hered	-6873
▁Coll	-6874
▁iron	-6875
▁State	-6876
▁loose	-6877
▁resur	-6878
▁unfor	-6879
▁explan	-6880
▁heroes	-6881
▁mingle	-6882
▁temper	-6883
▁Vietnam	-6884
▁attorney	-6885
▁shopping	-6886
▁construct	-6887
▁Cy	-6888
▁Zo	-6889
oves	-6890
etown	-6891
▁Percy	-6892
▁resign	-6893
▁absence	-6894
▁antique	-6895
▁covered	-6896
▁dollars	-6897
▁embrace	-6898
▁restore	-6899
▁worried	-6900
▁Australia	-6901
ao	-6902
agu	-6903
oli	-6904
▁Ky	-6905
▁wake	-6906
▁Betty	-6907
▁motiv	-6908
ception	-6909
ielding	-6910
▁conver	-6911
▁fourth	-6912
▁picked	-6913
▁safely	-6914
▁whilst	-6915
▁passage	-6916
▁confused	-6917
brit	-6918
▁Cas	-6919
▁Cyn	-6920
oting	-6921
▁Brun	-6922
▁Scar	-6923
▁auct	-6924
ilogue	-6925
▁Colin	-6926
▁winem	-6927
▁Brenda	-6928
▁bought	-6929
▁halluc	-6930
▁refers	-6931
▁twelve	-6932
▁voyage	-6933
▁landing	-6934
▁Lawrence	-6935
▁dreaming	-6936
▁promised	-6937
pro	-6938
run	-6939
▁Ivy	-6940
ester	-6941
▁Well	-6942
▁easy	-6943
▁nine	-6944
▁prem	-6945
▁ties	-6946
brities	-6947
▁Sharpe	-6948
▁iconic	-6949
▁Sheriff	-6950
▁equipment	-6951
▁techniques	-6952
▁contemporary	-6953
ye	-6954
▁25	-6955
▁30	-6956
▁Kr	-6957
▁isnt	-6958
izarre	-6959
▁incor	-6960
▁price	-6961
▁ghosts	-6962
▁Mexican	-6963
▁nestled	-6964
▁handsome	-6965
▁celebrities	-6966
▁headquarters	-6967
▁Sea	-6968
▁isn	-6969
▁syn	-6970
▁Case	-6971
▁Gret	-6972
▁Wind	-6973
▁inad	-6974
▁sits	-6975
▁skyl	-6976
ipping	-6977
ulates	-6978
▁Clara	-6979
▁Leslie	-6980
▁prophe	-6981
▁Stevens	-6982
▁talents	-6983
▁brilliant	-6984
▁recovering	-6985
ethe	-6986
▁Mak	-6987
racts	-6988
rants	-6989
▁Cord	-6990
▁photo	-6991
▁wines	-6992
▁embarr	-6993
▁primary	-6994
▁Suddenly	-6995
▁mentioned	-6996
cks	-6997
ece	-6998
▁Die	-6999
going	-7000
lects	-7001
▁Blood	-7002
▁Claud	-7003
▁fatal	-7004
▁theft	-7005
▁villa	-7006
▁Heather	-7007
▁arranged	-7008
▁celebrate	-7009
▁penthouse	-7010
zz	-7011
awa	-7012
bsp	-7013
sen	-7014
esar	-7015
know	-7016
▁McL	-7017
▁Fitz	-7018
▁vine	-7019
aborate	-7020
▁detect	-7021
▁plants	-7022
▁supply	-7023
▁groomed	-7024
▁paralle	-7025
▁darkness	-7026
▁necklace	-7027
6,	-7028
▁Cel	-7029
▁Lin	-7030
▁agg	-7031
▁cov	-7032
▁Grey	-7033
▁Mass	-7034
▁aest	-7035
▁torn	-7036
▁arist	-7037
▁divor	-7038
▁naked	-7039
▁stole	-7040
▁Hunter	-7041
▁seduce	-7042
▁strict	-7043
▁somehow	-7044
▁revolves	-7045
▁colleague	-7046
▁desperately	-7047
ibb	-7048
▁Ah	-7049
▁ge	-7050
erve	-7051
oyle	-7052
▁fed	-7053
encing	-7054
erness	-7055
▁clubs	-7056
▁Holmes	-7057
▁Germans	-7058
▁bizarre	-7059
▁related	-7060
▁wonders	-7061
▁inadvert	-7062
gue	-7063
icip	-7064
▁Dol	-7065
▁Benj	-7066
▁Chan	-7067
▁Mosc	-7068
▁Tower	-7069
▁Wolfe	-7070
▁spread	-7071
▁Several	-7072
▁illustr	-7073
▁tragedy	-7074
▁sentence	-7075
▁inherited	-7076
▁recognize	-7077
gal	-7078
avan	-7079
nbsp	-7080
riet	-7081
▁Bry	-7082
▁era	-7083
▁shy	-7084
▁hill	-7085
▁Sandy	-7086
▁frame	-7087
▁total	-7088
▁hunter	-7089
▁gardens	-7090
▁spirits	-7091
ibilities	-7092
▁National	-7093
▁grateful	-7094
▁exceptional	-7095
bie	-7096
omen	-7097
osex	-7098
▁Bun	-7099
▁Rip	-7100
never	-7101
▁pist	-7102
▁adapt	-7103
▁await	-7104
▁urges	-7105
▁incred	-7106
▁Pinocch	-7107
▁boasted	-7108
▁cottage	-7109
▁frequent	-7110
▁medicine	-7111
▁insurance	-7112
▁legendary	-7113
▁performing	-7114
▁presumably	-7115
uts	-7116
orky	-7117
▁Sue	-7118
▁Yet	-7119
maker	-7120
▁outf	-7121
▁Amber	-7122
▁Years	-7123
▁deton	-7124
▁metal	-7125
▁mouse	-7126
▁denies	-7127
▁honest	-7128
▁sevent	-7129
▁Timothy	-7130
▁engaging	-7131
▁hometown	-7132
▁mentions	-7133
▁furniture	-7134
▁magazines	-7135
▁punishment	-7136
aka	-7137
loe	-7138
▁Bow	-7139
▁cig	-7140
▁mal	-7141
▁tut	-7142
ested	-7143
estern	-7144
ifteen	-7145
▁react	-7146
▁ambush	-7147
▁unless	-7148
▁limited	-7149
▁Florence	-7150
▁featured	-7151
▁replaced	-7152
▁caretaker	-7153
▁rebellion	-7154
axy	-7155
tra	-7156
amic	-7157
ayer	-7158
▁caf	-7159
asket	-7160
▁Dead	-7161
▁Gall	-7162
▁Hend	-7163
atever	-7164
▁fairy	-7165
▁poise	-7166
▁Moscow	-7167
▁decades	-7168
▁aristocr	-7169
▁impressed	-7170
▁socialite	-7171
▁devastated	-7172
▁wealthiest	-7173
II	-7174
▁Di	-7175
ripp	-7176
ucks	-7177
usal	-7178
with	-7179
▁Str	-7180
▁Wat	-7181
▁guy	-7182
▁rush	-7183
bidden	-7184
isions	-7185
▁burst	-7186
▁sharp	-7187
▁Peters	-7188
▁bottom	-7189
▁covers	-7190
entially	-7191
▁delivers	-7192
▁mentally	-7193
▁requests	-7194
▁policeman	-7195
oh	-7196
orp	-7197
ota	-7198
ums	-7199
mare	-7200
▁Dal	-7201
▁Int	-7202
▁Goku	-7203
▁Hugh	-7204
▁Nina	-7205
▁Todd	-7206
▁fled	-7207
▁annoy	-7208
▁Govern	-7209
▁Company	-7210
▁Garrett	-7211
▁departs	-7212
▁favored	-7213
▁ordinary	-7214
▁Pinocchio	-7215
▁happening	-7216
▁suspicions	-7217
▁192	-7218
▁Stu	-7219
▁Dire	-7220
▁Fort	-7221
▁Joey	-7222
Americ	-7223
▁Kings	-7224
▁color	-7225
▁editor	-7226
▁spring	-7227
▁disturb	-7228
▁greater	-7229
▁masterp	-7230
▁unnamed	-7231
▁antiques	-7232
▁imagination	-7233
▁Ze	-7234
▁100	-7235
▁bold	-7236
▁Katie	-7237
▁manor	-7238
▁Stella	-7239
▁Street	-7240
▁mentor	-7241
▁opened	-7242
▁centers	-7243
▁veteran	-7244
▁suspected	-7245
An	-7246
bal	-7247
obi	-7248
▁Bos	-7249
▁Pic	-7250
pires	-7251
▁Civil	-7252
▁Enter	-7253
▁scout	-7254
▁consum	-7255
▁abusive	-7256
▁surgery	-7257
▁creation	-7258
▁disaster	-7259
▁graceful	-7260
▁purchase	-7261
▁survivor	-7262
▁according	-7263
▁recognized	-7264
amin	-7265
lets	-7266
thia	-7267
▁Kum	-7268
▁coc	-7269
etime	-7270
▁Spec	-7271
▁whis	-7272
erence	-7273
▁Kathy	-7274
▁burns	-7275
▁adorned	-7276
▁prepared	-7277
▁territory	-7278
▁developing	-7279
afia	-7280
▁Haz	-7281
▁Urs	-7282
agger	-7283
armed	-7284
front	-7285
▁June	-7286
▁barn	-7287
▁faced	-7288
▁stock	-7289
▁Archie	-7290
▁Murphy	-7291
▁candid	-7292
▁damaged	-7293
bek	-7294
▁50	-7295
just	-7296
oken	-7297
▁Ian	-7298
▁Mod	-7299
▁Sub	-7300
anche	-7301
▁exha	-7302
▁lock	-7303
▁size	-7304
▁cases	-7305
▁Duncan	-7306
▁Madame	-7307
▁Winter	-7308
▁diplom	-7309
▁pushes	-7310
▁Ireland	-7311
▁entered	-7312
▁focused	-7313
▁intense	-7314
▁suburbs	-7315
▁Sergeant	-7316
▁releases	-7317
▁infiltrate	-7318
▁Su	-7319
lege	-7320
▁Mia	-7321
▁Pers	-7322
▁Town	-7323
▁chem	-7324
▁irres	-7325
▁thugs	-7326
▁aspects	-7327
▁express	-7328
▁skyline	-7329
▁torment	-7330
▁depressed	-7331
▁neighbour	-7332
▁unforgett	-7333
▁inadvertently	-7334
owed	-7335
▁Gard	-7336
▁Rain	-7337
▁bears	-7338
▁theat	-7339
▁usual	-7340
▁Malcol	-7341
▁garage	-7342
▁struck	-7343
▁submar	-7344
▁beating	-7345
▁contain	-7346
▁speaking	-7347
▁independent	-7348
▁extraordinary	-7349
▁unforgettable	-7350
▁transportation	-7351
agg	-7352
▁Cob	-7353
▁Met	-7354
▁lib	-7355
▁Life	-7356
▁Marty	-7357
▁today	-7358
▁Harris	-7359
▁allure	-7360
▁prized	-7361
▁rebels	-7362
▁correct	-7363
▁husbands	-7364
▁interven	-7365
▁officials	-7366
▁regularly	-7367
▁protecting	-7368
acc	-7369
anor	-7370
anqu	-7371
burg	-7372
dess	-7373
iami	-7374
▁191	-7375
▁dyn	-7376
▁une	-7377
acked	-7378
▁cruc	-7379
▁Aaron	-7380
▁Admir	-7381
▁diner	-7382
▁Juliet	-7383
▁ruined	-7384
▁clearly	-7385
▁credits	-7386
▁nervous	-7387
▁reminds	-7388
▁removed	-7389
▁sailing	-7390
▁charming	-7391
▁entering	-7392
▁monsters	-7393
▁upstairs	-7394
▁whatever	-7395
▁nightlife	-7396
aga	-7397
▁sy	-7398
boat	-7399
osis	-7400
▁Els	-7401
▁End	-7402
itute	-7403
orphs	-7404
▁Hart	-7405
arship	-7406
▁Santa	-7407
▁Still	-7408
▁Thorn	-7409
▁Tokyo	-7410
▁realm	-7411
▁rooms	-7412
ensions	-7413
▁dining	-7414
▁infect	-7415
▁comment	-7416
▁goodbye	-7417
▁Patricia	-7418
▁alliance	-7419
▁alongside	-7420
▁occupation	-7421
▁wilderness	-7422
iders	-7423
▁Serv	-7424
▁tent	-7425
▁opera	-7426
▁Alfred	-7427
▁Unable	-7428
▁rights	-7429
▁solace	-7430
▁affairs	-7431
▁artists	-7432
▁trained	-7433
▁unhappy	-7434
▁required	-7435
▁vengeance	-7436
▁admiration	-7437
▁transported	-7438
jo	-7439
aro	-7440
▁Op	-7441
▁ow	-7442
hell	-7443
irts	-7444
lord	-7445
rant	-7446
rina	-7447
▁pig	-7448
▁Ring	-7449
▁panic	-7450
▁stick	-7451
▁massac	-7452
▁slight	-7453
▁concert	-7454
▁healthy	-7455
▁holiday	-7456
▁innocence	-7457
▁obsession	-7458
▁spiritual	-7459
bar	-7460
osm	-7461
uki	-7462
rons	-7463
▁Six	-7464
▁fro	-7465
▁Maya	-7466
▁sess	-7467
▁inner	-7468
▁locks	-7469
▁Roland	-7470
▁global	-7471
▁ransom	-7472
▁tempor	-7473
▁automob	-7474
▁digital	-7475
▁largely	-7476
▁culinary	-7477
▁employee	-7478
▁investigates	-7479
▁$	-7480
init	-7481
ylum	-7482
▁Arn	-7483
▁Dur	-7484
oving	-7485
▁Free	-7486
▁calm	-7487
▁Kitty	-7488
▁cards	-7489
▁inval	-7490
▁People	-7491
▁rising	-7492
▁Gilbert	-7493
▁Vanessa	-7494
▁advance	-7495
▁declines	-7496
▁familiar	-7497
▁treacher	-7498
▁murdering	-7499
▁biological	-7500
▁enchanting	-7501
cel	-7502
inx	-7503
▁Ly	-7504
▁Mu	-7505
glas	-7506
lock	-7507
▁Act	-7508
▁Nar	-7509
▁Vamp	-7510
atched	-7511
▁Miami	-7512
▁Pearl	-7513
▁bloody	-7514
▁pulled	-7515
▁refused	-7516
▁scandal	-7517
▁Campbell	-7518
▁epilogue	-7519
▁equestrian	-7520
cat	-7521
▁Gw	-7522
gent	-7523
itar	-7524
rust	-7525
▁curs	-7526
▁pref	-7527
▁sket	-7528
▁Child	-7529
▁Davis	-7530
▁Dutch	-7531
▁argue	-7532
▁enorm	-7533
▁roads	-7534
▁enraged	-7535
▁genuine	-7536
▁irresist	-7537
▁probably	-7538
▁Sebastian	-7539
▁showcasing	-7540
▁Ja	-7541
annon	-7542
▁prev	-7543
ranean	-7544
▁chain	-7545
▁lower	-7546
▁Willie	-7547
▁facing	-7548
▁manusc	-7549
▁visions	-7550
▁achieved	-7551
8,	-7552
bel	-7553
▁Cur	-7554
gency	-7555
▁Trev	-7556
anging	-7557
inates	-7558
▁Britt	-7559
▁Mitch	-7560
▁sweet	-7561
▁teams	-7562
▁acknow	-7563
▁foster	-7564
daughter	-7565
▁Lindsay	-7566
▁Pacific	-7567
▁admired	-7568
▁advises	-7569
▁concent	-7570
▁failing	-7571
▁fleeing	-7572
▁attitude	-7573
▁performs	-7574
▁recounts	-7575
▁principal	-7576
▁description	-7577
net	-7578
▁Poo	-7579
▁Wor	-7580
▁Card	-7581
▁opin	-7582
▁Brook	-7583
▁broke	-7584
▁shore	-7585
atively	-7586
▁Olivia	-7587
▁Things	-7588
▁portra	-7589
▁Admiral	-7590
▁numbers	-7591
▁poisoned	-7592
▁pursuing	-7593
▁determine	-7594
▁relatives	-7595
▁Dix	-7596
▁Hug	-7597
acies	-7598
iolet	-7599
▁Abby	-7600
▁Rita	-7601
▁laws	-7602
▁spin	-7603
▁touc	-7604
inding	-7605
▁Chloe	-7606
▁Veron	-7607
▁waits	-7608
▁behavi	-7609
▁enjoys	-7610
▁Malcolm	-7611
▁chamber	-7612
▁wanders	-7613
▁economic	-7614
▁identify	-7615
▁breakfast	-7616
▁somewhere	-7617
▁experiments	-7618
bey	-7619
nel	-7620
idal	-7621
ilda	-7622
▁Ark	-7623
▁III	-7624
▁Kid	-7625
▁Lib	-7626
▁Next	-7627
▁soft	-7628
▁succ	-7629
acking	-7630
▁Among	-7631
▁Ghost	-7632
▁March	-7633
▁Never	-7634
▁rifle	-7635
▁closed	-7636
▁adventur	-7637
▁betrayal	-7638
▁referred	-7639
▁servants	-7640
▁customized	-7641
▁environmental	-7642
ete	-7643
iac	-7644
neys	-7645
pent	-7646
▁bat	-7647
adows	-7648
rates	-7649
uties	-7650
▁Pink	-7651
iating	-7652
▁Buffy	-7653
▁birds	-7654
▁honey	-7655
▁moral	-7656
▁slips	-7657
iveness	-7658
▁Judith	-7659
▁cooper	-7660
▁footage	-7661
▁werewolf	-7662
▁regarding	-7663
▁witnessed	-7664
izz	-7665
eler	-7666
hend	-7667
▁Bad	-7668
▁Pre	-7669
▁hij	-7670
▁tur	-7671
▁Beat	-7672
▁Murd	-7673
umping	-7674
▁Ernest	-7675
▁advert	-7676
▁tranqu	-7677
▁weight	-7678
American	-7679
▁Cynthia	-7680
▁consists	-7681
▁engineer	-7682
▁entrance	-7683
▁historic	-7684
▁travelling	-7685
esa	-7686
seen	-7687
▁Bol	-7688
▁Gus	-7689
▁Kaz	-7690
▁anx	-7691
aling	-7692
incol	-7693
inter	-7694
▁Tara	-7695
▁hook	-7696
▁sixt	-7697
▁retal	-7698
▁Monica	-7699
▁Theres	-7700
▁overth	-7701
▁Georgia	-7702
▁Spencer	-7703
▁hostile	-7704
▁methods	-7705
▁pattern	-7706
▁profile	-7707
▁realise	-7708
▁contrast	-7709
▁rejected	-7710
▁sinister	-7711
▁artificial	-7712
▁department	-7713
▁depression	-7714
▁flashbacks	-7715
▁generation	-7716
uns	-7717
▁Ut	-7718
avia	-7719
emen	-7720
olis	-7721
omer	-7722
▁Gor	-7723
▁Pig	-7724
▁Pot	-7725
riage	-7726
▁jobs	-7727
itated	-7728
▁Loren	-7729
▁Rocky	-7730
▁globe	-7731
▁occas	-7732
▁smart	-7733
▁trees	-7734
▁Dracula	-7735
▁closing	-7736
▁equally	-7737
▁familys	-7738
▁loyalty	-7739
▁screams	-7740
▁possibility	-7741
▁introduction	-7742
▁Du	-7743
aire	-7744
uven	-7745
▁Vel	-7746
▁shr	-7747
akers	-7748
▁Tina	-7749
▁rats	-7750
▁block	-7751
▁golden	-7752
▁Stanley	-7753
▁impress	-7754
▁literary	-7755
▁discusses	-7756
▁apprentice	-7757
▁discussing	-7758
▁operations	-7759
▁pretending	-7760
▁Dog	-7761
▁Hot	-7762
▁Meg	-7763
acker	-7764
acles	-7765
arson	-7766
▁puzz	-7767
▁subd	-7768
▁Spain	-7769
▁aging	-7770
▁doors	-7771
▁lodge	-7772
▁Alicia	-7773
▁Carlos	-7774
▁higher	-7775
▁throat	-7776
▁stating	-7777
▁realized	-7778
▁collectors	-7779
▁commission	-7780
egr	-7781
ses	-7782
apse	-7783
lett	-7784
mers	-7785
▁Erin	-7786
▁Mack	-7787
▁Nora	-7788
▁Spir	-7789
▁Sydney	-7790
▁deeper	-7791
▁listen	-7792
volution	-7793
▁Collect	-7794
▁College	-7795
▁Phillip	-7796
▁extreme	-7797
▁psychic	-7798
▁stabbed	-7799
ification	-7800
▁gangster	-7801
▁classmates	-7802
▁irresistible	-7803
▁meticulously	-7804
fs	-7805
uced	-7806
▁Oct	-7807
▁Var	-7808
▁gor	-7809
borah	-7810
ieves	-7811
istan	-7812
oured	-7813
ulous	-7814
▁Acad	-7815
▁Mall	-7816
▁myst	-7817
▁skill	-7818
▁spite	-7819
▁tears	-7820
▁urban	-7821
▁Lincol	-7822
▁Douglas	-7823
▁hundreds	-7824
▁minister	-7825
▁tracking	-7826
▁surrender	-7827
▁boundaries	-7828
sm	-7829
ggy	-7830
▁Na	-7831
olls	-7832
uild	-7833
▁Eug	-7834
▁blog	-7835
▁tire	-7836
abouts	-7837
▁Chuck	-7838
▁forth	-7839
itimate	-7840
▁Barney	-7841
▁Marina	-7842
▁plague	-7843
▁pretty	-7844
▁baseball	-7845
▁gambling	-7846
▁marketing	-7847
▁progresses	-7848
eur	-7849
oby	-7850
agan	-7851
eron	-7852
▁Dee	-7853
▁Fab	-7854
▁Pap	-7855
▁awa	-7856
▁Much	-7857
▁laid	-7858
▁owns	-7859
broken	-7860
▁Theod	-7861
▁bride	-7862
▁asylum	-7863
▁tragic	-7864
▁fifteen	-7865
▁heading	-7866
▁Anderson	-7867
▁homeless	-7868
▁currently	-7869
▁exploration	-7870
▁photographer	-7871
eem	-7872
ova	-7873
ifted	-7874
rated	-7875
▁Cody	-7876
▁Flet	-7877
▁Oper	-7878
▁Ruby	-7879
▁amaz	-7880
▁obst	-7881
▁styl	-7882
▁tomb	-7883
icient	-7884
itches	-7885
▁Paula	-7886
▁climb	-7887
▁oppon	-7888
▁rebel	-7889
underst	-7890
▁Golden	-7891
▁length	-7892
▁online	-7893
▁valley	-7894
atically	-7895
▁Miranda	-7896
▁Minister	-7897
▁Animorphs	-7898
▁difference	-7899
▁transforms	-7900
▁inheritance	-7901
▁Ald	-7902
verty	-7903
▁hour	-7904
▁seat	-7905
▁Dream	-7906
▁Felix	-7907
▁Satan	-7908
▁Isabel	-7909
▁farmer	-7910
▁Special	-7911
▁dragons	-7912
▁poverty	-7913
▁prophecy	-7914
aux	-7915
tic	-7916
pper	-7917
▁ash	-7918
▁Penn	-7919
▁conn	-7920
▁core	-7921
▁Jacqu	-7922
▁gifts	-7923
▁harsh	-7924
▁intim	-7925
beknown	-7926
▁Caesar	-7927
▁banker	-7928
▁embark	-7929
▁potion	-7930
▁seemed	-7931
▁Deborah	-7932
▁improve	-7933
▁Alliance	-7934
▁peaceful	-7935
▁proposal	-7936
▁swimming	-7937
▁documents	-7938
▁confession	-7939
▁whereabouts	-7940
azar	-7941
math	-7942
clear	-7943
▁Kane	-7944
▁Cindy	-7945
▁Elena	-7946
▁range	-7947
▁reign	-7948
▁stake	-7949
▁astron	-7950
▁culmin	-7951
▁favour	-7952
▁hatred	-7953
▁injury	-7954
▁patrol	-7955
▁senses	-7956
▁Brother	-7957
▁Eleanor	-7958
▁enlists	-7959
▁homosex	-7960
▁tension	-7961
▁magazine	-7962
▁horrified	-7963
▁wandering	-7964
▁continuing	-7965
▁detectives	-7966
arded	-7967
kward	-7968
embles	-7969
▁Bruno	-7970
▁bored	-7971
▁proof	-7972
▁ruler	-7973
▁tunnel	-7974
▁inspire	-7975
▁millions	-7976
▁direction	-7977
▁spaceship	-7978
▁permission	-7979
▁approaching	-7980
▁possessions	-7981
▁townspeople	-7982
his	-7983
▁Zh	-7984
hlet	-7985
ianc	-7986
iege	-7987
▁Bug	-7988
▁Roc	-7989
▁gri	-7990
▁Cong	-7991
▁Dest	-7992
▁Merr	-7993
▁tend	-7994
▁ware	-7995
▁wont	-7996
ternal	-7997
▁Teddy	-7998
▁tests	-7999
cluding	-8000
▁Gerald	-8001
▁integr	-8002
▁studied	-8003
▁Confeder	-8004
▁threaten	-8005
▁confusion	-8006
leys	-8007
onda	-8008
wife	-8009
▁Div	-8010
urbed	-8011
▁Ferr	-8012
▁Gill	-8013
▁bout	-8014
▁fame	-8015
▁slip	-8016
▁Heart	-8017
▁Judge	-8018
▁Penny	-8019
▁Norman	-8020
▁pistol	-8021
▁repair	-8022
▁severe	-8023
▁Frankie	-8024
▁rapidly	-8025
▁capturing	-8026
▁apologizes	-8027
▁temporarily	-8028
▁Kl	-8029
idel	-8030
▁Aub	-8031
▁Nan	-8032
▁Who	-8033
▁bor	-8034
chers	-8035
▁Dale	-8036
▁Mist	-8037
▁Stew	-8038
▁Agent	-8039
▁spare	-8040
idnight	-8041
▁reform	-8042
▁rocket	-8043
▁virgin	-8044
▁Brandon	-8045
▁Fashion	-8046
▁awkward	-8047
▁product	-8048
▁recording	-8049
▁recovered	-8050
▁remarkable	-8051
zer	-8052
▁Ox	-8053
ooth	-8054
▁Due	-8055
▁Len	-8056
night	-8057
opard	-8058
▁Judy	-8059
▁Ward	-8060
▁coma	-8061
▁spre	-8062
▁tall	-8063
erring	-8064
utions	-8065
▁bless	-8066
▁didnt	-8067
▁rough	-8068
theless	-8069
▁Connie	-8070
▁Joanna	-8071
▁headed	-8072
▁hideout	-8073
▁implied	-8074
▁museums	-8075
▁Southern	-8076
▁reaching	-8077
▁submarine	-8078
▁intentions	-8079
▁conservation	-8080
▁unsuccessful	-8081
icy	-8082
▁Ta	-8083
wick	-8084
▁Rat	-8085
▁cro	-8086
▁mel	-8087
ookie	-8088
▁Home	-8089
▁Sull	-8090
▁Thus	-8091
▁Toms	-8092
▁carn	-8093
▁gate	-8094
▁west	-8095
▁Guild	-8096
▁shark	-8097
▁wrest	-8098
▁corner	-8099
▁thirty	-8100
▁ticket	-8101
▁chronic	-8102
▁dealers	-8103
▁fulfill	-8104
▁variety	-8105
▁troubles	-8106
▁nightmare	-8107
▁acquaintance	-8108
▁deliberately	-8109
▁accomplishments	-8110
hy	-8111
kh	-8112
tw	-8113
aval	-8114
▁Sor	-8115
nings	-8116
▁Deep	-8117
▁Mans	-8118
▁Irene	-8119
▁Vegas	-8120
▁gover	-8121
▁plots	-8122
▁suits	-8123
▁worst	-8124
ighters	-8125
▁Sharon	-8126
▁galaxy	-8127
▁suffer	-8128
▁vessel	-8129
▁highest	-8130
▁shotgun	-8131
▁unravel	-8132
▁striving	-8133
▁featuring	-8134
▁passenger	-8135
▁influencer	-8136
bot	-8137
cul	-8138
▁et	-8139
▁hy	-8140
adel	-8141
▁Gav	-8142
▁Lud	-8143
▁Pur	-8144
▁Cart	-8145
▁clue	-8146
▁fest	-8147
▁rand	-8148
▁spac	-8149
assing	-8150
▁Singh	-8151
▁angel	-8152
▁cloud	-8153
▁trium	-8154
▁finger	-8155
▁pocket	-8156
▁anticip	-8157
▁closest	-8158
▁concept	-8159
▁ambushed	-8160
▁sporting	-8161
▁literally	-8162
▁effortless	-8163
4;	-8164
AR	-8165
HE	-8166
▁Agn	-8167
▁Dub	-8168
▁Hop	-8169
▁Mun	-8170
osaur	-8171
▁Chel	-8172
▁Yeer	-8173
▁unst	-8174
assion	-8175
itates	-8176
▁Porky	-8177
▁blows	-8178
▁clerk	-8179
▁exerc	-8180
▁piano	-8181
▁blames	-8182
▁coffin	-8183
▁Crystal	-8184
▁Zachary	-8185
▁contrib	-8186
▁genetic	-8187
▁magician	-8188
▁sensuality	-8189
ptic	-8190
▁Der	-8191
▁Lyd	-8192
▁Obi	-8193
human	-8194
pathy	-8195
▁Turn	-8196
▁Quinn	-8197
▁invis	-8198
▁issue	-8199
▁spies	-8200
▁random	-8201
▁usually	-8202
▁abandons	-8203
▁enormous	-8204
▁episodes	-8205
▁traveled	-8206
▁wildlife	-8207
▁Commander	-8208
▁available	-8209
▁emotionally	-8210
▁psychological	-8211
▁Ho	-8212
▁Si	-8213
ilia	-8214
vous	-8215
▁Dist	-8216
▁Fern	-8217
▁Iron	-8218
▁Elite	-8219
▁shall	-8220
▁shell	-8221
▁display	-8222
▁killers	-8223
▁winding	-8224
▁Franklin	-8225
▁changing	-8226
▁emotions	-8227
▁employer	-8228
▁relative	-8229
▁reference	-8230
2.	-8231
ami	-8232
leen	-8233
▁Cec	-8234
▁epic	-8235
▁Allen	-8236
▁Flash	-8237
▁indic	-8238
▁reapp	-8239
▁Harvey	-8240
▁Summer	-8241
▁fortun	-8242
▁mathem	-8243
▁creative	-8244
▁deserted	-8245
▁stranded	-8246
▁completed	-8247
▁celebration	-8248
ht	-8249
▁[	-8250
imm	-8251
yps	-8252
▁Lt	-8253
ifes	-8254
▁Ped	-8255
▁Tro	-8256
▁dub	-8257
▁unp	-8258
anton	-8259
ighth	-8260
▁Gwen	-8261
▁cops	-8262
▁Inter	-8263
▁disgr	-8264
▁Alison	-8265
▁Vienna	-8266
▁perfum	-8267
▁resent	-8268
▁thwart	-8269
▁reunite	-8270
▁buildings	-8271
▁departure	-8272
▁winemaking	-8273
ardo	-8274
cial	-8275
ivan	-8276
ylan	-8277
▁Cro	-8278
▁Gem	-8279
▁Rex	-8280
▁gru	-8281
▁Owen	-8282
▁tips	-8283
▁Design	-8284
▁Violet	-8285
▁expose	-8286
▁prosec	-8287
▁Academy	-8288
▁classes	-8289
▁musical	-8290
▁opulent	-8291
▁protest	-8292
▁routine	-8293
▁summons	-8294
antically	-8295
▁disappro	-8296
▁managing	-8297
▁promptly	-8298
▁Returning	-8299
▁convicted	-8300
▁unwilling	-8301
asty	-8302
emet	-8303
▁Nad	-8304
inlaw	-8305
▁Brid	-8306
▁Cale	-8307
▁Like	-8308
▁Shan	-8309
▁mour	-8310
▁Merry	-8311
▁memor	-8312
▁ruled	-8313
▁Canada	-8314
▁behalf	-8315
▁credit	-8316
▁curious	-8317
▁weather	-8318
▁solution	-8319
▁elaborate	-8320
▁gangsters	-8321
▁distraught	-8322
▁settlement	-8323
▁explanation	-8324
iph	-8325
▁ax	-8326
▁Ran	-8327
cedes	-8328
ommod	-8329
▁Lori	-8330
▁mail	-8331
outure	-8332
▁Prest	-8333
▁Sonny	-8334
▁Ronald	-8335
▁anyway	-8336
▁athlet	-8337
▁clinic	-8338
▁exuded	-8339
▁outlaw	-8340
▁pirate	-8341
▁safari	-8342
▁zombie	-8343
▁blended	-8344
▁engages	-8345
▁thereafter	-8346
▁intellectual	-8347
▁occasionally	-8348
aki	-8349
udes	-8350
▁Kap	-8351
icking	-8352
▁Bever	-8353
▁spect	-8354
▁Bishop	-8355
▁statue	-8356
▁traits	-8357
▁Thunder	-8358
▁assumed	-8359
▁closely	-8360
▁fighter	-8361
▁accommod	-8362
▁diamonds	-8363
▁machines	-8364
▁shocking	-8365
▁withdraw	-8366
▁warehouse	-8367
▁personally	-8368
▁properties	-8369
plic	-8370
rive	-8371
wide	-8372
enses	-8373
▁Sept	-8374
▁disl	-8375
▁Wayne	-8376
▁aided	-8377
▁remin	-8378
respond	-8379
▁Curtis	-8380
▁Freder	-8381
▁Samuel	-8382
▁coffee	-8383
▁summon	-8384
▁aftermath	-8385
▁psychiatrist	-8386
"),	-8387
zil	-8388
wind	-8389
▁tap	-8390
rical	-8391
▁Evel	-8392
▁Lost	-8393
▁Nell	-8394
▁Bella	-8395
▁cheer	-8396
▁sheep	-8397
▁fought	-8398
▁wooden	-8399
▁Benjamin	-8400
▁attached	-8401
▁aviation	-8402
▁collapse	-8403
▁confident	-8404
▁controlled	-8405
▁philosophy	-8406
AS	-8407
▁Ha	-8408
gets	-8409
anged	-8410
itzer	-8411
▁Jews	-8412
▁Zoey	-8413
▁lure	-8414
▁rent	-8415
ieving	-8416
▁Venus	-8417
▁added	-8418
▁Nelson	-8419
▁abrupt	-8420
▁Lincoln	-8421
▁finished	-8422
▁teachers	-8423
▁upcoming	-8424
▁anonymous	-8425
▁intervenes	-8426
▁comfortable	-8427
vo	-8428
avi	-8429
upt	-8430
ober	-8431
rice	-8432
rors	-8433
uffs	-8434
ulpt	-8435
▁Fam	-8436
▁Kur	-8437
avier	-8438
ption	-8439
▁Baby	-8440
▁Init	-8441
▁batter	-8442
▁switch	-8443
aneously	-8444
▁fatally	-8445
▁instant	-8446
▁trusted	-8447
▁merchant	-8448
▁precious	-8449
▁artifacts	-8450
▁forgotten	-8451
▁associates	-8452
▁terrifying	-8453
▁mercenaries	-8454
1.	-8455
ags	-8456
haw	-8457
olo	-8458
anie	-8459
atty	-8460
imal	-8461
onde	-8462
real	-8463
▁Aut	-8464
▁Cru	-8465
▁rat	-8466
gment	-8467
ounds	-8468
▁Crow	-8469
▁Math	-8470
▁Road	-8471
▁Toby	-8472
▁hire	-8473
▁inev	-8474
▁keys	-8475
▁Randy	-8476
▁cripp	-8477
▁reass	-8478
▁reson	-8479
assador	-8480
▁Gloria	-8481
▁antagon	-8482
▁letting	-8483
▁motorcy	-8484
▁jealousy	-8485
▁reaction	-8486
▁signature	-8487
▁landscapes	-8488
▁networking	-8489
▁24	-8490
ctic	-8491
gard	-8492
pret	-8493
▁Mom	-8494
▁Rec	-8495
▁Clan	-8496
▁ease	-8497
▁jack	-8498
▁publ	-8499
▁type	-8500
▁Burke	-8501
▁goals	-8502
▁habit	-8503
▁paran	-8504
▁resem	-8505
▁smile	-8506
▁poised	-8507
beknownst	-8508
▁incorpor	-8509
▁sequence	-8510
▁privilege	-8511
▁Department	-8512
▁corruption	-8513
▁invitation	-8514
▁manuscript	-8515
acey	-8516
cont	-8517
ords	-8518
▁Cub	-8519
▁Off	-8520
▁Run	-8521
▁toy	-8522
inder	-8523
osure	-8524
▁Chad	-8525
▁Cost	-8526
▁Five	-8527
▁Joel	-8528
▁Buddy	-8529
▁Lucky	-8530
▁Moore	-8531
▁Witch	-8532
▁lunch	-8533
▁renew	-8534
▁rises	-8535
▁tired	-8536
▁Junior	-8537
▁Morris	-8538
▁climbs	-8539
▁condem	-8540
▁formed	-8541
▁frozen	-8542
▁patron	-8543
▁Antonio	-8544
▁activity	-8545
▁cultures	-8546
▁portrait	-8547
▁summoned	-8548
▁weekends	-8549
▁evolution	-8550
▁portrayed	-8551
▁recruited	-8552
▁Revolution	-8553
ido	-8554
▁Lon	-8555
▁mic	-8556
▁Ever	-8557
▁dial	-8558
▁pill	-8559
ourmet	-8560
rehend	-8561
▁Nazis	-8562
▁Nikki	-8563
▁incap	-8564
▁midst	-8565
▁Amelia	-8566
▁fields	-8567
▁locals	-8568
▁mutual	-8569
▁nights	-8570
▁perpet	-8571
▁sculpt	-8572
ifically	-8573
▁History	-8574
▁Indians	-8575
▁nowhere	-8576
▁widowed	-8577
▁elevator	-8578
▁preferred	-8579
▁pregnancy	-8580
▁slaughter	-8581
▁discussion	-8582
abel	-8583
rien	-8584
▁McK	-8585
▁Rab	-8586
▁Vij	-8587
place	-8588
uster	-8589
▁loft	-8590
person	-8591
▁Hills	-8592
▁souls	-8593
▁strip	-8594
▁twice	-8595
▁Andrea	-8596
▁avenge	-8597
▁daring	-8598
▁minute	-8599
▁posing	-8600
▁Beverly	-8601
▁article	-8602
▁guardian	-8603
▁expensive	-8604
9;	-8605
li	-8606
sea	-8607
icit	-8608
oric	-8609
▁Eld	-8610
break	-8611
▁Mitc	-8612
▁Tint	-8613
▁bung	-8614
▁hung	-8615
▁pure	-8616
▁slow	-8617
▁worry	-8618
emetery	-8619
looking	-8620
▁Sylvia	-8621
▁natives	-8622
▁neglect	-8623
▁behaviour	-8624
▁countries	-8625
▁statement	-8626
Ar	-8627
xy	-8628
▁Pa	-8629
acon	-8630
elli	-8631
▁gro	-8632
▁sla	-8633
▁Lang	-8634
▁Mara	-8635
▁shed	-8636
▁tear	-8637
▁Ultim	-8638
▁admit	-8639
▁beast	-8640
▁chose	-8641
▁comic	-8642
▁exile	-8643
▁silent	-8644
pathetic	-8645
▁Bradley	-8646
▁joining	-8647
▁Mountain	-8648
▁subjects	-8649
▁delivered	-8650
▁telephone	-8651
Wan	-8652
kar	-8653
aser	-8654
aved	-8655
yles	-8656
▁kid	-8657
▁pra	-8658
▁rig	-8659
innie	-8660
▁Rene	-8661
▁cock	-8662
▁feud	-8663
▁icon	-8664
▁taun	-8665
▁Ariel	-8666
▁clock	-8667
▁sells	-8668
▁tourn	-8669
▁Laurie	-8670
▁buying	-8671
▁pleads	-8672
▁stairs	-8673
▁claimed	-8674
▁Director	-8675
▁contempl	-8676
▁interact	-8677
▁mistakes	-8678
▁recruits	-8679
▁breakdown	-8680
▁gathering	-8681
▁structure	-8682
umm	-8683
▁Po	-8684
▁Daw	-8685
▁Pad	-8686
▁Sha	-8687
▁les	-8688
▁Kirk	-8689
▁poem	-8690
▁pond	-8691
urally	-8692
▁Candy	-8693
▁Henri	-8694
▁Party	-8695
▁audio	-8696
▁reduc	-8697
▁aspect	-8698
▁knight	-8699
▁review	-8700
▁superv	-8701
▁destiny	-8702
▁reached	-8703
▁venture	-8704
including	-8705
▁wherever	-8706
iterranean	-8707
▁afterward	-8708
▁pressures	-8709
▁terrified	-8710
▁disappointed	-8711
▁entertainment	-8712
lee	-8713
lym	-8714
oft	-8715
dale	-8716
isor	-8717
writ	-8718
▁Lev	-8719
▁Rem	-8720
oming	-8721
owell	-8722
utter	-8723
▁Chen	-8724
▁Dani	-8725
▁eggs	-8726
▁pupp	-8727
▁Jacks	-8728
▁Ocean	-8729
▁Merlin	-8730
▁Ursula	-8731
▁Willow	-8732
▁unseen	-8733
▁amongst	-8734
▁dropped	-8735
▁replace	-8736
▁undergo	-8737
▁administ	-8738
▁divorced	-8739
▁sabotage	-8740
▁telepath	-8741
▁locations	-8742
▁practices	-8743
▁conference	-8744
▁innovation	-8745
▁fascination	-8746
▁Mediterranean	-8747
").	-8748
▁LA	-8749
oked	-8750
rows	-8751
▁Lup	-8752
▁Mem	-8753
▁Mul	-8754
▁Bear	-8755
▁Lynn	-8756
▁appl	-8757
ologue	-8758
▁Drake	-8759
▁Falco	-8760
▁Offic	-8761
▁disab	-8762
▁drama	-8763
▁Calvin	-8764
▁Elaine	-8765
▁agreed	-8766
▁cattle	-8767
▁mining	-8768
▁robots	-8769
▁solely	-8770
▁charged	-8771
▁Marshall	-8772
▁abortion	-8773
▁parallel	-8774
▁promoted	-8775
▁sections	-8776
▁broadcast	-8777
▁disturbed	-8778
▁executive	-8779
▁,	-8780
igg	-8781
▁AI	-8782
▁Et	-8783
anne	-8784
ghan	-8785
ware	-8786
▁sew	-8787
▁Lane	-8788
▁Miri	-8789
▁herd	-8790
▁mate	-8791
▁fianc	-8792
isation	-8793
▁casual	-8794
▁mainly	-8795
izations	-8796
▁immerse	-8797
▁planets	-8798
▁crossing	-8799
▁reconcil	-8800
▁inhabited	-8801
▁performed	-8802
▁sacrifices	-8803
▁Aj	-8804
pool	-8805
ysis	-8806
apped	-8807
▁Ball	-8808
▁cage	-8809
▁Dylan	-8810
▁Perry	-8811
▁Seven	-8812
▁ethic	-8813
▁funct	-8814
▁Brazil	-8815
▁assume	-8816
▁fabric	-8817
▁insist	-8818
▁shield	-8819
▁Marlowe	-8820
▁Roberts	-8821
▁charity	-8822
▁islands	-8823
▁stylish	-8824
▁witches	-8825
▁Robinson	-8826
▁aspiring	-8827
▁whenever	-8828
▁authority	-8829
▁celebrity	-8830
▁organized	-8831
▁correspond	-8832
▁identified	-8833
Le	-8834
bra	-8835
oda	-8836
▁Fo	-8837
bles	-8838
moon	-8839
ocal	-8840
▁jun	-8841
iform	-8842
lines	-8843
opath	-8844
▁Sund	-8845
▁adul	-8846
▁Casey	-8847
▁Raven	-8848
▁alarm	-8849
▁Richie	-8850
▁decept	-8851
▁tribes	-8852
▁despair	-8853
▁publish	-8854
▁pleasure	-8855
▁belonging	-8856
▁employees	-8857
▁galleries	-8858
▁creativity	-8859
▁independence	-8860
4.	-8861
NA	-8862
bys	-8863
bian	-8864
phic	-8865
▁Add	-8866
▁Isa	-8867
▁Sco	-8868
adian	-8869
umble	-8870
▁link	-8871
▁qual	-8872
ancing	-8873
▁coinc	-8874
▁excel	-8875
▁goods	-8876
▁hitch	-8877
▁wifes	-8878
▁duties	-8879
▁misses	-8880
▁prepar	-8881
▁storms	-8882
▁Knowing	-8883
▁produce	-8884
▁villain	-8885
▁knocking	-8886
▁occurred	-8887
▁preserve	-8888
▁resolves	-8889
▁thriving	-8890
▁dismisses	-8891
▁emergency	-8892
▁generally	-8893
▁represents	-8894
cho	-8895
ryn	-8896
▁Fr	-8897
asis	-8898
▁tea	-8899
olate	-8900
▁ally	-8901
▁fare	-8902
▁lect	-8903
▁Carla	-8904
▁Doyle	-8905
▁Scamb	-8906
▁solar	-8907
▁tales	-8908
▁Claude	-8909
▁broker	-8910
▁crying	-8911
▁cultiv	-8912
▁paying	-8913
▁Further	-8914
▁authors	-8915
▁conquer	-8916
▁element	-8917
▁Veronica	-8918
▁abducted	-8919
▁artifact	-8920
▁killings	-8921
▁gentleman	-8922
▁Ultimately	-8923
▁industrial	-8924
PD	-8925
eav	-8926
wall	-8927
▁Ira	-8928
▁duo	-8929
▁fru	-8930
▁nom	-8931
igned	-8932
othel	-8933
ounty	-8934
▁1960	-8935
▁Cran	-8936
▁Fall	-8937
▁chal	-8938
▁dict	-8939
▁scen	-8940
▁tiny	-8941
▁Banks	-8942
▁Sunny	-8943
▁morph	-8944
▁snake	-8945
▁Middle	-8946
▁Teresa	-8947
▁appeal	-8948
▁nobody	-8949
▁Without	-8950
▁painter	-8951
▁northern	-8952
▁shootout	-8953
▁customers	-8954
▁forbidden	-8955
▁gatherings	-8956
▁increasing	-8957
▁interesting	-8958
▁expectations	-8959
achi	-8960
omic	-8961
▁Dod	-8962
▁Rox	-8963
ikely	-8964
umped	-8965
uting	-8966
▁Troy	-8967
▁amid	-8968
▁eats	-8969
▁wing	-8970
▁Diego	-8971
▁alert	-8972
▁Invest	-8973
▁papers	-8974
▁signal	-8975
▁election	-8976
▁imperson	-8977
▁assassins	-8978
▁encourage	-8979
▁governess	-8980
▁possesses	-8981
▁uncertain	-8982
▁laboratory	-8983
▁seamlessly	-8984
▁bestselling	-8985
▁understands	-8986
▁conversations	-8987
irk	-8988
rod	-8989
▁Yu	-8990
▁Isl	-8991
▁log	-8992
▁ric	-8993
▁scr	-8994
▁Prot	-8995
▁hate	-8996
▁Again	-8997
▁Feder	-8998
▁burgl	-8999
▁Seeing	-9000
▁hypnot	-9001
▁raises	-9002
▁stream	-9003
▁council	-9004
▁fortress	-9005
▁recovery	-9006
▁Victorian	-9007
▁paintings	-9008
▁violently	-9009
▁frightened	-9010
▁invaluable	-9011
▁engineering	-9012
▁questioning	-9013
▁Of	-9014
gest	-9015
kers	-9016
▁Leg	-9017
▁fet	-9018
▁ham	-9019
omach	-9020
▁argu	-9021
▁toss	-9022
▁Kenny	-9023
▁skept	-9024
▁Graham	-9025
▁endeav	-9026
▁sleeps	-9027
▁trains	-9028
▁Gregory	-9029
▁Service	-9030
▁couples	-9031
▁getaway	-9032
▁producer	-9033
▁protests	-9034
▁notorious	-9035
▁plantation	-9036
igm	-9037
orc	-9038
paw	-9039
sex	-9040
▁Ll	-9041
aman	-9042
▁Kin	-9043
ersey	-9044
press	-9045
ufact	-9046
▁Bets	-9047
▁heat	-9048
amples	-9049
icians	-9050
▁Power	-9051
▁Rowan	-9052
▁hobby	-9053
▁mixed	-9054
▁traps	-9055
▁Circle	-9056
▁Oxford	-9057
▁stress	-9058
▁belongs	-9059
▁missile	-9060
▁settled	-9061
▁laughter	-9062
▁devastating	-9063
IS	-9064
bow	-9065
▁Ye	-9066
bury	-9067
lesh	-9068
udge	-9069
▁Fant	-9070
▁Mend	-9071
▁Morg	-9072
▁sale	-9073
vation	-9074
▁bombs	-9075
▁cries	-9076
▁trunk	-9077
▁Jessie	-9078
▁basket	-9079
▁deputy	-9080
ointment	-9081
▁circles	-9082
▁cocaine	-9083
▁welcome	-9084
▁communic	-9085
▁controls	-9086
▁According	-9087
▁prompting	-9088
▁specialist	-9089
▁differences	-9090
▁participate	-9091
wan	-9092
▁Gh	-9093
alow	-9094
▁Aur	-9095
▁Bea	-9096
▁Mik	-9097
▁Pep	-9098
rupts	-9099
▁Budd	-9100
▁Cold	-9101
▁neur	-9102
▁unle	-9103
blower	-9104
izards	-9105
▁Karan	-9106
▁siege	-9107
steroid	-9108
▁Corpor	-9109
▁armies	-9110
▁cowork	-9111
▁marvel	-9112
▁portal	-9113
▁Natalie	-9114
▁recruit	-9115
▁worship	-9116
▁opposite	-9117
▁captivate	-9118
▁infectious	-9119
▁institution	-9120
10	-9121
amas	-9122
aney	-9123
anya	-9124
ario	-9125
aris	-9126
atha	-9127
oven	-9128
▁Aly	-9129
▁Lan	-9130
▁Pak	-9131
▁cup	-9132
▁Down	-9133
▁Lanc	-9134
▁Mand	-9135
▁polo	-9136
▁stun	-9137
▁Rover	-9138
▁Water	-9139
▁fever	-9140
▁rings	-9141
▁schem	-9142
▁commer	-9143
▁greatly	-9144
▁Courtney	-9145
▁flourish	-9146
▁majority	-9147
▁meetings	-9148
▁messages	-9149
▁identifies	-9150
▁respective	-9151
▁instructions	-9152
▁International	-9153
▁communication	-9154
!"	-9155
bon	-9156
gus	-9157
ogy	-9158
▁Oh	-9159
hard	-9160
quer	-9161
▁Odd	-9162
amous	-9163
ilton	-9164
▁Benn	-9165
▁Jody	-9166
▁Otto	-9167
▁Champ	-9168
▁Mered	-9169
▁Order	-9170
▁Prime	-9171
▁Aubrey	-9172
▁eldest	-9173
▁insult	-9174
▁ladies	-9175
▁recomm	-9176
▁scared	-9177
▁themes	-9178
▁beliefs	-9179
▁conserv	-9180
▁masters	-9181
▁Meredith	-9182
▁Mitchell	-9183
▁dramatic	-9184
▁intimate	-9185
▁reported	-9186
▁southern	-9187
▁Initially	-9188
▁teenagers	-9189
ede	-9190
rak	-9191
zes	-9192
▁Ms	-9193
▁Bul	-9194
▁spo	-9195
▁vic	-9196
angle	-9197
▁cosm	-9198
▁loud	-9199
▁rope	-9200
stones	-9201
▁Flint	-9202
▁Krish	-9203
▁infat	-9204
▁prize	-9205
▁Sheila	-9206
▁conven	-9207
▁honors	-9208
▁motion	-9209
▁satell	-9210
▁treats	-9211
▁Cameron	-9212
▁Georges	-9213
▁comprom	-9214
▁ignores	-9215
▁traffic	-9216
▁Everyone	-9217
▁depicted	-9218
▁bodyguard	-9219
▁entrepreneur	-9220
ea	-9221
bad	-9222
eda	-9223
yan	-9224
▁Amb	-9225
▁Dim	-9226
ivery	-9227
ucker	-9228
▁Dall	-9229
▁Hale	-9230
▁Toni	-9231
▁comr	-9232
▁guys	-9233
▁inqu	-9234
▁quit	-9235
making	-9236
▁Agnes	-9237
▁Conan	-9238
▁consc	-9239
▁eaten	-9240
▁surve	-9241
▁Inside	-9242
▁adults	-9243
▁handle	-9244
▁mortal	-9245
▁welcom	-9246
▁Reacher	-9247
▁combine	-9248
▁coveted	-9249
▁raising	-9250
▁Sullivan	-9251
▁announce	-9252
▁defeating	-9253
▁instructs	-9254
▁distracted	-9255
▁encountered	-9256
▁exhibitions	-9257
▁considerable	-9258
ti	-9259
hire	-9260
▁Duc	-9261
▁Inn	-9262
▁lic	-9263
ellar	-9264
▁Hels	-9265
▁ster	-9266
▁Ricky	-9267
▁funds	-9268
▁prime	-9269
▁utter	-9270
▁waves	-9271
▁Mickey	-9272
▁gotten	-9273
▁heroin	-9274
▁parent	-9275
▁counsel	-9276
▁feature	-9277
▁quietly	-9278
▁finishes	-9279
▁narrated	-9280
▁unlikely	-9281
▁intercept	-9282
▁physician	-9283
gil	-9284
yll	-9285
▁Hy	-9286
holm	-9287
thal	-9288
▁Hob	-9289
aints	-9290
isure	-9291
▁amen	-9292
▁cope	-9293
asmine	-9294
▁Evans	-9295
▁attic	-9296
▁Evelyn	-9297
▁Warren	-9298
▁horrif	-9299
▁partly	-9300
▁spared	-9301
▁chasing	-9302
▁kissing	-9303
▁recalls	-9304
▁uniform	-9305
▁abruptly	-9306
▁appeared	-9307
▁artistic	-9308
▁downtime	-9309
▁grandson	-9310
▁restoring	-9311
▁treatments	-9312
▁permanently	-9313
ori	-9314
oyd	-9315
tery	-9316
ulet	-9317
▁Mam	-9318
erial	-9319
illas	-9320
ylvan	-9321
▁Abra	-9322
▁Bird	-9323
▁Last	-9324
▁prin	-9325
iously	-9326
▁Betsy	-9327
▁crown	-9328
▁mayor	-9329
▁relie	-9330
▁smoke	-9331
▁genius	-9332
▁growth	-9333
▁images	-9334
▁extract	-9335
▁stopping	-9336
ologically	-9337
▁Institute	-9338
▁underworld	-9339
▁combination	-9340
hu	-9341
aws	-9342
hop	-9343
lem	-9344
nic	-9345
pes	-9346
rous	-9347
▁Tat	-9348
▁vul	-9349
phant	-9350
▁Orle	-9351
▁bicy	-9352
▁monk	-9353
ingers	-9354
▁Edgar	-9355
▁Ellie	-9356
▁Flora	-9357
▁Frost	-9358
▁nickn	-9359
▁patri	-9360
▁tough	-9361
▁aftern	-9362
▁enthusi	-9363
▁cemetery	-9364
▁function	-9365
▁massacre	-9366
▁assassinate	-9367
▁experimenting	-9368
St	-9369
oki	-9370
▁Id	-9371
erty	-9372
▁Bus	-9373
▁fra	-9374
&#39;	-9375
ouses	-9376
ropri	-9377
uming	-9378
▁Core	-9379
▁Doug	-9380
▁Jose	-9381
▁Coast	-9382
▁Joyce	-9383
▁Third	-9384
▁aside	-9385
▁basic	-9386
▁orche	-9387
▁trace	-9388
▁Atlant	-9389
▁Sister	-9390
▁cellar	-9391
▁sequel	-9392
▁Shannon	-9393
▁healing	-9394
▁nations	-9395
▁internal	-9396
▁manufact	-9397
▁ventures	-9398
▁invisible	-9399
▁hospitality	-9400
osa	-9401
▁Ish	-9402
▁Vic	-9403
based	-9404
▁Scro	-9405
▁Vera	-9406
▁Wong	-9407
▁exit	-9408
▁seas	-9409
▁stro	-9410
eriors	-9411
▁Devil	-9412
▁Honor	-9413
▁Space	-9414
▁liber	-9415
▁sings	-9416
▁wears	-9417
▁Conrad	-9418
▁Muslim	-9419
▁Tintin	-9420
▁builds	-9421
▁expans	-9422
▁regain	-9423
▁Chapter	-9424
▁bandits	-9425
▁motives	-9426
▁resorts	-9427
▁threats	-9428
▁resident	-9429
▁tailored	-9430
▁Valentine	-9431
▁orphanage	-9432
▁Hornblower	-9433
▁determines	-9434
▁motorcycle	-9435
▁intricacies	-9436
aksh	-9437
▁Hog	-9438
▁tip	-9439
anned	-9440
▁Bean	-9441
▁nose	-9442
▁wave	-9443
arents	-9444
arring	-9445
▁Haven	-9446
▁Hotel	-9447
▁Micha	-9448
▁absol	-9449
▁camps	-9450
▁overt	-9451
▁union	-9452
powered	-9453
▁archae	-9454
▁exclus	-9455
▁brothel	-9456
▁cousins	-9457
▁painful	-9458
▁slavery	-9459
▁therapy	-9460
▁traitor	-9461
▁watched	-9462
▁windows	-9463
▁embodied	-9464
▁gunpoint	-9465
▁collected	-9466
▁superiors	-9467
▁Collectors	-9468
▁misunderst	-9469
▁masterpiece	-9470
AT	-9471
alo	-9472
▁ce	-9473
lymp	-9474
▁Bah	-9475
▁Lex	-9476
icial	-9477
oples	-9478
▁Head	-9479
▁barg	-9480
▁cool	-9481
▁phen	-9482
▁ruin	-9483
▁Vijay	-9484
▁arrog	-9485
▁cargo	-9486
▁excit	-9487
▁manif	-9488
ylvania	-9489
▁Pamela	-9490
▁Temple	-9491
▁gifted	-9492
▁junior	-9493
▁anymore	-9494
▁assures	-9495
▁endless	-9496
▁expense	-9497
▁hunters	-9498
▁regains	-9499
▁Marianne	-9500
▁proclaim	-9501
▁describing	-9502
▁tournament	-9503
▁volunteers	-9504
DS	-9505
jud	-9506
pit	-9507
burn	-9508
▁Age	-9509
▁Cyr	-9510
▁Ing	-9511
▁ber	-9512
▁Wade	-9513
▁intr	-9514
▁tact	-9515
astery	-9516
▁Kumar	-9517
▁bloss	-9518
▁crazy	-9519
▁hangs	-9520
brother	-9521
▁Dallas	-9522
▁Venice	-9523
▁closet	-9524
▁firing	-9525
▁Griffin	-9526
▁biggest	-9527
▁cigaret	-9528
▁furnish	-9529
▁removes	-9530
▁reunion	-9531
▁stomach	-9532
▁Canadian	-9533
▁declared	-9534
▁district	-9535
▁graduate	-9536
▁narrowly	-9537
▁strongly	-9538
▁publisher	-9539
▁interviews	-9540
▁relaxation	-9541
▁alternative	-9542
▁py	-9543
grim	-9544
iker	-9545
ingo	-9546
angel	-9547
child	-9548
state	-9549
▁Plan	-9550
▁tyco	-9551
atches	-9552
iosity	-9553
ixture	-9554
▁Elmer	-9555
▁Sadie	-9556
▁glory	-9557
▁outdo	-9558
▁stones	-9559
▁volume	-9560
▁leisure	-9561
▁kindness	-9562
▁intending	-9563
▁screaming	-9564
▁stepfather	-9565
▁suggestion	-9566
▁protagonists	-9567
ali	-9568
gor	-9569
▁Ok	-9570
hill	-9571
onia	-9572
quin	-9573
▁Pil	-9574
▁hal	-9575
▁web	-9576
▁Pars	-9577
▁coat	-9578
▁east	-9579
▁taxi	-9580
omfort	-9581
▁Shane	-9582
▁analy	-9583
▁gangs	-9584
▁skull	-9585
▁tempt	-9586
▁vault	-9587
▁wives	-9588
▁Carmen	-9589
▁Heaven	-9590
▁abused	-9591
▁adored	-9592
▁clever	-9593
▁framed	-9594
▁prefer	-9595
▁Orleans	-9596
▁arguing	-9597
▁gourmet	-9598
▁install	-9599
▁thieves	-9600
▁bungalow	-9601
▁drowning	-9602
▁refusing	-9603
▁reunites	-9604
▁poisoning	-9605
▁excitement	-9606
▁stepmother	-9607
▁investigator	-9608
ibi	-9609
tes	-9610
▁Ep	-9611
ayne	-9612
▁Dad	-9613
▁Ker	-9614
▁Tig	-9615
▁Zor	-9616
▁Turk	-9617
▁craw	-9618
▁envy	-9619
▁mode	-9620
▁poker	-9621
▁shift	-9622
▁twist	-9623
acement	-9624
▁Athens	-9625
▁Sookie	-9626
▁branch	-9627
▁explor	-9628
▁proved	-9629
▁undert	-9630
▁warned	-9631
▁acquire	-9632
▁typical	-9633
▁acquired	-9634
▁cheating	-9635
▁delivery	-9636
▁governor	-9637
▁immortal	-9638
▁classmate	-9639
▁explained	-9640
▁revolutionary	-9641
enz	-9642
oen	-9643
▁Cz	-9644
hips	-9645
iets	-9646
mund	-9647
▁Inc	-9648
▁Mow	-9649
▁Sax	-9650
▁dre	-9651
ansas	-9652
berry	-9653
▁Glob	-9654
▁Kurt	-9655
▁Vicky	-9656
▁absor	-9657
▁areas	-9658
▁dwarf	-9659
▁perce	-9660
ustomed	-9661
▁Helena	-9662
▁Lionel	-9663
▁dismay	-9664
▁hanged	-9665
▁liking	-9666
▁poetry	-9667
▁rabbit	-9668
▁gaining	-9669
▁gathers	-9670
▁surgeon	-9671
▁awaiting	-9672
▁occupied	-9673
▁slightly	-9674
▁transfer	-9675
▁uncovers	-9676
▁resonated	-9677
▁disturbing	-9678
▁lieutenant	-9679
▁revelation	-9680
▁surroundings	-9681
▁IS	-9682
term	-9683
zing	-9684
▁Lar	-9685
▁Rup	-9686
▁bot	-9687
▁pin	-9688
arner	-9689
▁Brig	-9690
▁plun	-9691
▁porn	-9692
bourne	-9693
▁Giles	-9694
▁Stock	-9695
▁asset	-9696
▁camer	-9697
▁depos	-9698
▁rapes	-9699
ameless	-9700
▁County	-9701
▁Forest	-9702
▁Harper	-9703
▁Jersey	-9704
▁Knight	-9705
▁Napole	-9706
▁winery	-9707
▁dresses	-9708
▁excited	-9709
▁silence	-9710
▁thereby	-9711
▁trailer	-9712
▁asteroid	-9713
▁confides	-9714
▁waitress	-9715
▁nicknamed	-9716
▁practical	-9717
▁retirement	-9718
now	-9719
▁Ow	-9720
capt	-9721
▁21,	-9722
▁Din	-9723
illes	-9724
▁Boys	-9725
▁epit	-9726
▁Domin	-9727
▁pursu	-9728
▁Ripley	-9729
▁boards	-9730
▁concer	-9731
▁incomp	-9732
▁motive	-9733
▁sailor	-9734
▁traces	-9735
▁opinion	-9736
▁western	-9737
▁Isabella	-9738
▁protected	-9739
▁consulting	-9740
▁impression	-9741
folk	-9742
shot	-9743
▁row	-9744
uffed	-9745
▁Hand	-9746
▁Vish	-9747
▁lion	-9748
▁Olymp	-9749
▁Trans	-9750
▁Wells	-9751
▁clown	-9752
▁milit	-9753
itating	-9754
▁bounty	-9755
▁origin	-9756
▁Valerie	-9757
▁coastal	-9758
▁flowers	-9759
▁schemes	-9760
▁Michaels	-9761
▁amenities	-9762
▁honeymoon	-9763
▁identical	-9764
▁interpret	-9765
▁reconnect	-9766
▁retrieves	-9767
▁furnishings	-9768
50	-9769
eor	-9770
nan	-9771
▁MI	-9772
acht	-9773
bage	-9774
oral	-9775
oran	-9776
▁Chi	-9777
▁Pop	-9778
▁gig	-9779
▁gym	-9780
▁Bone	-9781
▁Craw	-9782
▁Milo	-9783
▁Mong	-9784
mitted	-9785
▁Becky	-9786
▁Caleb	-9787
▁Johns	-9788
▁Pedro	-9789
▁marks	-9790
▁mutil	-9791
▁cannib	-9792
▁caring	-9793
▁covert	-9794
▁openly	-9795
▁Maurice	-9796
▁resolve	-9797
▁Constant	-9798
▁Thompson	-9799
▁critical	-9800
▁increase	-9801
▁unstable	-9802
▁overthrow	-9803
▁accompanies	-9804
▁remembering	-9805
▁experiencing	-9806
6.	-9807
joy	-9808
mad	-9809
pin	-9810
onto	-9811
enery	-9812
▁Swed	-9813
▁Wats	-9814
▁glad	-9815
▁liqu	-9816
▁Hazel	-9817
▁Milan	-9818
▁disin	-9819
▁hills	-9820
▁teeth	-9821
parents	-9822
▁Rogers	-9823
▁memoir	-9824
▁thrill	-9825
▁Natasha	-9826
▁Officer	-9827
▁costume	-9828
▁pretend	-9829
▁remarks	-9830
▁Harrison	-9831
▁academic	-9832
▁musician	-9833
▁orphaned	-9834
▁publicly	-9835
▁requires	-9836
▁immediate	-9837
▁radiation	-9838
ultaneously	-9839
put	-9840
fare	-9841
plot	-9842
uana	-9843
▁Jas	-9844
▁fug	-9845
▁ske	-9846
▁upd	-9847
▁Cook	-9848
▁ensl	-9849
▁joke	-9850
▁yard	-9851
▁Darcy	-9852
▁Peggy	-9853
▁crack	-9854
▁feast	-9855
▁scare	-9856
iceless	-9857
▁Pierre	-9858
▁Stuart	-9859
▁height	-9860
▁relent	-9861
▁sounds	-9862
▁madness	-9863
▁describe	-9864
▁employed	-9865
▁horrible	-9866
▁midnight	-9867
▁prospect	-9868
▁associate	-9869
▁curiosity	-9870
▁exception	-9871
▁everywhere	-9872
▁questioned	-9873
▁collections	-9874
▁prostitutes	-9875
▁transformation	-9876
▁unsuccessfully	-9877
box	-9878
oko	-9879
heim	-9880
long	-9881
▁Gun	-9882
▁gat	-9883
▁	-9884
e	-9885
t	-9886
a	-9887
i	-9888
n	-9889
o	-9890
s	-9891
r	-9892
h	-9893
l	-9894
d	-9895
c	-9896
u	-9897
m	-9898
f	-9899
g	-9900
p	-9901
y	-9902
w	-9903
b	-9904
,	-9905
v	-9906
.	-9907
k	-9908
T	-9909
S	-9910
A	-9911
M	-9912
H	-9913
C	-9914
x	-9915
B	-9916
'	-9917
D	-9918
J	-9919
L	-9920
R	-9921
W	-9922
I	-9923
P	-9924
-	-9925
G	-9926
j	-9927
E	-9928
F	-9929
z	-9930
K	-9931
N	-9932
"	-9933
q	-9934
O	-9935
V	-9936
1	-9937
U	-9938
)	-9939
(	-9940
0	-9941
Y	-9942
;	-9943
9	-9944
:	-9945
2	-9946
Z	-9947
3	-9948
5	-9949
4	-9950
8	-9951
Q	-9952
7	-9953
6	-9954
?	-9955
*	-9956
&	-9957
!	-9958
X	-9959
#	-9960
/	-9961
]	-9962
[	-9963
$	-9964
|	-9965
=	-9966
<	-9967
>	-9968
%	-9969
_	-9970
+	-9971
`	-9972
}	-9973
{	-9974
@	-9975
~	-9976
\	-9977
^	-9978
